<unk>	0
<s>	0
</s>	0
.	-3.50147
,	-3.82355
'	-4.04792
▁	-4.17434
▁==	-4.18799
▁ve	-4.48298
:	-4.54406
▁Kategori	-4.8998
▁(	-5.05609
▁bir	-5.06302
s	-5.10004
)	-5.13023
▁''	-5.13709
i	-5.15173
''	-5.16332
n	-5.19857
a	-5.25698
e	-5.30031
de	-5.4067
da	-5.45736
t	-5.58134
-	-5.5831
ler	-5.58714
k	-5.58958
lar	-5.61553
in	-5.74208
'''	-5.77054
▁'''	-5.80413
d	-5.82533
▁olarak	-5.85324
y	-5.90436
li	-5.94109
"	-5.94174
na	-5.95188
ları	-5.98544
▁ile	-5.98661
nin	-5.98935
r	-6.00347
leri	-6.05891
te	-6.06753
u	-6.07238
▁"	-6.07855
ya	-6.09148
▁===	-6.1112
ı	-6.12331
ne	-6.13249
m	-6.13956
si	-6.16317
nın	-6.17024
▁yılında	-6.17205
l	-6.1911
o	-6.22275
ın	-6.23453
z	-6.24494
▁Kaynakça	-6.2894
ta	-6.29067
le	-6.35356
la	-6.35741
▁de	-6.36207
lı	-6.3707
▁futbolcuları	-6.37489
▁için	-6.41864
▁olan	-6.43053
▁tarafından	-6.43803
ma	-6.44652
ni	-6.47249
an	-6.49945
un	-6.50615
▁da	-6.53572
A	-6.55684
▁bu	-6.55685
dir	-6.58
p	-6.58023
nda	-6.5898
ye	-6.59031
▁bağlantılar	-6.59792
er	-6.61007
nde	-6.61088
den	-6.61222
==	-6.63213
S	-6.64058
▁*	-6.64555
▁A	-6.64886
en	-6.66851
),	-6.68176
▁Bu	-6.68397
2	-6.6891
▁sonra	-6.69189
h	-6.6948
▁S	-6.69623
▁yer	-6.72545
▁18	-6.72961
ki	-6.73423
▁Dış	-6.73521
dan	-6.74003
di	-6.74452
sı	-6.78275
1	-6.79623
dır	-6.807
al	-6.84667
f	-6.8549
’	-6.85555
▁doğumlular	-6.86375
3	-6.87457
me	-6.88114
B	-6.89203
C	-6.89484
g	-6.94276
▁ilk	-6.94461
lik	-6.96124
▁en	-6.96685
ş	-6.97
;	-6.97232
4	-6.97468
5	-6.97588
ca	-6.99166
c	-6.99517
7	-6.99577
▁Türk	-7.00397
6	-7.01076
▁göre	-7.02269
ce	-7.04131
re	-7.04762
▁of	-7.05753
▁15	-7.06183
E	-7.06775
T	-7.08467
8	-7.08924
lık	-7.09973
▁arasında	-7.1046
lu	-7.1061
9	-7.10738
K	-7.12342
ra	-7.12691
ti	-7.13019
v	-7.13255
G	-7.13514
P	-7.1578
0	-7.1585
▁E	-7.16034
b	-7.17062
ri	-7.17344
M	-7.18888
▁daha	-7.1912
man	-7.21213
▁ise	-7.21581
▁bağlı	-7.22489
ka	-7.23432
▁K	-7.24218
x	-7.24776
ç	-7.25546
el	-7.26069
▁Türkiye	-7.26505
sa	-7.26633
▁km	-7.27843
▁10	-7.2861
us	-7.28808
O	-7.28964
▁16	-7.29146
ar	-7.29574
▁2010	-7.29803
▁12	-7.31192
▁17	-7.32021
nı	-7.3213
ur	-7.3247
at	-7.3274
▁I	-7.33427
D	-7.33434
▁2009	-7.3358
▁kadar	-7.34223
▁gibi	-7.34434
F	-7.34649
se	-7.34723
▁2007	-7.35401
ların	-7.35532
on	-7.35748
I	-7.36049
ci	-7.3636
▁iki	-7.36705
▁T	-7.36808
▁futbolcular	-7.3751
▁veya	-7.37541
▁14	-7.37645
▁tarihinde	-7.37811
▁O	-7.38907
ga	-7.38958
ro	-7.39193
il	-7.39506
▁oldu	-7.39813
▁2012	-7.40027
▁2008	-7.40139
ir	-7.4022
▁the	-7.40499
va	-7.41478
▁2014	-7.41736
/	-7.41839
▁B	-7.41887
▁20	-7.42442
▁Dünya	-7.42676
▁2013	-7.42761
▁G	-7.43054
▁2011	-7.439
ü	-7.44016
▁13	-7.44369
to	-7.44454
▁2015	-7.45005
The	-7.45694
▁Me	-7.45904
▁çok	-7.46412
ge	-7.47825
▁adı	-7.48145
▁C	-7.48731
lerin	-7.49046
▁büyük	-7.49377
▁M	-7.49883
▁alan	-7.51158
ine	-7.51359
▁F	-7.51394
it	-7.51552
▁2016	-7.5157
ck	-7.51699
daki	-7.51721
yı	-7.51883
▁En	-7.52266
▁ilçesine	-7.5279
▁nüfus	-7.53272
ul	-7.54288
lan	-7.54332
▁Partisi	-7.54622
▁P	-7.55328
▁İstanbul	-7.56081
▁Ayrıca	-7.56894
im	-7.56904
H	-7.57542
▁insanlar	-7.57565
▁ya	-7.57672
L	-7.57858
st	-7.57888
▁Ma	-7.58173
ha	-7.58482
Birleşik	-7.58941
ten	-7.59012
▁2018	-7.59289
▁filmler	-7.59727
nden	-7.59728
mi	-7.59793
su	-7.60174
nun	-7.60309
th	-7.60447
▁2017	-7.60708
▁Mart	-7.61125
et	-7.61169
tan	-7.61201
ır	-7.61205
ak	-7.61321
▁D	-7.61373
ba	-7.61982
▁in	-7.62218
▁görev	-7.62297
▁Se	-7.62571
es	-7.62673
bi	-7.62727
▁köy	-7.62845
▁ölenler	-7.63124
▁Re	-7.63649
▁2000	-7.63787
▁Üniversitesi	-7.63925
lo	-7.64058
▁2019	-7.64677
ndan	-7.64866
▁kadın	-7.6493
▁olduğu	-7.65319
▁11	-7.65584
▁U	-7.65713
▁Ha	-7.66232
yi	-7.66792
um	-7.67201
▁La	-7.67494
▁21	-7.68227
j	-7.68551
deki	-7.69154
▁Sa	-7.6975
ğ	-7.70387
yla	-7.70428
▁futbol	-7.70551
tı	-7.70641
is	-7.709
00	-7.70964
▁Avrupa	-7.7175
ke	-7.72408
w	-7.73118
▁22	-7.73433
▁The	-7.75547
zi	-7.75574
▁19	-7.75589
▁bulunan	-7.75707
os	-7.75747
▁filmleri	-7.75909
▁Bir	-7.75968
▁Na	-7.76751
▁25	-7.76758
▁30	-7.77032
▁eski	-7.77033
do	-7.77386
ter	-7.77389
▁23	-7.77849
▁birlikte	-7.7879
▁Ba	-7.78795
▁aynı	-7.7883
▁Al	-7.78842
▁yıl	-7.7887
▁millî	-7.78915
▁Mayıs	-7.79322
ch	-7.79434
yle	-7.79781
▁24	-7.79783
▁Ocak	-7.79823
ing	-7.79914
or	-7.79954
V	-7.8006
é	-7.80371
▁26	-7.80399
be	-7.80412
ran	-7.80696
▁Haziran	-7.80824
▁De	-7.80885
▁aldı	-7.81162
dı	-7.81218
ve	-7.81415
dur	-7.82063
▁Kasım	-7.82146
▁R	-7.82208
▁**	-7.82757
▁diğer	-7.83057
▁mahalle	-7.83143
▁Nüfus	-7.83384
19	-7.83462
▁Temmuz	-7.83652
▁Ka	-7.83854
▁adlı	-7.84014
ken	-7.8415
za	-7.84353
▁Ekim	-7.84547
▁Nisan	-7.84746
▁Kupası	-7.84762
han	-7.84808
▁Li	-7.85066
ik	-7.85228
liği	-7.8527
no	-7.85296
▁Eylül	-7.85754
sel	-7.86023
▁Ar	-7.86239
▁and	-7.86298
ün	-7.86342
▁Ağustos	-7.86787
▁Ne	-7.87645
len	-7.88224
Türk	-7.88261
▁H	-7.88602
lü	-7.89063
▁Di	-7.89427
▁karşı	-7.8946
go	-7.89534
▁Film	-7.89832
ö	-7.89982
▁ilinin	-7.89999
N	-7.9047
mo	-7.90492
▁Be	-7.90594
▁etti	-7.90842
▁merkezine	-7.91109
R	-7.91123
cı	-7.9136
as	-7.91381
'',	-7.91407
ton	-7.91462
▁2020	-7.91891
larda	-7.9214
▁takımı	-7.92607
▁yüzyıl	-7.92613
Kaynakça	-7.93096
ol	-7.9312
der	-7.93277
U	-7.93928
▁verileri	-7.93933
tu	-7.9411
vi	-7.94689
▁Ra	-7.94802
▁erkek	-7.94832
▁Devletleri	-7.94953
lerde	-7.95059
▁27	-7.95416
▁Şubat	-7.95569
du	-7.95629
lerini	-7.95903
▁Le	-7.96036
▁İ	-7.96107
yan	-7.96522
▁Ödülü	-7.9664
▁Aralık	-7.96711
ia	-7.97294
larını	-7.9739
lara	-7.97568
▁il	-7.98144
son	-7.98737
▁28	-7.98759
▁başladı	-7.98867
▁her	-7.99898
▁kurulan	-8.00143
▁*''	-8.00728
▁Er	-8.00794
▁olmuştur	-8.01043
ko	-8.01068
▁kg	-8.0149
çi	-8.01566
W	-8.01745
▁Te	-8.01794
hi	-8.02753
▁Ca	-8.02765
ini	-8.0281
lama	-8.0286
kan	-8.02929
lığı	-8.03021
▁Yıllara	-8.03041
▁Dosya	-8.03349
▁N	-8.03481
▁son	-8.03528
▁bakınız	-8.03956
▁yeni	-8.04097
▁Köy	-8.04127
▁1990	-8.04176
▁Amerika	-8.04404
luk	-8.04443
İ	-8.04484
ver	-8.048
▁yılları	-8.05165
ed	-8.05285
▁tarihi	-8.0554
▁Su	-8.05663
▁Tarihçe	-8.05703
▁yaptı	-8.06024
co	-8.06194
▁Da	-8.06552
ry	-8.06802
▁gurbetçi	-8.07214
▁3.	-8.07387
sh	-8.08122
▁Osmanlı	-8.0837
▁at	-8.08467
▁Lig	-8.08491
spor	-8.09052
ov	-8.09219
▁Şarkı	-8.0922
▁2006	-8.09386
▁29	-8.09613
nu	-8.09779
▁iş	-8.09947
tır	-8.10043
▁yılı	-8.10166
lere	-8.10644
gi	-8.10787
▁teknik	-8.10853
▁2021	-8.10925
mak	-8.11022
çe	-8.1103
▁Ak	-8.11205
▁2.	-8.11243
▁1.	-8.11252
▁Co	-8.11456
▁Amerikalı	-8.11474
ze	-8.11833
▁film	-8.12317
▁Mi	-8.1242
ren	-8.12427
▁dönem	-8.1283
▁Ta	-8.13279
▁V	-8.13289
▁Bo	-8.13318
ça	-8.13607
▁Savaşı	-8.13616
▁televizyon	-8.13675
▁yapılan	-8.1396
tir	-8.1422
cu	-8.14316
▁L	-8.14324
▁su	-8.14519
–	-8.15024
larında	-8.15049
▁To	-8.15418
Y	-8.15795
am	-8.15989
▁olup	-8.16311
oğlu	-8.16323
ho	-8.16323
pa	-8.16671
▁Pa	-8.16926
▁J	-8.16943
fa	-8.17012
▁Ro	-8.1702
â	-8.17323
▁ABD	-8.17416
▁takım	-8.17459
ek	-8.17539
(	-8.17743
▁doğumlu	-8.17744
▁İyi	-8.18786
▁önce	-8.18927
▁1985	-8.19093
▁önemli	-8.1916
▁on	-8.19378
▁2005	-8.1947
▁ev	-8.19616
▁zaman	-8.19687
▁vardır	-8.19797
men	-8.19932
▁al	-8.19934
▁W	-8.20253
ğı	-8.20433
▁ikinci	-8.20466
lerinde	-8.20527
ll	-8.2082
larının	-8.21361
▁üzere	-8.21421
▁2004	-8.21546
▁üç	-8.22083
▁kez	-8.22132
ru	-8.22222
▁31	-8.22313
▁İlk	-8.22362
▁müzik	-8.22629
px	-8.22689
▁Daha	-8.22698
sal	-8.22811
▁Kara	-8.22953
▁FC	-8.23035
▁New	-8.23044
ist	-8.23141
î	-8.23386
▁tek	-8.23805
▁Parti	-8.24127
▁oyuncuları	-8.24149
ng	-8.24187
▁Mo	-8.24632
▁gelen	-8.24743
ür	-8.24791
''',	-8.2503
ad	-8.2523
▁Coğrafya	-8.25259
▁Ankara	-8.25318
-19	-8.25647
iş	-8.25727
ını	-8.26355
▁yüzyılda	-8.26662
▁olmak	-8.27102
▁El	-8.2716
▁ancak	-8.27445
▁ilçe	-8.27515
▁oyuncu	-8.28058
▁Do	-8.28437
▁Ga	-8.28439
▁dizi	-8.28508
tik	-8.2875
▁genel	-8.28857
▁Şampiyonası	-8.29408
pe	-8.29447
▁an	-8.29534
▁3	-8.29635
lerinin	-8.29958
▁süre	-8.30285
▁devam	-8.303
ster	-8.30409
▁iyi	-8.30572
▁üzerine	-8.30577
▁yüksek	-8.30723
id	-8.31102
▁Yeni	-8.31169
▁Vi	-8.3133
inde	-8.31374
gu	-8.314
▁kişi	-8.31636
leme	-8.31713
▁bulunmaktadır	-8.3174
▁Ko	-8.3176
▁2022	-8.32506
▁uzaklıktadır	-8.32735
▁Bi	-8.32981
▁ö	-8.3327
ay	-8.33482
gen	-8.33552
larına	-8.3399
▁ek	-8.34063
▁4.	-8.34175
▁II	-8.34319
▁k	-8.34467
▁Fa	-8.3447
ut	-8.34573
▁yaş	-8.34754
▁sahip	-8.35239
ev	-8.35249
▁içinde	-8.35345
▁0	-8.35351
▁----	-8.35462
Ma	-8.35507
▁Ho	-8.35577
ot	-8.35682
▁Her	-8.35716
▁Ali	-8.358
ği	-8.3582
fi	-8.35995
ım	-8.36077
▁belde	-8.36244
çı	-8.36335
▁2002	-8.36885
po	-8.36947
ması	-8.37095
▁ardından	-8.37214
▁bölüm	-8.37458
▁Güney	-8.3749
▁Ni	-8.37499
ber	-8.37552
▁savaş	-8.37628
sen	-8.3767
▁Pe	-8.37936
bo	-8.37981
▁birçok	-8.38236
ley	-8.38283
▁kariyeri	-8.38564
ah	-8.38661
▁Halk	-8.38956
▁tüm	-8.3909
▁Genel	-8.39489
▁me	-8.39662
▁(19	-8.3992
▁Man	-8.40026
van	-8.40143
mıştır	-8.40258
▁Lo	-8.403
▁2003	-8.40433
▁fazla	-8.40671
iz	-8.40918
▁Ri	-8.4101
▁sırasında	-8.4109
'')	-8.41332
▁(''	-8.41387
===	-8.41592
▁kazandı	-8.41743
▁eden	-8.42089
ly	-8.42109
▁Pi	-8.42138
▁kendi	-8.42333
mer	-8.42493
▁Cumhuriyeti	-8.42507
▁Bar	-8.43177
▁öğrenim	-8.43388
▁üzerinde	-8.43544
▁100	-8.4386
▁kabul	-8.44493
▁So	-8.44609
▁Gu	-8.44613
▁s	-8.44859
ey	-8.44957
▁beri	-8.4555
mp	-8.45831
▁An	-8.45986
ok	-8.46333
▁şekilde	-8.46677
land	-8.4674
▁devlet	-8.46855
▁Birliği	-8.46948
▁1999	-8.47114
miş	-8.47455
▁Han	-8.47576
▁ilgili	-8.47599
▁köyleri	-8.47602
▁to	-8.47606
ner	-8.47611
▁yayın	-8.47666
▁2001	-8.47752
om	-8.47791
▁oyunları	-8.47823
▁sinema	-8.47868
10	-8.47893
▁Po	-8.47895
▁Mar	-8.47915
▁çeşitli	-8.47956
lerden	-8.48019
fe	-8.48037
▁As	-8.48245
▁1997	-8.48263
▁gün	-8.48296
▁He	-8.48557
iye	-8.48711
▁yapı	-8.48891
lin	-8.48958
▁No	-8.49075
▁Y	-8.49215
▁Si	-8.49256
▁League	-8.49293
▁biri	-8.49393
▁Ja	-8.49597
lerinden	-8.49674
inin	-8.49728
▁Alman	-8.49728
sini	-8.49861
▁baş	-8.499
mış	-8.49916
sinde	-8.49986
▁küçük	-8.50028
▁Yaz	-8.50151
ja	-8.50356
Dış	-8.50407
nd	-8.50888
La	-8.50898
▁San	-8.51042
▁Amerikan	-8.51078
▁listesi	-8.51092
lerine	-8.51103
▁yapımı	-8.51203
▁Ay	-8.51251
▁32	-8.51454
je	-8.51775
▁farklı	-8.51894
▁40	-8.51917
▁yol	-8.52168
▁50	-8.52229
▁Yıl	-8.52247
ndeki	-8.52266
arak	-8.5234
▁adıyla	-8.52366
▁Fransa	-8.52602
▁ana	-8.52655
ip	-8.52705
▁ili	-8.52788
▁1	-8.53044
Ka	-8.5311
▁madalya	-8.53144
▁sayısı	-8.53436
▁f	-8.53459
▁görenler	-8.53764
▁nedeniyle	-8.53872
▁Ligi	-8.53956
pi	-8.53987
▁geri	-8.54008
▁====	-8.54028
30	-8.54239
▁İngiliz	-8.54462
lardan	-8.54543
▁sıra	-8.54914
▁Almanya	-8.55136
▁Kuzey	-8.55136
▁Orta	-8.55196
▁4	-8.55284
▁ma	-8.55306
X	-8.55475
▁5.	-8.55908
ül	-8.56066
▁Fransız	-8.56398
sta	-8.56562
▁Roma	-8.56632
▁merkezi	-8.56686
25	-8.56701
▁albümleri	-8.5674
▁Devlet	-8.56783
ie	-8.56805
▁hem	-8.56819
▁Jo	-8.5685
▁almıştır	-8.57022
min	-8.57111
▁konu	-8.57216
▁Çin	-8.5728
▁Hu	-8.57328
▁zamanda	-8.57488
▁Rus	-8.57598
sında	-8.57639
▁Ke	-8.577
ku	-8.57763
ova	-8.57964
▁üyeleri	-8.57988
50	-8.58046
bu	-8.58047
ası	-8.58073
▁üst	-8.58296
▁Hi	-8.58435
▁1998	-8.58483
▁d	-8.58528
ör	-8.5887
▁Har	-8.5891
▁ka	-8.59065
▁Oyuncu	-8.59104
▁edilmiştir	-8.59381
▁bazı	-8.59466
▁York	-8.59575
▁video	-8.59577
20	-8.59651
▁köydür	-8.59653
▁re	-8.59719
▁yaşında	-8.59778
▁Afrika	-8.59952
▁Gi	-8.60232
ında	-8.60239
vo	-8.60338
ndaki	-8.60348
▁sezon	-8.60363
▁TV	-8.60644
let	-8.60809
tar	-8.60903
mek	-8.61071
yu	-8.6116
op	-8.61207
ts	-8.61208
▁uzun	-8.61261
▁Toplam	-8.61282
▁filmi	-8.61343
wa	-8.61573
▁ha	-8.6164
Ş	-8.61745
lük	-8.61923
▁In	-8.61947
▁yaklaşık	-8.62021
▁siyasetçiler	-8.62072
▁Tur	-8.62147
▁edildi	-8.62325
▁Büyük	-8.62482
▁Ge	-8.6262
▁Du	-8.6268
▁Öz	-8.62718
▁nüfusu	-8.62802
miştir	-8.62812
▁ko	-8.63017
yo	-8.6307
▁eğitim	-8.63245
▁açık	-8.63262
J	-8.63387
mar	-8.63441
60	-8.6353
şi	-8.63648
▁Doğu	-8.63691
▁Car	-8.63825
▁1993	-8.63832
▁şarkı	-8.63838
siz	-8.6396
ger	-8.64003
▁puan	-8.64173
▁orta	-8.64271
▁yaptığı	-8.64554
▁Dr	-8.64571
tal	-8.64689
▁bulunur	-8.6487
▁tur	-8.64984
▁yapmıştır	-8.64996
▁almaktadır	-8.65204
larından	-8.65212
he	-8.6535
▁dahil	-8.65365
á	-8.65422
ss	-8.6545
▁kısa	-8.65451
▁yeniden	-8.65501
▁2	-8.65729
▁1995	-8.6575
ktan	-8.65764
▁boyunca	-8.65769
ydı	-8.65912
▁metre	-8.66044
sine	-8.66104
▁az	-8.66344
▁34	-8.66348
▁Ulusal	-8.66521
Ha	-8.67152
▁as	-8.67189
▁1994	-8.6745
ers	-8.67649
▁Bölüm	-8.67651
▁35	-8.67682
▁Cumhuriyet	-8.68123
ji	-8.68663
▁yapan	-8.68681
▁el	-8.68948
▁edilen	-8.69067
▁6.	-8.69107
▁çocuk	-8.69318
▁doğdu	-8.69436
▁Ti	-8.69503
:'''	-8.69549
▁1996	-8.69649
▁Ya	-8.6971
”	-8.69725
▁altı	-8.70046
ban	-8.7021
gan	-8.70222
▁Müzik	-8.70411
▁Rusya	-8.70542
▁St	-8.70684
▁;	-8.70776
▁33	-8.70854
▁di	-8.70926
ang	-8.70944
▁Bey	-8.71265
şe	-8.71587
▁mahalleleri	-8.71643
▁sistemi	-8.71646
sını	-8.7165
sinin	-8.71807
▁yakın	-8.72053
.000	-8.72118
ış	-8.72282
▁Kar	-8.72592
▁geçen	-8.72592
▁do	-8.72622
▁İngilizce	-8.72659
:20.	-8.72742
▁Lu	-8.72913
▁6	-8.73067
mektedir	-8.73271
▁çıkar	-8.7328
▁X	-8.73304
Sa	-8.73465
12	-8.73494
san	-8.73497
▁1992	-8.73515
per	-8.73585
les	-8.73671
sına	-8.73795
▁olduğunu	-8.73838
▁Uluslararası	-8.73912
can	-8.74274
TBMM	-8.74414
dy	-8.74475
▁top	-8.74584
▁Z	-8.74654
res	-8.75077
70	-8.75191
▁tür	-8.75302
▁inşa	-8.75317
▁Oyunları	-8.75362
▁saha	-8.75422
ent	-8.75544
▁öldü	-8.75615
landı	-8.75692
а	-8.76029
▁Go	-8.76212
22	-8.76226
▁grup	-8.76514
▁Altın	-8.76557
che	-8.76579
ic	-8.76613
|	-8.76614
kı	-8.76618
▁“	-8.76689
▁etki	-8.76703
ıl	-8.76951
kin	-8.77107
ına	-8.77318
▁altında	-8.77369
tt	-8.77384
Z	-8.77436
▁kullanılan	-8.77495
▁sahipleri	-8.77566
▁ait	-8.77699
▁özel	-8.77728
lat	-8.77876
maktadır	-8.78039
ron	-8.78108
▁olması	-8.78205
Le	-8.78377
▁Son	-8.78409
:21.	-8.78438
ağı	-8.78492
sız	-8.78567
▁iç	-8.78599
▁1991	-8.78669
ık	-8.78737
tur	-8.78749
em	-8.78774
▁7.	-8.78853
▁John	-8.78991
16	-8.79015
hu	-8.7932
▁rol	-8.79459
▁Ancak	-8.79467
40	-8.79577
▁ay	-8.79655
▁dizileri	-8.79661
▁Ve	-8.79777
oloji	-8.79799
met	-8.80162
tin	-8.80502
▁dünya	-8.80655
▁oyuncular	-8.80882
24	-8.80999
▁Ülke	-8.81193
▁hizmet	-8.81203
▁yılından	-8.81443
▁mahalledir	-8.8149
▁gol	-8.81813
▁Pro	-8.81885
ard	-8.81966
ydi	-8.81995
▁dört	-8.82158
11	-8.82256
▁doğru	-8.82446
▁oyun	-8.8258
▁38	-8.82615
▁temsil	-8.8281
▁futbolcudur	-8.82817
▁geniş	-8.82843
▁m	-8.82903
larla	-8.83043
lerle	-8.83059
▁yazı	-8.83107
▁36	-8.83226
ment	-8.83274
▁Can	-8.83324
▁resmi	-8.83328
▁sahiptir	-8.83347
▁Ki	-8.83416
▁sadece	-8.83448
▁Tu	-8.83526
▁Or	-8.8364
▁bilinen	-8.83792
▁Takım	-8.83794
ker	-8.8386
▁asıllı	-8.83892
▁bar	-8.83999
▁FIFA	-8.84213
▁Mu	-8.84228
▁yazar	-8.84262
▁Türkçe	-8.84329
▁Fe	-8.84471
▁Olimpiyat	-8.84539
▁yerleşim	-8.84633
▁sağ	-8.84725
▁sa	-8.84731
▁şarkıları	-8.84849
lay	-8.84956
▁Fakültesi	-8.85051
▁var	-8.85215
▁hakkında	-8.85285
▁bas	-8.85367
sk	-8.85384
ılan	-8.85486
ff	-8.85569
▁ayrıca	-8.85612
tra	-8.85723
dür	-8.85802
▁45	-8.85827
▁alt	-8.85833
▁Ci	-8.86014
▁belediye	-8.86046
wi	-8.86097
erek	-8.86098
▁şu	-8.86193
14	-8.86229
var	-8.86287
▁Bur	-8.86423
▁1:	-8.86432
nü	-8.8644
nce	-8.86602
▁ortaya	-8.86672
▁adını	-8.86708
▁3:	-8.86753
▁ne	-8.8684
▁spor	-8.86867
▁plan	-8.8687
▁Ser	-8.86994
е	-8.87038
En	-8.87345
▁mezun	-8.87482
▁yıllarında	-8.87518
▁üyesi	-8.87579
▁Za	-8.87606
▁Tarih	-8.8762
▁genellikle	-8.87696
▁döneminde	-8.87707
▁tiyatro	-8.87711
▁milletvekilleri	-8.87737
▁Paris	-8.87765
▁Ku	-8.87776
▁Kur	-8.87887
▁Ana	-8.87978
izm	-8.88292
▁Şehir	-8.88329
ici	-8.88359
if	-8.88448
▁sitesi	-8.88485
ft	-8.8853
▁mücadele	-8.88793
ap	-8.8889
ez	-8.89013
▁itibaren	-8.89079
ina	-8.89093
▁Albüm	-8.89197
jpg	-8.89391
dığı	-8.8941
Se	-8.89506
▁Ben	-8.89522
lanan	-8.89597
▁dizisi	-8.89607
80	-8.89755
▁37	-8.89829
▁Ödülleri	-8.89883
▁milyon	-8.90097
▁alır	-8.9016
▁Ö	-8.90219
▁çalıştı	-8.90238
▁oğlu	-8.90275
▁1989	-8.90485
▁yanı	-8.90501
48	-8.90503
▁Bakanlığı	-8.90519
о	-8.90663
dar	-8.90773
so	-8.90922
▁eder	-8.9097
▁Ver	-8.91073
ham	-8.91077
▁yerine	-8.91079
▁destek	-8.91156
▁İngiltere	-8.91226
uz	-8.91322
▁düzenlenen	-8.91454
04	-8.91462
ny	-8.91626
▁merkez	-8.91682
13	-8.91727
:18	-8.91859
▁60	-8.91874
sının	-8.91971
kar	-8.91975
▁sahibi	-8.92005
▁Fi	-8.9208
lenen	-8.92232
▁Krallık	-8.92305
▁1965	-8.92321
ının	-8.92417
Ba	-8.92436
▁sırada	-8.92579
▁(18	-8.92652
▁Sıra	-8.92867
▁merkezli	-8.92985
▁Final	-8.93314
ven	-8.93318
mon	-8.93474
yon	-8.93678
26	-8.93769
05	-8.93895
▁ele	-8.93915
kü	-8.93933
que	-8.93947
we	-8.93947
▁kat	-8.9413
▁la	-8.94165
▁se	-8.9423
▁tekrar	-8.94286
21	-8.9429
şa	-8.94391
▁Va	-8.94437
▁Asya	-8.94549
▁Con	-8.9458
▁aldığı	-8.94643
▁şehirler	-8.94783
▁1988	-8.94837
▁toplam	-8.94913
▁forma	-8.94971
tif	-8.95019
▁Azerbaycan	-8.95077
▁başkanı	-8.95583
▁Notlar	-8.95638
▁1928	-8.95684
ret	-8.95713
▁grubu	-8.95754
Me	-8.95805
tü	-8.95865
▁Grup	-8.95889
15	-8.95891
и	-8.96002
▁sezonunda	-8.9601
▁Ev	-8.96063
▁Wi	-8.96164
95	-8.962
01	-8.96315
▁Gra	-8.96391
rak	-8.96424
▁karar	-8.96546
▁1987	-8.96561
▁İtalya	-8.9669
▁saat	-8.96702
▁Futbol	-8.9672
chi	-8.9674
▁oluşan	-8.96852
har	-8.96945
▁Sch	-8.97101
▁ar	-8.97118
▁Es	-8.97591
▁8.	-8.97595
▁8	-8.97673
02	-8.9768
06	-8.97713
▁geldi	-8.9774
▁so	-8.97824
▁oynadı	-8.97842
▁şehir	-8.97879
▁direktörleri	-8.97924
▁Oy	-8.98014
De	-8.9802
▁p	-8.9802
03	-8.98067
tro	-8.98462
▁söz	-8.98483
▁Fu	-8.98583
▁hava	-8.9861
▁Per	-8.98712
tion	-8.98773
luğu	-8.98777
94	-8.98778
▁çıkışlı	-8.98783
▁elde	-8.9881
net	-8.98857
ou	-8.98899
mb	-8.99007
28	-8.99112
▁alanı	-8.99363
▁bağ	-8.99434
▁42	-8.99438
67	-8.99548
▁for	-8.99805
23	-8.99818
▁1986	-8.99943
kten	-9.00009
▁39	-9.00089
▁et	-9.0009
az	-9.00097
▁bilim	-9.00222
com	-9.00271
ian	-9.0049
▁Ju	-9.00509
35	-9.00577
üm	-9.00665
▁deniz	-9.00691
ecek	-9.00738
▁Ol	-9.0078
pp	-9.00811
lanma	-9.00856
▁'''2	-9.00903
▁Mü	-9.00973
▁yarı	-9.00983
eri	-9.01021
▁final	-9.01153
▁ülke	-9.0118
fer	-9.01213
18	-9.01229
▁Ce	-9.01281
▁Batı	-9.01335
evi	-9.01371
)''	-9.01403
lem	-9.0141
zar	-9.01415
45	-9.01589
▁Bakanı	-9.01594
▁Tek	-9.01609
▁insan	-9.01692
93	-9.01983
▁52	-9.01996
▁kar	-9.01998
▁Ze	-9.021
68	-9.02131
▁transfer	-9.02162
▁Paşa	-9.0237
▁hareket	-9.02403
+	-9.02719
dü	-9.02722
Al	-9.02811
▁mu	-9.02891
gar	-9.02918
▁ön	-9.03076
▁başka	-9.03257
▁Merkez	-9.03561
köy	-9.0361
▁Spor	-9.03728
27	-9.03765
▁Kulüp	-9.03794
ilen	-9.03839
ks	-9.03873
ation	-9.03942
96	-9.03948
▁Baş	-9.03955
08	-9.03985
▁kayıtlarında	-9.04237
07	-9.04272
74	-9.04317
29	-9.04357
▁55	-9.04411
nün	-9.04557
tor	-9.04574
esi	-9.04574
rı	-9.04614
▁oluşturulan	-9.04708
eli	-9.04714
▁Grubu	-9.04891
▁ayrı	-9.04952
▁41	-9.0499
▁Kadın	-9.05027
zer	-9.05174
ılması	-9.05212
▁Eurovision	-9.05257
▁albümü	-9.05269
diği	-9.05319
pik	-9.05362
▁gelir	-9.05383
nik	-9.05394
ong	-9.05658
▁katıldı	-9.05671
▁1984	-9.05684
abilir	-9.05743
▁Adalet	-9.05822
▁Ye	-9.05825
▁Wa	-9.05935
▁7	-9.05958
shi	-9.05995
▁sayı	-9.06001
▁4:	-9.06025
lak	-9.06131
mesi	-9.06161
eti	-9.06211
▁Köyün	-9.06324
maya	-9.06366
▁ismi	-9.06457
▁#	-9.06466
▁mi	-9.06511
▁ada	-9.06547
up	-9.06548
▁ses	-9.06556
▁Ter	-9.06717
▁sonucu	-9.06752
aj	-9.07062
▁lig	-9.0707
▁Cha	-9.07072
▁po	-9.07138
▁bin	-9.07141
▁kız	-9.07482
▁51	-9.07499
uk	-9.07572
Re	-9.07579
▁olma	-9.07769
09	-9.07776
din	-9.0788
ıldı	-9.07991
▁Ab	-9.08073
▁Top	-9.08088
58	-9.08145
33	-9.08183
▁Bot	-9.08237
88	-9.08289
Ta	-9.08293
▁çıkan	-9.08438
unu	-9.08481
▁Gün	-9.0851
▁Japonya	-9.08673
▁Aynı	-9.08768
▁b	-9.08864
uş	-9.0892
▁Mehmet	-9.09002
Ya	-9.09113
▁yazarları	-9.0916
▁Je	-9.09233
tre	-9.09289
▁rağmen	-9.09371
▁Sezon	-9.09474
▁44	-9.09546
90	-9.09571
▁e	-9.09577
▁verilen	-9.09595
▁İzmir	-9.09615
ä	-9.09635
▁Yarışması	-9.09649
ther	-9.09661
▁etmiştir	-9.09791
lendi	-9.09955
▁oyunu	-9.10034
▁oy	-9.10053
",	-9.10135
▁İl	-9.10155
▁biridir	-9.10229
zan	-9.10243
▁üçüncü	-9.10298
▁siyasetçi	-9.10517
ty	-9.1057
▁çıktı	-9.10597
Ç	-9.10612
99	-9.10628
▁yasa	-9.10629
▁sonunda	-9.10662
▁futbolcu	-9.10755
▁Şa	-9.10789
▁para	-9.1079
▁iz	-9.10847
syon	-9.10996
ser	-9.11017
▁sporcular	-9.11068
▁aday	-9.11086
▁onun	-9.11114
32	-9.11125
▁48	-9.1123
▁arasındaki	-9.11334
31	-9.11359
▁Fer	-9.11407
▁Ad	-9.11494
▁verdi	-9.11549
oz	-9.11607
-2	-9.11655
17	-9.11952
▁der	-9.12009
Bo	-9.12165
zo	-9.12244
leşme	-9.12363
76	-9.12378
▁Bas	-9.12435
▁We	-9.1252
75	-9.12564
▁burada	-9.12605
tür	-9.12754
▁sanat	-9.12893
▁tespit	-9.12967
lis	-9.12997
▁fa	-9.13002
ral	-9.13154
imi	-9.13171
▁genç	-9.13193
%	-9.13278
▁belir	-9.13308
▁Bal	-9.13313
▁geçmektedir	-9.1351
lanmış	-9.13518
▁Ru	-9.1352
▁uluslararası	-9.13563
ris	-9.13682
▁kullanılır	-9.137
hat	-9.1374
▁Yüksek	-9.13781
▁dil	-9.13831
▁43	-9.13942
▁olur	-9.13966
ice	-9.13992
▁1982	-9.14057
▁Maç	-9.14177
85	-9.14243
▁birkaç	-9.14273
▁siyasi	-9.14396
lüğü	-9.1451
▁aç	-9.14529
▁bil	-9.14601
62	-9.14615
▁gurbetçiler	-9.14629
▁pa	-9.14725
▁c	-9.14727
yum	-9.1485
▁53	-9.14954
▁1983	-9.15098
▁tam	-9.15117
sch	-9.15117
bel	-9.15131
tes	-9.15158
▁maddeleri	-9.15228
▁sahne	-9.1527
▁70	-9.15304
▁ak	-9.15512
An	-9.15727
▁Gol	-9.15864
▁kal	-9.15892
▁bi	-9.15925
ışı	-9.15935
92	-9.15943
ney	-9.15944
▁çift	-9.15972
teki	-9.15989
rt	-9.16092
ildi	-9.16118
▁Yu	-9.16128
▁Millî	-9.1626
▁Tan	-9.16261
▁etmek	-9.16264
lam	-9.16267
▁temel	-9.16341
▁İki	-9.1652
hal	-9.16566
TV	-9.16603
▁anlamına	-9.16605
▁kızı	-9.16608
▁Başkanı	-9.1663
▁bilgi	-9.16973
▁edilir	-9.16994
▁dağ	-9.16995
ladı	-9.17061
by	-9.17138
▁göz	-9.17244
▁At	-9.17272
▁80	-9.17458
ow	-9.17603
97	-9.17624
leyen	-9.17632
▁Resmi	-9.17698
98	-9.17748
▁kur	-9.17806
▁1980	-9.17921
▁47	-9.17967
od	-9.17979
layan	-9.18
▁birinci	-9.18066
▁Ça	-9.18092
▁ünlü	-9.18114
▁başlayan	-9.18167
▁Tra	-9.18183
lt	-9.18187
Orta	-9.18344
ire	-9.18431
bir	-9.18466
▁neden	-9.18555
▁gerçek	-9.18562
38	-9.18625
47	-9.18657
▁Mustafa	-9.18687
yen	-9.18799
q	-9.18996
ama	-9.19074
▁Sultan	-9.19125
▁va	-9.19185
▁Mc	-9.19221
▁parti	-9.19243
▁komedi	-9.19273
▁Kore	-9.19335
▁54	-9.19471
▁du	-9.1957
ab	-9.19637
▁si	-9.19867
í	-9.19925
?	-9.19945
▁beş	-9.20027
36	-9.20036
stan	-9.20047
▁Av	-9.20067
▁kalan	-9.20083
▁şarkıcı	-9.20099
▁parçası	-9.20118
▁Festivali	-9.20118
▁9	-9.20188
▁46	-9.20198
▁57	-9.20303
55	-9.20439
▁Tarihi	-9.20454
▁Sanat	-9.20546
▁Chi	-9.20559
▁beraber	-9.20608
▁özellikle	-9.20618
▁yılına	-9.20622
▁On	-9.20661
las	-9.20672
ō	-9.20786
▁İkinci	-9.20955
▁Bay	-9.21027
▁ifade	-9.21072
şı	-9.21088
▁Gar	-9.21131
▁Anadolu	-9.21144
▁Deniz	-9.21172
tör	-9.21217
Ö	-9.21254
▁For	-9.21275
▁bölümü	-9.21305
▁dolayı	-9.21357
▁Diğer	-9.21359
ud	-9.2137
49	-9.21418
zu	-9.21435
▁halk	-9.21442
''),	-9.21446
▁MÖ	-9.2156
ğu	-9.21621
▁City	-9.21633
78	-9.21652
▁yıldız	-9.21667
ski	-9.21732
▁ortak	-9.2191
▁Oyun	-9.21942
89	-9.2198
tic	-9.22014
Be	-9.22067
▁düzen	-9.22075
▁aranan	-9.22159
▁şehrin	-9.22181
▁tak	-9.2222
▁1975	-9.22237
▁tanım	-9.22284
▁kara	-9.22306
sin	-9.22309
▁Gül	-9.22419
▁1979	-9.22458
rek	-9.22497
▁bulundu	-9.22637
▁Ara	-9.22664
▁isimli	-9.22679
▁Paul	-9.22692
▁9.	-9.22776
▁kariyerine	-9.22922
▁Eski	-9.22983
▁Min	-9.23003
Mar	-9.23046
unda	-9.23111
▁g	-9.23141
▁seçildi	-9.23175
lek	-9.23179
66	-9.23202
▁dışında	-9.23217
▁tanı	-9.2324
91	-9.23265
▁kay	-9.23359
▁ge	-9.23379
▁1981	-9.23434
▁İran	-9.23471
▁Kan	-9.23504
Resim	-9.23586
yor	-9.23648
▁bölgesinde	-9.23701
▁din	-9.23722
▁Londra	-9.23885
39	-9.23952
ó	-9.23995
▁56	-9.24026
Bu	-9.2438
mu	-9.24425
▁profesyonel	-9.24486
lanması	-9.24523
37	-9.24541
▁mü	-9.24574
io	-9.24585
Ho	-9.24585
gü	-9.24593
▁1977	-9.24614
▁kişiler	-9.24645
46	-9.247
▁kazanan	-9.24764
▁from	-9.24789
▁olmayan	-9.2491
-3	-9.25175
▁içerisinde	-9.2521
34	-9.25225
▁Sha	-9.25273
ria	-9.2535
isi	-9.25396
44	-9.25474
▁yazarı	-9.25484
nes	-9.25564
▁türü	-9.2557
▁Olimpiyatları	-9.256
▁Mor	-9.25651
▁Robert	-9.25735
lanır	-9.25859
▁kaldı	-9.25896
▁Yer	-9.25937
▁Kadınlar	-9.25992
▁Am	-9.26029
▁üret	-9.26112
▁1974	-9.26187
▁Ahmet	-9.26219
▁madalyalı	-9.26229
▁49	-9.26303
ub	-9.26316
tti	-9.26405
▁1973	-9.26516
est	-9.26637
65	-9.26641
▁şarkılar	-9.26655
Da	-9.26664
▁Sovyet	-9.26711
▁Erkekler	-9.26759
▁My	-9.26818
Pa	-9.26864
▁Enstitüsü	-9.26891
▁İslam	-9.26898
▁Kal	-9.26958
▁iken	-9.26973
▁sezonu	-9.27017
cak	-9.2706
▁şarkısı	-9.27072
▁İspanya	-9.27177
▁ilgi	-9.27409
▁1.0	-9.27498
▁Bel	-9.27513
▁tarih	-9.27566
▁bulunduğu	-9.27589
▁You	-9.27599
87	-9.27708
▁Dönem	-9.27775
▁Japon	-9.27818
57	-9.27831
84	-9.27855
▁tarihli	-9.27894
▁Is	-9.27902
▁90	-9.27993
42	-9.2804
▁babası	-9.2806
▁1978	-9.28067
ius	-9.28093
acak	-9.28114
▁sona	-9.28131
▁''(	-9.28182
▁albüm	-9.28284
cü	-9.28443
arı	-9.2851
ant	-9.28672
▁Mon	-9.28696
▁64	-9.28707
▁None	-9.28738
▁grupları	-9.28744
idir	-9.2885
▁Okulu	-9.28937
rit	-9.2899
▁1976	-9.29009
▁kitabı	-9.29038
▁Ham	-9.29102
av	-9.29272
Di	-9.29339
63	-9.29362
▁doğu	-9.29475
Ar	-9.29604
▁tarihleri	-9.29608
▁içeren	-9.29853
hangi	-9.29856
▁yarış	-9.29914
▁1972	-9.29926
▁Ç	-9.29994
ıcı	-9.30007
taki	-9.3003
lip	-9.30032
▁benzer	-9.30038
▁single	-9.30089
▁Mer	-9.30133
▁ad	-9.30149
▁girdi	-9.30191
▁Merkezi	-9.30218
▁63	-9.30277
▁Belediye	-9.30321
▁Hukuk	-9.30323
inden	-9.30449
▁Sta	-9.30501
▁+	-9.3052
▁yıllarda	-9.30523
▁aile	-9.30539
▁mo	-9.30604
▁Süper	-9.30689
64	-9.30705
▁Tar	-9.3085
lenmiş	-9.30851
▁David	-9.3127
43	-9.31297
▁Kurulu	-9.31376
77	-9.31391
▁er	-9.31402
ac	-9.31417
56	-9.31433
ünü	-9.31441
ucu	-9.31547
▁kon	-9.31625
▁World	-9.31678
bar	-9.31689
▁2:	-9.31706
▁10.	-9.3172
▁kes	-9.31732
▁hazır	-9.31768
▁yara	-9.31799
▁yapmış	-9.31924
gin	-9.31972
▁Sal	-9.32032
▁arası	-9.32101
86	-9.3227
▁Kanada	-9.32285
FC	-9.32291
▁şirketi	-9.32371
▁derece	-9.32372
41	-9.32381
bra	-9.32415
▁çalışmaları	-9.32502
▁İş	-9.32643
ses	-9.32724
▁yayınlanan	-9.32737
▁58	-9.32776
▁bağımsız	-9.32779
aceae	-9.3284
▁bilinir	-9.32866
53	-9.32951
ük	-9.32952
ans	-9.33021
▁İtalyan	-9.33035
don	-9.33043
▁Ber	-9.33076
▁serbest	-9.33108
▁no	-9.33145
ung	-9.33182
▁suç	-9.33334
▁Kat	-9.33455
▁Hava	-9.33493
▁Tom	-9.33534
▁'''1	-9.33574
▁taşımaktadır	-9.33603
▁Che	-9.33606
ilir	-9.33655
tay	-9.3371
▁1968	-9.33773
59	-9.33825
▁şeklinde	-9.33836
▁Pu	-9.33861
▁Cor	-9.34056
▁kardeşi	-9.34125
▁onu	-9.34157
▁Fo	-9.34177
▁ettiği	-9.34321
▁1970	-9.34331
▁Star	-9.34466
▁gönder	-9.34467
bol	-9.34494
Ra	-9.34577
▁oranı	-9.34661
ıp	-9.34699
▁pro	-9.34725
▁Yunan	-9.34763
▁Avustralya	-9.34821
▁başlamıştır	-9.34845
▁Mısır	-9.34863
▁edilmiş	-9.35014
Toplam	-9.35033
▁İn	-9.35102
mez	-9.3519
▁Park	-9.35191
▁Ş	-9.35228
▁Hayatı	-9.35278
ilmiş	-9.35366
ep	-9.35397
▁Kıbrıs	-9.35406
▁65	-9.35419
Ne	-9.35439
▁parça	-9.3552
▁Kon	-9.35533
▁şey	-9.3559
mal	-9.35666
▁yerel	-9.35748
▁200	-9.3575
▁yönetim	-9.35776
▁Sam	-9.35857
▁Pri	-9.35862
▁olmuş	-9.35876
▁yaygın	-9.35973
▁okul	-9.36017
una	-9.36079
▁yönettiği	-9.36105
▁web	-9.36105
▁1971	-9.3611
ğü	-9.36147
54	-9.36159
▁Teknik	-9.36221
▁Love	-9.36255
lla	-9.36262
kal	-9.36298
▁bölge	-9.36343
▁Bölgesi	-9.36395
▁2023	-9.364
▁Var	-9.36446
▁çoğu	-9.36718
82	-9.36751
Fransa	-9.36786
▁yok	-9.36789
83	-9.37017
79	-9.37032
▁ara	-9.37061
rma	-9.37103
▁Michael	-9.37121
▁yayınlandı	-9.37164
▁Kültür	-9.37184
üs	-9.37264
Na	-9.37369
▁pozisyonunda	-9.37394
▁başarı	-9.37398
vin	-9.37442
▁geç	-9.37476
▁Akademisi	-9.37509
▁sayıda	-9.37562
▁''''''	-9.37584
▁çalışma	-9.3759
▁Der	-9.37614
▁itibarıyla	-9.37669
▁yıllık	-9.37673
rd	-9.37677
▁Eğitim	-9.37745
52	-9.37771
▁sistem	-9.37774
▁günü	-9.37784
rik	-9.37931
mur	-9.37943
▁hafta	-9.38114
▁Tor	-9.38204
tis	-9.38276
▁yaz	-9.38331
berg	-9.38332
▁Bursa	-9.38534
▁Yönetmen	-9.38604
iyet	-9.38629
sinden	-9.38677
▁75	-9.38692
▁Records	-9.38697
ebilir	-9.38742
ılır	-9.38786
▁resmî	-9.38837
lus	-9.38939
▁yapılar	-9.38942
▁be	-9.38956
▁Söz	-9.38998
bay	-9.39012
▁imza	-9.39031
To	-9.39203
▁59	-9.39221
üz	-9.39225
▁Adam	-9.39404
ıdır	-9.39424
▁döndü	-9.3945
ju	-9.39467
▁kuzey	-9.39532
olog	-9.39568
ion	-9.39638
▁askeri	-9.39639
ledi	-9.3971
▁Van	-9.39711
mber	-9.39746
kları	-9.39749
▁dönemde	-9.39786
▁Sun	-9.39812
▁Vol	-9.39863
Ko	-9.39882
▁şirketleri	-9.39886
asyon	-9.39929
Mo	-9.39947
▁gazete	-9.40003
▁kültür	-9.40011
Do	-9.40033
▁Ek	-9.40084
▁Demir	-9.40165
▁İç	-9.40181
▁Başkanlığı	-9.40241
▁milletvekili	-9.40257
▁yaşayan	-9.40257
sun	-9.40266
ket	-9.40327
tch	-9.40374
Mi	-9.40407
▁Başkan	-9.40493
▁sol	-9.40543
72	-9.4055
▁çalışan	-9.40681
▁Şe	-9.40707
lim	-9.40781
▁Genç	-9.41039
▁Kariyeri	-9.41097
=	-9.41114
▁başında	-9.41157
▁11.	-9.41234
rken	-9.41258
gon	-9.41302
bey	-9.41373
73	-9.41437
▁adet	-9.41488
▁kap	-9.41511
lenir	-9.41583
ğe	-9.41597
▁1969	-9.41674
▁idi	-9.4169
ımı	-9.41752
▁yana	-9.41778
▁cm	-9.41794
ا	-9.41869
▁müziği	-9.4187
▁yarışma	-9.41958
▁Kor	-9.42061
Ü	-9.42149
▁Hal	-9.42152
▁kuruldu	-9.42193
▁güney	-9.42244
▁Mal	-9.42286
gg	-9.42338
▁ilçesinde	-9.42345
bat	-9.42373
▁ba	-9.42437
▁alanında	-9.42499
ight	-9.42558
т	-9.42669
▁şirketler	-9.42806
▁1967	-9.42826
▁'''3	-9.42834
▁programı	-9.4298
▁72	-9.4299
▁Nehri	-9.43007
▁geçir	-9.431
▁şiir	-9.43117
▁yay	-9.43197
▁Bra	-9.43217
unun	-9.43225
Co	-9.43294
lon	-9.43298
sto	-9.43522
▁62	-9.43538
▁United	-9.43564
▁kitap	-9.43577
▁Th	-9.43653
▁öğretim	-9.43686
aş	-9.43726
nis	-9.43732
▁Beyaz	-9.43739
▁yine	-9.43835
Billboard	-9.4392
▁Mark	-9.44015
▁Yahudi	-9.44026
zen	-9.44044
▁araştırma	-9.44044
Ro	-9.44059
▁Windows	-9.44105
▁Profesyonel	-9.44145
▁batı	-9.44224
š	-9.4428
▁Kuvvetleri	-9.44289
▁altın	-9.4431
▁Belediyesi	-9.44337
▁Berlin	-9.44364
tz	-9.44409
51	-9.44462
In	-9.44499
▁Mac	-9.44651
▁kurulmuştur	-9.44658
gel	-9.44668
▁Osman	-9.44672
▁kentinde	-9.44719
ından	-9.44734
ig	-9.44743
bin	-9.44827
her	-9.44915
69	-9.44925
▁güç	-9.45064
▁1960	-9.45089
muştur	-9.45127
▁nokta	-9.45143
▁değil	-9.45158
leriyle	-9.45198
▁2,	-9.45233
▁durum	-9.45271
▁1.1	-9.45272
kaya	-9.45289
port	-9.45347
▁yanında	-9.45352
ıyor	-9.45362
val	-9.45368
Alman	-9.45374
larıyla	-9.45417
muş	-9.4543
▁Sinema	-9.45466
▁Ste	-9.45507
şan	-9.45522
▁Dan	-9.45567
ize	-9.45628
cılık	-9.45629
Ga	-9.45689
!	-9.45692
▁tut	-9.4571
▁Nu	-9.45727
laşma	-9.45871
▁ulusal	-9.45897
▁bina	-9.45965
▁İsveç	-9.45974
▁çocuğu	-9.46009
▁çizgi	-9.46117
▁Meclisi	-9.46191
▁maçı	-9.46209
▁ayında	-9.4635
▁iddia	-9.46378
▁Pan	-9.46407
lli	-9.4643
▁kaynak	-9.46435
▁'''1'''	-9.46436
ble	-9.46485
gün	-9.46493
yn	-9.46522
jo	-9.46554
rat	-9.46561
▁Tiyatro	-9.46621
▁Yunanistan	-9.46643
başı	-9.46653
▁Konu	-9.46672
ğa	-9.46874
▁kilise	-9.46982
▁geçti	-9.46983
rin	-9.47096
▁eğitimi	-9.47132
off	-9.47142
▁Tri	-9.47267
▁Hollanda	-9.47346
▁(),	-9.47348
kov	-9.47396
▁Rol	-9.47417
▁ailesi	-9.47501
▁dili	-9.47538
▁çek	-9.4755
▁UEFA	-9.47551
tim	-9.47571
▁ISBN	-9.47616
▁Liga	-9.47674
▁Val	-9.47743
lanmıştır	-9.47826
ag	-9.47846
ted	-9.47857
▁ama	-9.47896
sse	-9.47934
▁kaç	-9.47946
▁1966	-9.47952
▁Bölümü	-9.48034
▁başkenti	-9.48049
▁etme	-9.48111
▁Em	-9.48207
meye	-9.48362
▁annesi	-9.48375
▁Polonya	-9.48387
▁sınıf	-9.48412
▁Bor	-9.48433
▁George	-9.48441
▁Pla	-9.4845
▁oyuncusu	-9.48527
▁şarkıcıları	-9.48535
nca	-9.48565
▁ki	-9.48568
ara	-9.48595
▁yazdığı	-9.48601
▁görüntü	-9.4861
▁stüdyo	-9.48614
▁Özel	-9.48624
▁etmektedir	-9.48739
ılmış	-9.4875
û	-9.48755
▁Yol	-9.48804
▁dönüş	-9.48816
▁68	-9.4883
mı	-9.48856
Güney	-9.48887
▁Ger	-9.48894
▁ilan	-9.48918
He	-9.48929
▁1961	-9.48954
▁liste	-9.48974
iyor	-9.49027
▁idari	-9.49039
dra	-9.49073
с	-9.49078
ting	-9.49081
my	-9.49094
▁sergi	-9.4915
▁gi	-9.49172
▁isim	-9.4919
▁61	-9.49282
▁İs	-9.49319
▁yan	-9.49391
▁taş	-9.49517
ica	-9.49566
▁Tiyatrosu	-9.49594
▁(1	-9.49655
▁sonraki	-9.49691
Si	-9.49833
cer	-9.49912
▁Hristiyan	-9.50037
sar	-9.50085
hr	-9.50137
▁şampiyon	-9.5031
▁Boy	-9.50373
lenmiştir	-9.50383
So	-9.50423
▁lisans	-9.5047
▁amacıyla	-9.5064
yer	-9.50676
▁pek	-9.50707
-1	-9.50709
▁şair	-9.50774
▁seçimleri	-9.5079
▁seçim	-9.50804
▁Bre	-9.50852
▁İmparatorluğu	-9.50882
▁roman	-9.5091
▁66	-9.50918
▁renk	-9.50928
к	-9.50944
▁takımında	-9.51005
▁bölgesi	-9.51068
sp	-9.51163
ray	-9.51175
ılmıştır	-9.51193
▁site	-9.51262
▁Şi	-9.51299
lor	-9.51386
▁Hot	-9.51416
▁saldırı	-9.51458
▁başarılı	-9.51488
liğini	-9.51494
▁veren	-9.51536
▁vokal	-9.51579
ana	-9.5159
▁Mil	-9.51598
▁is	-9.51598
▁Vo	-9.51628
▁kuş	-9.51652
▁kent	-9.51653
▁İsviçre	-9.51675
▁yazarlar	-9.51704
▁Los	-9.5171
▁yardımcı	-9.51761
▁ku	-9.5178
▁War	-9.5186
▁Sonuçlar	-9.51864
▁kır	-9.51873
▁Bölge	-9.51921
▁James	-9.51962
log	-9.52048
▁III	-9.52102
ling	-9.52113
▁co	-9.52152
▁silah	-9.52178
▁97	-9.52196
▁seç	-9.52198
▁durumu	-9.52198
tiği	-9.52273
ilmesi	-9.52305
▁Ala	-9.52307
-4	-9.52359
▁dış	-9.52404
▁Çağ	-9.52514
▁Dil	-9.52525
▁Arap	-9.52593
▁Belçika	-9.52701
▁olabilir	-9.5277
▁veri	-9.52775
▁Müzesi	-9.52818
mit	-9.52848
2012	-9.53007
▁önceleri	-9.53025
▁Sev	-9.53173
▁sosyal	-9.53189
▁üye	-9.53204
tter	-9.5328
▁Hat	-9.53383
,000	-9.53385
▁Kom	-9.53387
▁kısmı	-9.53412
▁günümüzde	-9.53487
▁Don	-9.53503
▁Kö	-9.53534
▁faaliyet	-9.53535
▁şarkıcılar	-9.53593
▁pi	-9.53603
-18	-9.53654
▁Dar	-9.5366
tığı	-9.53686
▁sık	-9.5369
ünün	-9.53722
▁Stadyumu	-9.53817
▁Angeles	-9.53818
▁fakat	-9.53847
Te	-9.53847
2011	-9.53896
lle	-9.53896
▁Kemal	-9.53963
ika	-9.53972
car	-9.54
▁Ed	-9.54032
▁oluşumlar	-9.54037
71	-9.54062
▁by	-9.5409
taş	-9.54161
▁SK	-9.54171
par	-9.54197
▁haline	-9.54204
cha	-9.54263
Avrupa	-9.54302
▁13.	-9.54346
▁Erkek	-9.54349
▁gitar	-9.54372
▁hi	-9.54382
öl	-9.54505
▁Peter	-9.5458
▁Gal	-9.54588
▁Taş	-9.54624
ph	-9.54831
the	-9.54895
▁fe	-9.54935
bur	-9.5494
▁ke	-9.54956
▁geliştir	-9.54992
▁Art	-9.55017
tel	-9.55039
dor	-9.55091
▁eseri	-9.55155
▁Lisesi	-9.5517
▁kurulmuş	-9.55174
▁şehrinde	-9.55213
sey	-9.55268
▁İsrail	-9.5529
lenmesi	-9.55459
0'''	-9.55463
▁maç	-9.5547
zı	-9.55483
bor	-9.5553
▁verildi	-9.55581
▁yönünde	-9.55607
▁eşi	-9.55651
▁Ac	-9.55663
▁kale	-9.55693
▁Bağımsız	-9.5574
▁Akdeniz	-9.55791
0.0	-9.55838
у	-9.55892
▁Derneği	-9.55892
▁19.	-9.55965
▁sanatçıları	-9.55991
▁ülkenin	-9.56018
д	-9.56044
▁Sol	-9.56171
▁1964	-9.56173
▁Kalkınma	-9.56197
▁ga	-9.56221
lenme	-9.56238
ction	-9.56301
▁Men	-9.56375
▁Çek	-9.56402
▁internet	-9.56451
bil	-9.56462
ston	-9.56568
▁boş	-9.56726
▁Sü	-9.5674
▁Q	-9.56866
rü	-9.56959
Ca	-9.56972
▁yüz	-9.5715
–1	-9.57202
▁tamamladı	-9.57246
▁1.2	-9.5725
kir	-9.57294
New	-9.57305
▁proje	-9.57305
▁Sonuç	-9.57317
▁kalma	-9.57364
maz	-9.57498
cılar	-9.57566
siyle	-9.57573
sü	-9.57585
▁hayatı	-9.57593
▁bütün	-9.5763
▁'''3'''	-9.57642
▁1963	-9.57727
ciler	-9.57748
▁basketbolcuları	-9.5785
▁sorumlu	-9.57956
è	-9.58109
ino	-9.58134
gue	-9.58136
▁kan	-9.58148
▁art	-9.58167
▁67	-9.58173
ə	-9.58199
▁fi	-9.58235
burg	-9.58256
▁beyaz	-9.58266
ami	-9.58269
tri	-9.5833
▁alarak	-9.58342
▁sanatçı	-9.58348
Q	-9.58351
▁with	-9.5846
way	-9.58503
▁Bazı	-9.58554
▁ülkeler	-9.58593
▁göç	-9.58631
ec	-9.58765
lardır	-9.58767
▁yayımlanan	-9.58829
▁Del	-9.58838
▁metal	-9.5888
81	-9.59078
▁Ermeni	-9.59153
▁direktör	-9.5921
▁Avusturya	-9.5923
▁Alan	-9.59231
▁oluştuğu	-9.59241
▁Ukrayna	-9.59276
vel	-9.59338
▁William	-9.59356
▁Puan	-9.59394
dal	-9.59416
▁şa	-9.59459
form	-9.59462
▁76	-9.59491
sco	-9.59494
ıyla	-9.59499
▁kulübü	-9.5951
▁bilgisayar	-9.59556
▁Birinci	-9.596
▁Air	-9.59649
bb	-9.59762
▁yönetmen	-9.59834
suz	-9.59838
▁tamam	-9.59875
lerdir	-9.5989
yar	-9.59893
wo	-9.59916
ary	-9.59921
sidir	-9.59928
▁çevre	-9.59953
cia	-9.60062
▁kurdu	-9.60064
▁20.	-9.60197
mor	-9.60259
▁bek	-9.60266
▁serisi	-9.60391
л	-9.60426
▁kayıt	-9.60428
▁Televizyon	-9.60476
ity	-9.60503
▁piyasay	-9.60513
nan	-9.60521
▁74	-9.60577
Bir	-9.6062
one	-9.60659
▁bitki	-9.60725
▁Gür	-9.60752
в	-9.60822
▁Geç	-9.60833
▁takımları	-9.60904
▁asker	-9.60909
▁pat	-9.60948
▁Yıldız	-9.60998
▁vardı	-9.61026
▁oluş	-9.61033
61	-9.6106
▁Bil	-9.61138
lılar	-9.61149
5)	-9.61157
▁dakika	-9.61163
▁yardım	-9.61205
▁1962	-9.61216
▁yabancı	-9.61253
kon	-9.61266
▁kazanmıştır	-9.61276
▁göl	-9.61295
▁Küçük	-9.61563
▁başkanlığı	-9.61573
▁Gürcistan	-9.61627
ich	-9.61629
▁Sovyetler	-9.61636
*	-9.6168
fu	-9.61696
▁Bunun	-9.61705
▁Konya	-9.61762
şim	-9.61772
yet	-9.61788
dik	-9.61793
▁hemen	-9.61808
sion	-9.61856
▁sırasıyla	-9.6186
qui	-9.61862
▁haber	-9.6191
▁73	-9.61912
▁dikkat	-9.61959
▁maçta	-9.62016
▁ila	-9.62105
č	-9.62111
ola	-9.62133
▁Ordu	-9.62223
ros	-9.62255
▁cami	-9.62258
mann	-9.62264
▁Hindistan	-9.62274
▁oluşur	-9.62287
▁düşün	-9.62291
▁ra	-9.62317
▁Zaman	-9.62363
iç	-9.62457
▁eserleri	-9.62475
▁am	-9.62527
▁yapmaktadır	-9.62655
▁Kızıl	-9.62697
▁sayılı	-9.62799
yev	-9.62936
▁hak	-9.62937
▁2020'	-9.62974
iyle	-9.6303
▁Jean	-9.63132
▁text	-9.63142
▁vi	-9.63158
▁1945	-9.63162
▁şehri	-9.63192
art	-9.63276
▁yolu	-9.6329
▁Savaş	-9.63312
▁kökenli	-9.6336
▁Aydın	-9.63364
▁Par	-9.634
ılma	-9.63484
▁ince	-9.63559
▁per	-9.63574
-0	-9.63664
▁Listesi	-9.63695
▁üniversite	-9.63795
▁söyle	-9.63851
▁(1)	-9.63872
▁ho	-9.63938
▁yeri	-9.63992
▁Millet	-9.64
ürü	-9.64079
▁Au	-9.64084
gun	-9.64112
▁Tüm	-9.64121
▁Dizi	-9.64176
▁bile	-9.64195
Dünya	-9.64197
▁hayvan	-9.64264
▁tanrı	-9.64294
mat	-9.64304
▁uygulama	-9.64323
▁köyü	-9.64331
▁NGC	-9.64348
▁12.	-9.64349
▁Demokrat	-9.64417
▁grubun	-9.6442
▁sonrasında	-9.64448
▁ziyaret	-9.64513
▁öğretmen	-9.64524
lıdır	-9.64553
▁siyaset	-9.64587
▁Martin	-9.6462
▁Kupa	-9.64644
▁sonucunda	-9.64647
stra	-9.64655
▁popüler	-9.64679
▁Cu	-9.64773
▁düz	-9.64805
dia	-9.64856
üstü	-9.64951
▁yapılmıştır	-9.64979
SC	-9.65006
▁arka	-9.65007
▁Yönetim	-9.65017
▁dünyaya	-9.65039
▁Grand	-9.65102
hir	-9.65153
▁Müdürlüğü	-9.65331
▁ödül	-9.65455
▁satın	-9.65517
cre	-9.65521
▁yılındaki	-9.65522
▁Seri	-9.65561
▁statüsü	-9.65568
▁69	-9.65579
▁Yayın	-9.65624
▁üzerinden	-9.65638
▁sınırları	-9.65689
▁turnuva	-9.65695
çu	-9.65732
▁Uzun	-9.65739
▁Müslüman	-9.65792
▁1959	-9.65866
▁he	-9.65912
tepe	-9.65951
sti	-9.66038
▁Komisyonu	-9.66071
ford	-9.66162
▁Suriye	-9.66254
liğe	-9.66255
▁Kim	-9.66311
fo	-9.66364
▁Sosyal	-9.66425
▁sefer	-9.66494
▁değiştir	-9.66602
lamıştır	-9.66623
▁man	-9.66672
▁yönetimi	-9.66741
istan	-9.6679
▁Bunlar	-9.66834
kul	-9.6686
bet	-9.66954
ram	-9.67021
▁Güreş	-9.67087
ef	-9.67129
▁başına	-9.67143
▁Roman	-9.67203
El	-9.67215
bü	-9.67241
▁eyaletinde	-9.67251
▁14.	-9.67325
▁enerji	-9.67371
▁yüzyılın	-9.67401
lly	-9.67434
▁özellikleri	-9.67519
ture	-9.67525
▁Sitesi	-9.67545
▁rock	-9.67606
cy	-9.67684
AN	-9.67743
Konusu	-9.67783
▁Ü	-9.67809
▁kurulu	-9.67918
▁doğal	-9.67919
rem	-9.67944
▁Akademi	-9.68013
▁sayımın	-9.68025
mba	-9.68048
▁Evli	-9.68052
▁yaka	-9.68063
mes	-9.68108
м	-9.68112
▁ölmüştür	-9.68171
▁Alt	-9.68253
▁kulübünde	-9.68277
til	-9.68289
▁Kitap	-9.6829
▁karakter	-9.68338
▁71	-9.68347
▁Moskova	-9.68398
tas	-9.68406
▁içerir	-9.68439
▁av	-9.68519
▁77	-9.68602
▁Wal	-9.68645
II	-9.68649
▁Şen	-9.68656
▁İspanyol	-9.68749
▁Yarı	-9.68855
▁Burada	-9.68883
▁Fenerbahçe	-9.68916
▁oldukça	-9.68918
▁gazeteci	-9.68921
▁And	-9.68941
▁es	-9.69113
af	-9.69153
▁Norveç	-9.69159
▁*'''	-9.69167
▁Ata	-9.69191
▁Sen	-9.69209
▁direktörler	-9.69249
▁mezar	-9.69278
mil	-9.69311
▁görevini	-9.69384
dri	-9.69489
▁Ön	-9.69525
▁dramatik	-9.69564
Li	-9.69593
▁pe	-9.69686
▁Hasan	-9.69767
▁yazılım	-9.69779
▁Gel	-9.69819
gra	-9.69869
▁bölgede	-9.69903
▁All	-9.69965
▁yapısı	-9.69998
eb	-9.70006
gı	-9.70013
▁öncesi	-9.70041
▁başlar	-9.70085
ell	-9.70091
lığa	-9.70166
▁Video	-9.70181
▁Dışişleri	-9.70373
▁Aşk	-9.70431
▁yaşamı	-9.7046
2009	-9.70508
▁Rock	-9.70526
ska	-9.70568
–19	-9.70582
vet	-9.70623
▁İrlanda	-9.70663
▁1940	-9.70714
▁etmiş	-9.70737
▁Kısa	-9.70791
▁radyo	-9.70791
▁adında	-9.70835
▁İsim	-9.70851
ydu	-9.70862
▁program	-9.70959
▁Tour	-9.7098
▁İnsan	-9.71042
▁park	-9.71087
▁16.	-9.71135
mik	-9.71152
▁konusunda	-9.71169
▁1958	-9.71217
▁ulaş	-9.71238
▁sonrası	-9.71254
sıyla	-9.71299
▁cihaz	-9.71312
raf	-9.71364
▁yoğun	-9.71375
▁yük	-9.71395
▁Sey	-9.71473
▁siyah	-9.71493
low	-9.71498
leşmiş	-9.71576
▁alma	-9.71588
ora	-9.71654
▁kontrol	-9.71656
▁anime	-9.71672
▁atandı	-9.71728
▁güçlü	-9.71786
▁Dev	-9.71841
▁Görev	-9.71907
▁canlı	-9.71916
▁Far	-9.71952
▁Saint	-9.71954
▁Black	-9.71962
ib	-9.71975
▁Demokratik	-9.72008
▁anda	-9.72024
▁Şehrin	-9.72025
Rus	-9.72048
ile	-9.72061
▁Araştırma	-9.72085
▁Win	-9.72142
fon	-9.72164
▁eş	-9.7223
tem	-9.72239
kat	-9.72245
▁1.3	-9.72297
ps	-9.72315
ssa	-9.72326
▁değer	-9.72371
Altın	-9.7241
▁Col	-9.72462
▁birimleri	-9.72479
▁sınır	-9.72506
▁arkadaşı	-9.72521
▁85	-9.72531
dil	-9.72537
▁Ex	-9.72538
▁Mak	-9.72621
▁Sivas	-9.72644
▁Kilisesi	-9.72652
bre	-9.72664
▁Bizans	-9.72665
▁Erzurum	-9.72741
▁konser	-9.72761
▁resim	-9.72806
▁Cup	-9.72996
▁Mes	-9.73004
▁uzay	-9.73044
duğu	-9.73214
▁uygun	-9.73268
▁seri	-9.73296
San	-9.73405
rum	-9.73446
▁Çocuk	-9.73447
tta	-9.73477
▁önceki	-9.73488
▁Adana	-9.73522
cilik	-9.73537
Ke	-9.73603
▁Antalya	-9.73644
▁Oyuncular	-9.73645
İngilizce	-9.73699
&	-9.73705
umu	-9.73721
▁Gen	-9.73728
br	-9.73773
ite	-9.73991
▁göster	-9.74008
▁del	-9.7405
▁şirket	-9.74119
▁meydana	-9.74139
era	-9.74171
▁Bilim	-9.7418
▁150	-9.74215
gh	-9.74245
▁kas	-9.74296
▁Galatasaray	-9.74312
▁TBMM	-9.74373
▁yaşam	-9.7445
▁bo	-9.74478
kleri	-9.74486
▁Kız	-9.74523
sıdır	-9.74558
ence	-9.74621
▁mensubu	-9.74678
kes	-9.7469
▁Ren	-9.74736
▁Red	-9.74769
▁kaldır	-9.74935
No	-9.75003
▁Gürcü	-9.7503
▁yapıldı	-9.75049
▁görüş	-9.75074
▁'''''	-9.75098
▁fotoğraf	-9.7514
▁Music	-9.75152
▁kol	-9.75183
▁ödülü	-9.75211
▁ederek	-9.7525
ix	-9.75341
vis	-9.75366
▁Yo	-9.75382
ville	-9.75451
▁Chris	-9.75471
soy	-9.75502
▁oku	-9.75514
▁Un	-9.75522
▁model	-9.75531
▁Resim	-9.75583
▁Fakültesinde	-9.75648
▁Hol	-9.75664
▁Den	-9.75676
▁King	-9.75693
▁Bro	-9.75721
pan	-9.75766
▁devre	-9.75772
▁1955	-9.75793
▁kaza	-9.75924
hane	-9.75949
▁78	-9.76001
Su	-9.76055
▁eser	-9.76093
ა	-9.76157
▁ona	-9.76349
üsü	-9.76447
▁Muhammed	-9.76467
▁Sarı	-9.76467
Türkçe	-9.76507
▁kendisi	-9.7661
▁ilişkileri	-9.76625
age	-9.76625
▁Kaliforniya	-9.76654
▁alındı	-9.76674
▁katı	-9.76739
▁Ama	-9.76755
▁Pas	-9.76779
▁değildir	-9.76846
▁hale	-9.76884
pu	-9.76948
▁müze	-9.76955
▁ağ	-9.7701
yol	-9.77011
hy	-9.77113
▁DF	-9.77119
▁Güzel	-9.77155
▁yorum	-9.77185
▁verdiği	-9.77186
▁açı	-9.7721
▁hiçbir	-9.77227
▁ter	-9.77234
▁ilçesi	-9.77251
▁Yapım	-9.77338
Ja	-9.77383
▁kuruluşu	-9.77407
ıyordu	-9.7742
ić	-9.7746
▁Louis	-9.77512
hin	-9.77529
▁ağır	-9.77558
AR	-9.77562
Defans	-9.77565
▁tahmin	-9.77581
ر	-9.77657
ds	-9.7767
▁başkanları	-9.77752
ih	-9.77805
-6	-9.77813
Po	-9.77827
▁Nazi	-9.77833
▁Luc	-9.77837
say	-9.77837
ori	-9.7786
▁82	-9.77868
gor	-9.77875
▁von	-9.77887
gli	-9.77899
▁%1	-9.77942
kül	-9.7801
▁Af	-9.78036
▁University	-9.78036
▁kasaba	-9.78067
▁kullanıcı	-9.78108
▁pazar	-9.78121
▁kurucu	-9.78142
acağı	-9.78151
▁Federasyonu	-9.78239
5.0	-9.7828
▁noktası	-9.78288
▁san	-9.7831
▁köyün	-9.78352
▁sonuç	-9.78393
▁1957	-9.78399
▁nüfusunun	-9.78403
Vi	-9.7845
for	-9.78464
Japon	-9.78474
▁düş	-9.78523
ish	-9.7853
▁CD	-9.78557
Fa	-9.78566
▁orman	-9.78573
▁toplum	-9.7863
ız	-9.78639
los	-9.78694
ign	-9.78716
müş	-9.7872
▁büyü	-9.78726
▁gösteren	-9.7874
▁Tro	-9.78741
▁Charles	-9.78744
▁Best	-9.78783
▁çık	-9.7888
cık	-9.7889
▁defa	-9.78895
▁'''2'''	-9.78969
▁Meksika	-9.79053
▁tarihçi	-9.79105
ical	-9.79188
Forvet	-9.79293
▁ülkesi	-9.79355
şık	-9.79383
▁uçak	-9.79417
▁örnek	-9.79421
dağ	-9.79467
▁em	-9.79482
▁hayatını	-9.7949
▁modern	-9.79501
▁sonuçları	-9.79505
▁Hay	-9.79512
▁kök	-9.79515
▁Açık	-9.79545
ves	-9.79547
larak	-9.7955
Ni	-9.79556
▁görevi	-9.7956
og	-9.79621
▁kırmızı	-9.79629
▁araç	-9.79643
▁başrol	-9.79674
▁pop	-9.79746
▁kazananlar	-9.79774
▁kitapları	-9.79869
▁doğa	-9.79913
▁Mezarlığı	-9.79951
▁Gök	-9.79982
▁gemi	-9.79989
▁1956	-9.8002
-5	-9.80041
▁Rum	-9.8005
▁bölümünde	-9.80088
ura	-9.80092
▁Liste	-9.80116
▁Şu	-9.80128
▁kulüpleri	-9.80142
lediği	-9.80149
▁sür	-9.80169
▁çalışmalar	-9.80217
▁Uluslar	-9.80226
▁Pat	-9.80284
OS	-9.80293
bert	-9.8041
ero	-9.80413
1'''	-9.80425
▁bırak	-9.80425
iti	-9.8046
AP	-9.80468
▁Ur	-9.80546
▁listeleri	-9.80566
▁etkisi	-9.80634
ön	-9.80657
▁düzenleme	-9.80663
▁Havalimanı	-9.80727
▁Gö	-9.808
▁yazılan	-9.80827
▁adına	-9.80836
▁dünyanın	-9.80847
▁79	-9.8085
leyici	-9.8085
teri	-9.80938
ms	-9.81009
▁insanları	-9.81049
lığını	-9.81063
▁Sar	-9.81137
▁Nor	-9.81141
rio	-9.81142
▁Lee	-9.81143
günümüz	-9.81248
▁Sin	-9.81267
day	-9.8129
▁Trabzon	-9.81348
▁Dağı	-9.81383
▁Ah	-9.81403
▁seçimlerinde	-9.81425
▁motor	-9.81446
tus	-9.81462
▁programları	-9.81498
▁işaret	-9.81512
▁1944	-9.81537
▁giriş	-9.81653
▁Hü	-9.81653
▁giydi	-9.81697
▁3,	-9.81742
▁taşıyan	-9.81742
▁şehirdir	-9.81769
▁1946	-9.81787
▁Web	-9.81854
▁kullan	-9.81862
▁Yardımcı	-9.81864
▁Bak	-9.81871
▁türleri	-9.8199
án	-9.82021
Ankara	-9.82028
▁Adası	-9.82073
▁81	-9.82073
our	-9.82103
▁Yan	-9.82175
rah	-9.82229
▁başkan	-9.82248
▁tip	-9.82251
olojik	-9.82271
kut	-9.82272
▁toprak	-9.82305
▁üretilen	-9.8231
rie	-9.82314
▁Madalya	-9.82329
▁insanı	-9.82349
▁dönemi	-9.82357
sha	-9.82372
wer	-9.82394
▁güneyinde	-9.8241
▁Hor	-9.8249
lia	-9.82526
▁1954	-9.82564
▁modeli	-9.82578
▁ayrıldı	-9.82597
bek	-9.82608
▁gerek	-9.8261
▁takımyıldızı	-9.82629
▁hükûmet	-9.82645
▁Kay	-9.82703
▁Ken	-9.8271
▁gör	-9.82745
▁hane	-9.82809
▁hızlı	-9.82849
dem	-9.8286
▁mimar	-9.82866
nar	-9.8294
▁Yayınları	-9.83124
▁yen	-9.83282
▁mm	-9.83309
▁geçmiş	-9.83373
▁bey	-9.83392
cil	-9.83441
▁ateş	-9.83443
▁katılma	-9.83467
▁84	-9.83554
▁Zi	-9.83675
tık	-9.83744
▁meclis	-9.83828
medi	-9.8384
▁1.4	-9.83847
▁karakterler	-9.83884
▁93	-9.83901
''':	-9.8395
▁izin	-9.83953
▁babasıdır	-9.83959
▁Üç	-9.83961
▁emekli	-9.83965
illa	-9.84
inci	-9.84039
▁yapım	-9.84077
▁uyar	-9.84144
▁Kir	-9.84165
▁yalnızca	-9.84252
▁Krallığı	-9.84321
▁Day	-9.84327
aç	-9.8435
ano	-9.8435
▁or	-9.84372
iyordu	-9.84383
▁Frank	-9.84399
▁lo	-9.8443
▁gösteri	-9.84436
▁Richard	-9.84573
ú	-9.84635
▁aşağıdaki	-9.84739
▁Britanya	-9.84759
▁2019'	-9.84768
▁İbrahim	-9.8477
▁nedenle	-9.84784
▁1.5	-9.84785
2010	-9.84812
▁kıyı	-9.84832
▁She	-9.84867
Ki	-9.84887
▁yemek	-9.84899
▁Ada	-9.84912
▁Güneş	-9.8492
▁88	-9.84936
▁edilmektedir	-9.84984
müştür	-9.84987
▁Murat	-9.84995
▁Meclis	-9.85045
▁Super	-9.85081
sis	-9.85107
▁Kaya	-9.85119
▁düşük	-9.85125
▁Gre	-9.85158
▁Football	-9.85245
▁bayrağı	-9.85245
Par	-9.85253
▁hakları	-9.85296
▁bunun	-9.854
mayı	-9.85402
▁mühendis	-9.85457
con	-9.85474
▁Tam	-9.85476
▁zor	-9.85488
▁şampiyonu	-9.85537
▁çekilmiş	-9.85568
cho	-9.85571
▁96	-9.85571
▁sunucu	-9.85587
▁adamı	-9.85612
▁halinde	-9.8573
▁Des	-9.85732
fik	-9.85742
▁Yılmaz	-9.85751
hri	-9.85767
▁taşı	-9.85776
win	-9.85792
▁çağ	-9.85815
▁romanı	-9.85824
▁Kral	-9.85824
▁Hüseyin	-9.85858
▁rekoru	-9.85899
▁Konseyi	-9.85927
▁des	-9.86117
▁...	-9.86153
▁çıkmıştır	-9.86169
set	-9.86208
▁kanser	-9.86227
red	-9.86231
▁Sil	-9.86276
▁bal	-9.86299
tha	-9.86323
istik	-9.86335
▁biyo	-9.8635
▁dön	-9.86394
▁getir	-9.86454
bon	-9.86466
▁Fin	-9.86523
▁Çift	-9.86523
▁yapımcısı	-9.86595
▁orijinal	-9.86613
▁yapma	-9.86632
▁tamamen	-9.8664
▁Devleti	-9.86659
CA	-9.86759
")	-9.86791
▁Yüz	-9.86833
▁Ordusu	-9.86853
▁Port	-9.86882
▁yarışması	-9.86905
▁Bri	-9.86945
100	-9.86959
▁kaya	-9.86986
▁Çi	-9.87004
ira	-9.87011
▁aracı	-9.87021
▁malzeme	-9.87097
2008	-9.87166
▁kullanımı	-9.87183
▁korku	-9.87205
▁2.0	-9.87244
gal	-9.87272
▁Şirket	-9.87289
▁Kap	-9.87347
▁Kendisi	-9.87416
▁İlçe	-9.8747
▁95	-9.87547
yat	-9.87598
▁geleneksel	-9.87652
kla	-9.87705
▁test	-9.87831
▁ayak	-9.87836
eg	-9.87838
▁Danimarka	-9.87872
▁West	-9.87879
▁May	-9.87894
osu	-9.87951
▁"''	-9.87971
▁dördüncü	-9.88001
▁Irak	-9.88035
▁Mat	-9.88045
rus	-9.88056
▁Kanal	-9.88075
AS	-9.88125
▁bit	-9.88129
▁1950	-9.88238
▁It	-9.8829
altı	-9.88328
▁numara	-9.88489
▁Üniversite	-9.88508
▁düzey	-9.88521
▁dışı	-9.8855
▁Az	-9.88596
▁ressam	-9.88601
ug	-9.88612
▁verir	-9.8862
▁Zelanda	-9.88633
▁Pen	-9.88664
▁Plan	-9.88723
vir	-9.88762
▁çeviri	-9.88773
▁gelmektedir	-9.88774
▁Ir	-9.88835
▁Ok	-9.88839
▁Günümüzde	-9.88843
▁(2	-9.88877
ning	-9.88882
▁çevril	-9.88913
▁hâl	-9.88916
▁uç	-9.88952
▁Bulgaristan	-9.88989
▁Brezilya	-9.88991
▁Eleme	-9.89033
▁telefon	-9.89147
Ayrıca	-9.89152
ğında	-9.89185
sından	-9.89208
▁Mag	-9.89216
mini	-9.89238
▁bitirdi	-9.89249
ding	-9.89267
▁Yapı	-9.89273
▁gördü	-9.89301
▁dilleri	-9.89351
▁Katolik	-9.8941
söz	-9.89429
ğan	-9.89431
ach	-9.89452
tek	-9.89511
kte	-9.89519
▁oynanan	-9.89527
500	-9.89575
jan	-9.89602
▁yerini	-9.89609
ağa	-9.89623
▁Beşiktaş	-9.89626
▁sayfası	-9.89664
old	-9.89689
emi	-9.89726
▁Çok	-9.89733
2003	-9.89771
▁Din	-9.89782
▁tah	-9.89834
▁Et	-9.89873
▁bulunmuştur	-9.89916
▁kişilik	-9.89935
fre	-9.89969
top	-9.90013
hip	-9.90049
▁Sto	-9.90082
and	-9.90095
org	-9.90096
▁hücre	-9.90205
▁sözleşme	-9.90214
▁17.	-9.90224
ben	-9.90235
avi	-9.90284
▁83	-9.90333
▁National	-9.90333
▁Ch	-9.90348
▁madde	-9.90352
▁Para	-9.90378
▁Sanatçı	-9.90381
▁Thomas	-9.90405
▁uygulan	-9.90491
▁maçları	-9.90535
tos	-9.90598
▁Tak	-9.90631
▁versiyonu	-9.90651
▁92	-9.90703
ón	-9.90706
▁Macaristan	-9.90767
▁Dur	-9.9078
▁Ag	-9.90792
▁Yerli	-9.9082
▁evlendi	-9.90834
▁dönemin	-9.90865
▁taşın	-9.9087
▁ordusu	-9.90882
▁özgü	-9.90916
▁Gölü	-9.90931
of	-9.91007
▁konumu	-9.91018
▁Maria	-9.91075
▁ordu	-9.91075
▁koruma	-9.91103
au	-9.91103
FK	-9.91149
▁kelime	-9.91169
▁gece	-9.91179
▁+1	-9.91241
▁kamu	-9.91246
ი	-9.91265
▁listesinde	-9.913
▁yolcu	-9.91345
▁1920	-9.91426
layıcı	-9.91427
pt	-9.9144
▁ülkede	-9.91472
α	-9.91484
▁Basketbol	-9.91558
ince	-9.91576
rey	-9.91623
Pro	-9.91625
▁1930	-9.91641
▁Babası	-9.91645
▁Eyaleti	-9.91656
yr	-9.91667
▁kral	-9.91674
▁Shi	-9.91713
▁kullanım	-9.91728
▁Bon	-9.91756
▁Tepe	-9.91763
▁kulüp	-9.91777
mir	-9.91812
Man	-9.91824
▁edilmesi	-9.91838
▁ticaret	-9.91846
▁hedef	-9.91851
▁karakteri	-9.91908
▁ağaç	-9.91915
▁Yılın	-9.91916
nie	-9.91945
▁im	-9.91994
▁doğum	-9.92018
▁::	-9.9203
▁üretimi	-9.9206
▁bakan	-9.92065
rim	-9.92092
▁Adaları	-9.92106
▁Mah	-9.92141
▁2017'	-9.92159
çak	-9.92193
▁1953	-9.92201
▁uçuş	-9.92222
▁olmasına	-9.92268
▁Filmografi	-9.92325
▁basketbolcular	-9.92351
▁lise	-9.92357
▁yapmak	-9.9242
mm	-9.92427
▁mesafe	-9.92429
▁makine	-9.92439
ast	-9.92469
▁Yazar	-9.92513
2021	-9.92547
▁beste	-9.92549
ise	-9.92658
▁kullanma	-9.92658
▁geldiği	-9.92731
▁Milli	-9.92757
▁paylaş	-9.92758
ladığı	-9.92768
▁Şampiyon	-9.92774
▁yapılır	-9.92808
н	-9.92822
▁yoluyla	-9.92857
▁olsa	-9.9288
kır	-9.92882
ril	-9.92908
▁kötü	-9.92941
▁yıllar	-9.92977
▁sürü	-9.92983
▁üzerindeki	-9.93114
▁sene	-9.93139
Yeni	-9.93145
▁Baba	-9.93178
▁atan	-9.93186
tsu	-9.93224
▁Cho	-9.93246
▁aktif	-9.93266
▁gaz	-9.9331
▁Pop	-9.93316
▁Muh	-9.9333
▁1941	-9.9333
▁yazma	-9.93372
▁4,	-9.9338
▁Pre	-9.93406
▁Show	-9.93412
Ti	-9.93415
▁öğrenci	-9.93428
Lo	-9.93437
▁86	-9.93461
▁87	-9.93487
▁harf	-9.93503
hor	-9.93537
▁Efendi	-9.93604
▁kuzeyinde	-9.93658
▁Portekiz	-9.93731
sil	-9.93812
cus	-9.93814
'''''	-9.93857
▁ışık	-9.93858
▁Göl	-9.93873
▁ortalama	-9.93911
▁kullanılmıştır	-9.93916
▁söylen	-9.9392
tip	-9.93939
▁yapılmış	-9.93948
▁hikâye	-9.93964
▁Prof	-9.93966
▁COVID	-9.93974
▁Büyükşehir	-9.9399
▁2018'	-9.93996
bal	-9.94
sson	-9.94006
▁Mus	-9.94033
ā	-9.94048
▁dik	-9.94096
örü	-9.94139
udur	-9.94144
▁çö	-9.94174
aklı	-9.94178
▁Seçim	-9.94203
▁Ker	-9.94274
▁ulaşım	-9.94298
▁One	-9.94298
▁üretim	-9.94352
liler	-9.94438
▁takip	-9.94468
▁Press	-9.94539
▁Kardeş	-9.94584
lamak	-9.94634
▁kilometre	-9.94643
▁Sosyalist	-9.94644
▁zorunda	-9.94655
▁kişinin	-9.94668
▁yön	-9.94767
▁almış	-9.94799
▁kararı	-9.94815
▁Koreli	-9.94821
▁Spe	-9.94864
▁profili	-9.94943
ces	-9.94943
-8	-9.94971
5'''	-9.94989
▁Club	-9.95004
▁yayınlar	-9.95017
▁kav	-9.9504
▁gelişme	-9.95093
cker	-9.95112
▁kralı	-9.95122
▁hüküm	-9.95151
م	-9.95167
mel	-9.95171
▁romanları	-9.95183
▁Tal	-9.95202
▁Camii	-9.95215
1991	-9.95235
▁basketbol	-9.95356
▁kadınlar	-9.95414
▁ölüm	-9.95446
▁Madrid	-9.95469
▁Play	-9.95478
pre	-9.95562
р	-9.95589
AC	-9.95603
▁doğan	-9.95637
▁alın	-9.95658
Kuzey	-9.95675
▁tarzı	-9.95709
ive	-9.95739
▁Tü	-9.95744
▁OS	-9.95756
cht	-9.95769
▁yazdı	-9.95853
▁senarist	-9.95921
▁verilmiştir	-9.95931
2007	-9.95935
▁hukuk	-9.95939
▁yönetici	-9.95967
▁1948	-9.95972
▁kulüplerinde	-9.95996
و	-9.95996
▁kaybetti	-9.96072
▁gelmiştir	-9.96087
▁yani	-9.96099
▁yönelik	-9.96129
▁sev	-9.96135
▁Andre	-9.96149
▁kadrosu	-9.96196
▁Yaş	-9.96215
▁120	-9.96242
▁dergisi	-9.96289
ric	-9.96297
▁Bru	-9.96385
▁çapında	-9.96389
mus	-9.9639
▁kazan	-9.96392
▁öne	-9.964
▁kapat	-9.96402
▁Bill	-9.96415
layarak	-9.965
▁mevcut	-9.96512
▁w	-9.96526
▁avukat	-9.96527
▁Şampiyonlar	-9.96595
▁işlem	-9.96598
▁Dağ	-9.96636
▁markaları	-9.96636
masına	-9.96658
▁filmin	-9.9667
▁yayınladı	-9.96731
▁teknoloji	-9.96741
▁dağılımı	-9.96743
▁doğrudan	-9.96754
yordu	-9.9676
▁sporcu	-9.96773
▁1952	-9.96782
▁hastalığı	-9.96823
▁ekibi	-9.96845
▁kolay	-9.96849
rap	-9.96916
Bronz	-9.96939
▁İsmail	-9.96985
▁1949	-9.96989
▁Fra	-9.97081
▁91	-9.97084
▁Yaşamı	-9.97118
▁bak	-9.97159
sak	-9.97213
▁sahipliği	-9.97234
▁Ağa	-9.97253
▁doku	-9.97359
▁yedi	-9.97399
bilim	-9.97402
hit	-9.97416
▁Max	-9.97434
▁satıl	-9.9753
ilerek	-9.97647
baş	-9.97656
key	-9.97675
▁Sel	-9.97747
▁kardeş	-9.97748
▁Alp	-9.97797
▁yağ	-9.97846
2'''	-9.97857
pınar	-9.97911
gram	-9.97918
▁tamamlanan	-9.97926
▁özelliği	-9.97948
▁filmidir	-9.9798
▁Bilimler	-9.98023
row	-9.98024
▁hayat	-9.98035
:1.	-9.98078
▁Kent	-9.98109
▁bölgeler	-9.98115
▁99	-9.98122
▁County	-9.98139
▁gitti	-9.98169
pen	-9.98172
Un	-9.98202
▁Adı	-9.98206
▁Kır	-9.98279
▁geçer	-9.9831
cher	-9.98312
masını	-9.98452
abil	-9.98483
0.000	-9.98521
▁derin	-9.98563
cle	-9.98575
xi	-9.98579
▁Ji	-9.98613
ens	-9.98617
▁etmesi	-9.98627
▁yönetmenliğini	-9.98639
gül	-9.98692
▁derecesi	-9.98725
ücü	-9.98785
▁katkı	-9.98848
▁güreş	-9.98877
ل	-9.9907
▁kanun	-9.99116
▁1943	-9.99116
▁sarı	-9.99133
▁seçilmiştir	-9.99168
uri	-9.99193
▁Sim	-9.99194
dro	-9.99203
Va	-9.99218
▁dans	-9.99227
▁89	-9.99275
▁sınırı	-9.99276
▁Dal	-9.99355
▁tepe	-9.99386
▁olay	-9.99442
▁Komünist	-9.99461
▁98	-9.99461
▁sürümü	-9.99466
▁(;	-9.99515
1999	-9.99517
▁desteği	-9.99541
▁sürdü	-9.99574
▁devri	-9.99607
▁Şah	-9.99633
Kar	-9.99644
▁yılının	-9.99655
▁Sab	-9.99702
Or	-9.9977
▁Entertainment	-9.99775
▁oynadığı	-9.99781
▁bakanları	-9.99787
▁Os	-9.99797
tom	-9.99842
▁Girl	-9.99843
▁gruplar	-9.99847
▁savunma	-9.9988
−	-9.99898
landırma	-9.99917
vu	-9.99918
▁Kulübü	-9.99932
▁Kuş	-10.0009
▁Fre	-10.0014
ella	-10.0022
▁toprakları	-10.0029
▁üyeliği	-10.0032
▁Atletizm	-10.0033
▁ekran	-10.0037
▁ekonomik	-10.0042
ctor	-10.0043
TA	-10.0051
▁Kü	-10.0063
▁taraf	-10.0066
▁Nur	-10.0067
▁oluşmaktadır	-10.0067
▁geçirdi	-10.0073
▁Aday	-10.0078
▁boy	-10.008
▁kaynağı	-10.008
▁ölçü	-10.0083
▁Başbakan	-10.0085
SA	-10.0093
▁gösterir	-10.0093
▁Milletler	-10.0094
ilmiştir	-10.0094
▁rolü	-10.0094
▁Not	-10.0096
▁Kol	-10.0097
▁1.6	-10.0098
▁makale	-10.0106
lidir	-10.0117
▁belirti	-10.0121
▁dal	-10.0121
▁eleme	-10.0122
Go	-10.0124
▁açıklama	-10.0126
bas	-10.0127
▁eserler	-10.0127
▁kendisine	-10.0133
▁Mad	-10.0137
▁yoktur	-10.0139
▁Jack	-10.0142
▁tipi	-10.0144
▁konusu	-10.0145
▁satış	-10.0146
:2020	-10.0147
pri	-10.0155
▁Mur	-10.0157
▁sanatçısı	-10.016
▁sürdürdü	-10.0162
▁lideri	-10.0163
▁yöntem	-10.0164
▁kendisini	-10.0165
▁Özellikle	-10.0167
▁Yarışma	-10.0167
ümü	-10.0172
▁ürünleri	-10.0178
▁Euro	-10.0183
▁Atatürk	-10.0185
▁turu	-10.0185
▁can	-10.0186
▁'''4'''	-10.0186
2006	-10.0188
▁Eş	-10.0192
▁ata	-10.0196
▁hakkı	-10.0197
▁bronz	-10.02
Son	-10.0208
▁110	-10.0213
▁Doktor	-10.0216
▁Jackson	-10.022
▁heykel	-10.0224
▁2012'	-10.0226
▁finalde	-10.0229
▁Tat	-10.023
▁diye	-10.0231
▁kart	-10.0233
leştirme	-10.0234
▁ders	-10.0235
▁süreci	-10.0239
▁kesin	-10.024
▁Süre	-10.0241
▁güreşçi	-10.0248
Jo	-10.0253
cc	-10.0253
▁olaylar	-10.0268
▁Tıp	-10.027
▁'''4	-10.0271
tme	-10.0274
▁eyalet	-10.0275
miz	-10.0279
▁yayımlandı	-10.0279
▁belirli	-10.0284
▁Sırp	-10.0286
▁1951	-10.0287
ë	-10.0289
▁Karşı	-10.0293
▁till	-10.0298
▁otur	-10.0299
▁amacı	-10.0299
▁par	-10.0302
▁bes	-10.0303
▁Mari	-10.0303
▁Gazete	-10.0303
hl	-10.0305
▁Hanedanı	-10.0305
▁uzman	-10.0305
Er	-10.0306
-17	-10.0312
idae	-10.0316
kur	-10.032
dere	-10.0321
▁Pazar	-10.0322
▁Jan	-10.0328
vers	-10.0328
▁rolünde	-10.0339
▁öz	-10.0345
▁Komitesi	-10.0346
▁uzak	-10.0346
1997	-10.0348
▁bölümleri	-10.0348
▁1935	-10.0357
ł	-10.0362
▁5:	-10.0366
▁Sağlık	-10.0368
▁süresi	-10.0372
▁Lar	-10.0377
▁Life	-10.0378
▁Ulu	-10.0385
eceği	-10.0388
Resmî	-10.0395
▁1947	-10.0396
▁kuvvet	-10.0396
▁Yeşil	-10.0399
▁1939	-10.0402
ari	-10.0402
▁Has	-10.0406
▁sınıfı	-10.0407
▁Of	-10.041
mız	-10.0416
▁yapımcı	-10.0418
bro	-10.0419
▁tartışma	-10.0419
▁2016'	-10.0421
2)	-10.0424
▁gümüş	-10.0428
▁Yüzölçümü	-10.0436
▁baskı	-10.0441
ona	-10.0446
▁çalışması	-10.045
-10	-10.0451
▁kurum	-10.0452
▁Tre	-10.0452
şehir	-10.0455
▁anlaşma	-10.0458
dol	-10.046
▁Fakat	-10.0464
tle	-10.0464
▁yardımcısı	-10.0472
▁Tah	-10.0472
▁Angel	-10.0476
cor	-10.048
ço	-10.0486
▁performans	-10.0491
ografi	-10.0492
▁dö	-10.0493
▁yaşadığı	-10.0494
tive	-10.0501
▁Mary	-10.0501
rdı	-10.0505
gre	-10.0505
SS	-10.051
▁kanalı	-10.0513
CD	-10.0516
▁defnedilenler	-10.0518
Ben	-10.0522
▁eşit	-10.0527
▁dalında	-10.0529
med	-10.0531
2000	-10.0533
▁Radyo	-10.0533
▁Mel	-10.0534
▁Tru	-10.054
▁Nişanı	-10.0543
▁Mir	-10.0556
hen	-10.056
bah	-10.0562
▁görülür	-10.0568
▁Kurt	-10.0577
▁hükûmeti	-10.0582
▁elektrik	-10.0585
▁hastalık	-10.0594
▁kurucusu	-10.0602
▁kullanan	-10.0612
▁çalışır	-10.0615
cal	-10.0617
▁hattı	-10.062
▁geliştirilen	-10.062
▁erken	-10.0624
ras	-10.0627
▁(15	-10.0628
▁mevcuttur	-10.0629
makta	-10.0631
▁geliştirme	-10.0632
▁sayesinde	-10.0635
Yaşamı	-10.0642
▁Fransızca	-10.0643
ы	-10.0644
▁Vakfı	-10.0644
▁animasyon	-10.0644
▁1942	-10.0646
1990	-10.0648
▁Diyarbakır	-10.0652
▁Kayseri	-10.0652
▁Prens	-10.0661
▁tarım	-10.0662
▁1938	-10.0663
▁koy	-10.0663
▁bunlar	-10.0671
▁karşısında	-10.0682
▁suyu	-10.0682
▁Kastamonu	-10.0686
▁1-	-10.0704
▁Başlık	-10.0709
2013	-10.0717
ğını	-10.072
▁diş	-10.0722
SP	-10.0726
▁yönetmeni	-10.0727
▁istifa	-10.0728
▁Finlandiya	-10.0736
▁belge	-10.0741
▁Microsoft	-10.0745
Süper	-10.0745
▁engel	-10.0747
▁94	-10.0756
▁Aziz	-10.0756
▁....	-10.0757
ré	-10.0764
▁maçında	-10.0765
▁Night	-10.0768
etik	-10.0769
▁yürüt	-10.077
Çin	-10.0782
▁stil	-10.0783
uç	-10.0787
°	-10.0788
▁tra	-10.0793
▁Kra	-10.0798
▁askerî	-10.08
▁geçiş	-10.0802
▁medya	-10.0806
▁Sor	-10.0813
ي	-10.0813
▁kategori	-10.0818
▁denir	-10.082
Wa	-10.0822
▁işgal	-10.0827
▁polis	-10.0828
▁Cap	-10.0832
▁fil	-10.0836
bul	-10.0838
lemek	-10.084
ette	-10.0841
▁Parkı	-10.0843
▁makam	-10.0843
▁başlat	-10.0845
▁Eli	-10.0845
field	-10.0847
dis	-10.0849
▁Smith	-10.0856
▁2011'	-10.0856
▁köprü	-10.0858
▁değiş	-10.0858
▁normal	-10.0864
▁tasarım	-10.0875
▁tel	-10.0877
й	-10.0882
▁sistemleri	-10.0893
▁besteci	-10.0894
▁pan	-10.0899
▁Fri	-10.0901
▁giren	-10.0907
▁yaşadı	-10.0907
▁bilinmektedir	-10.0908
▁zengin	-10.0916
▁müzisyen	-10.0918
▁500	-10.0919
▁otomobil	-10.0921
▁pla	-10.0922
▁anlatı	-10.0926
Kara	-10.0929
▁klasik	-10.0933
lav	-10.0933
dio	-10.0938
▁Amerikalılar	-10.0939
▁kültürü	-10.0942
▁Göz	-10.0956
sus	-10.0958
paşa	-10.0962
▁300	-10.0966
▁Sonra	-10.0981
▁Live	-10.0982
ø	-10.0985
▁Filmin	-10.0989
▁Pra	-10.099
stor	-10.0992
▁sal	-10.0998
▁Daniel	-10.1004
▁hasta	-10.1007
▁çıkış	-10.1008
▁lider	-10.1016
▁kuvvetleri	-10.1018
▁takımının	-10.1019
▁Hint	-10.1019
▁arazi	-10.1022
liğin	-10.1024
▁sebep	-10.1029
▁Bell	-10.1032
▁konum	-10.1035
-7	-10.1039
▁Spi	-10.1043
▁güven	-10.1044
▁macera	-10.1046
▁bazen	-10.1048
yken	-10.1049
▁voleybol	-10.1055
▁günlük	-10.1056
▁sağlar	-10.1059
ies	-10.106
türk	-10.106
▁değişik	-10.106
cik	-10.1062
▁:*	-10.1067
▁Mersin	-10.1067
kel	-10.107
▁ekonomi	-10.1081
▁köşe	-10.1081
▁yükseldi	-10.1082
▁Romanya	-10.1082
▁edilme	-10.1083
▁Derece	-10.1087
lığın	-10.1091
▁ölümü	-10.1094
▁bugün	-10.1096
▁oran	-10.1098
▁tane	-10.1098
▁birimi	-10.11
sol	-10.11
▁Bol	-10.1105
▁Savunma	-10.1108
▁anlam	-10.1113
▁antik	-10.1113
ure	-10.1115
▁Washington	-10.1117
elli	-10.112
▁Real	-10.112
For	-10.112
▁batısında	-10.112
rar	-10.1122
NA	-10.1122
▁Ul	-10.1123
ân	-10.1129
mü	-10.1134
ب	-10.1143
▁Sur	-10.1147
▁astronom	-10.1148
2015	-10.1157
▁dini	-10.1157
▁ulaştı	-10.1158
▁File	-10.1162
▁fark	-10.1166
▁Inter	-10.1167
▁mutfağı	-10.1168
▁(2005)	-10.117
▁Gri	-10.1174
▁tablo	-10.1177
▁(2)	-10.1184
amadı	-10.1186
Ri	-10.1192
▁Cre	-10.1195
TC	-10.1195
▁örgüt	-10.1197
▁oluşturur	-10.1202
▁Stra	-10.1205
▁albümler	-10.1206
▁ileri	-10.1216
▁vermiştir	-10.1217
ér	-10.1222
awa	-10.1224
▁yaşama	-10.1228
▁imparator	-10.1228
leş	-10.1229
Ligue	-10.1233
▁General	-10.1246
▁Sho	-10.1249
▁Samsun	-10.1251
well	-10.1251
▁Denizi	-10.1254
▁Kış	-10.1255
sat	-10.1256
zade	-10.1262
▁1936	-10.1267
▁(2008)	-10.1268
▁odak	-10.1273
▁Süleyman	-10.1276
▁attı	-10.1277
vekilliği	-10.1289
ildiği	-10.129
uru	-10.129
▁tab	-10.1297
▁Thi	-10.1298
▁boz	-10.1299
▁Edebiyat	-10.1301
lendirme	-10.1302
▁Sem	-10.1303
ınca	-10.1303
▁Çevre	-10.1307
▁Fatih	-10.1312
▁Anne	-10.1326
▁oluşturan	-10.1326
laştı	-10.133
▁International	-10.133
▁yarışı	-10.1331
ović	-10.1332
▁onay	-10.1334
▁ed	-10.1338
olo	-10.134
▁Doğan	-10.1342
▁kahraman	-10.1348
▁binası	-10.135
kil	-10.1354
▁kor	-10.1357
▁(2006)	-10.1358
stein	-10.1364
iller	-10.1365
▁çekim	-10.1365
▁dergi	-10.1374
#	-10.1376
▁Stan	-10.138
▁400	-10.138
▁olmadığı	-10.138
▁1980'	-10.1381
Pe	-10.1383
б	-10.1384
▁İnternet	-10.1384
▁Sayımı	-10.1386
▁filminde	-10.139
ettin	-10.1394
▁(17	-10.1398
▁itibarı	-10.1398
▁güreşçiler	-10.1398
▁kapı	-10.1399
▁Boz	-10.1402
▁Bö	-10.1403
▁Başarı	-10.1404
▁Will	-10.1411
▁(2004)	-10.1412
▁2021'	-10.1412
▁alınan	-10.1414
▁semt	-10.1415
▁sağlayan	-10.1415
üdür	-10.1421
▁und	-10.1421
▁Henry	-10.1424
abı	-10.1424
▁MF	-10.1426
▁çiz	-10.1429
▁ayır	-10.1431
▁mahallesi	-10.1433
▁boyut	-10.1436
▁Eskişehir	-10.144
▁CF	-10.1441
çü	-10.1443
▁oynan	-10.1445
▁gözlem	-10.1445
▁Ly	-10.1445
sky	-10.145
▁sağlık	-10.1451
▁1925	-10.146
▁Zo	-10.1463
siyon	-10.1468
cro	-10.1476
▁1.8	-10.148
▁vali	-10.1484
▁süren	-10.1485
▁partiler	-10.1497
▁Küre	-10.1499
▁'''6'''	-10.1505
▁bitir	-10.1505
▁ab	-10.1507
▁Orhan	-10.1511
▁Wo	-10.1512
▁İli	-10.1513
▁van	-10.1514
fan	-10.1518
▁Siyasi	-10.1523
ıldığı	-10.153
▁bilgiler	-10.153
▁Cumhurbaşkanı	-10.153
▁senaryosunu	-10.153
gil	-10.1533
▁IV	-10.1533
rip	-10.1537
ges	-10.1538
▁Tab	-10.154
▁yüksekliği	-10.1541
kor	-10.1544
▁Ant	-10.1547
▁sekiz	-10.1548
grafi	-10.155
▁Bosna	-10.155
▁Sy	-10.155
ülü	-10.1552
▁işçi	-10.1557
▁Ticaret	-10.1558
▁kamera	-10.1558
ktaydı	-10.156
▁Örneğin	-10.1567
▁sürekli	-10.1568
3'''	-10.1568
▁Tanrı	-10.1571
▁Gazi	-10.1573
ê	-10.1576
▁profesör	-10.1577
eddin	-10.1579
▁Bakan	-10.1589
▁1990'	-10.1594
▁Galeri	-10.1595
▁Sc	-10.1597
ebe	-10.16
▁Fil	-10.1601
Qu	-10.1603
▁130	-10.1611
▁Gro	-10.1612
yonu	-10.1613
▁Sh	-10.1617
▁US	-10.1618
ن	-10.1631
vil	-10.1632
▁Yak	-10.1634
7.5	-10.1639
▁subay	-10.164
▁Trans	-10.1641
▁(2007)	-10.1651
▁(2009)	-10.1651
▁yaşındayken	-10.1652
ello	-10.1658
▁(16	-10.1659
▁pilot	-10.1661
▁Bla	-10.1662
:2016	-10.1663
▁cinsi	-10.1665
▁tarihte	-10.1665
▁görme	-10.167
▁çoğunlukla	-10.1672
▁Hacı	-10.1672
:17	-10.1675
▁Company	-10.1678
▁numaralı	-10.1682
▁tamamı	-10.1683
▁ikili	-10.1693
▁klip	-10.1694
▁Sand	-10.1696
2005	-10.1701
kh	-10.1701
▁konuşma	-10.1702
▁soru	-10.1708
▁Tür	-10.171
▁Hall	-10.1711
▁Bulgar	-10.1713
sam	-10.1714
▁Gaziantep	-10.1715
▁başlamış	-10.1716
Fi	-10.1719
ER	-10.1721
▁öncü	-10.1722
▁eğitimini	-10.1723
süz	-10.1725
▁yapar	-10.1726
▁durumda	-10.173
▁öğren	-10.1732
▁adam	-10.1733
▁okudu	-10.1737
lâ	-10.1738
▁başta	-10.1739
▁Motor	-10.1744
bahar	-10.1747
kür	-10.1751
▁Doğru	-10.1753
▁doğusunda	-10.1753
▁başbakan	-10.176
▁Poli	-10.1761
şir	-10.1762
gy	-10.1764
-15	-10.1764
▁kaynakları	-10.1769
▁Antik	-10.1769
▁1933	-10.1772
г	-10.1773
▁aksiyon	-10.1774
▁kira	-10.1775
del	-10.1776
asyonu	-10.1781
▁Cer	-10.1784
▁gösterildi	-10.1786
▁kıyısında	-10.1789
▁Say	-10.1792
▁hali	-10.1794
ough	-10.1798
vri	-10.1798
▁Ömer	-10.1798
▁duvar	-10.18
kol	-10.181
▁Bununla	-10.1819
▁1.7	-10.1824
▁Cami	-10.1826
▁altına	-10.1834
Ku	-10.1836
▁Birlik	-10.1839
▁sivil	-10.1841
▁buz	-10.1843
▁Metro	-10.1844
film	-10.1847
landığı	-10.1848
▁taşındı	-10.1851
▁koru	-10.1854
▁kalın	-10.1854
▁seviye	-10.1856
▁Bankası	-10.1858
▁nehir	-10.186
sko	-10.1861
mut	-10.1862
▁yerli	-10.1863
qua	-10.1864
▁oynama	-10.1865
▁yüzey	-10.1867
yolu	-10.1869
AL	-10.1873
ring	-10.1876
AT	-10.1878
▁gücü	-10.1878
▁plak	-10.1881
▁düşünce	-10.1893
▁Arapça	-10.1898
lığına	-10.1898
▁Rob	-10.1903
▁hafif	-10.1904
▁forvet	-10.1906
▁Zh	-10.1907
ets	-10.1908
▁gökada	-10.1923
▁saray	-10.1924
▁yeşil	-10.1933
▁Kralı	-10.1935
▁İz	-10.1936
▁Bilgi	-10.194
▁çalışmaya	-10.1941
▁Kazan	-10.1946
▁İstasyon	-10.195
▁Yusuf	-10.1952
▁kapsamında	-10.1961
▁Albert	-10.1961
yl	-10.1963
▁Kale	-10.1966
▁FK	-10.1967
▁dair	-10.1967
▁Kariyer	-10.1975
▁Şiir	-10.1977
▁gerilim	-10.1977
▁çıkma	-10.1979
▁yazılı	-10.1984
▁1918	-10.1985
▁katılan	-10.1987
▁toplamda	-10.1988
MA	-10.1989
▁Il	-10.1991
▁Mahalle	-10.1991
sor	-10.1992
▁bilimsel	-10.1994
2002	-10.1996
chen	-10.1998
▁Cal	-10.2001
Gümüş	-10.2001
▁ruh	-10.2006
▁kendini	-10.201
-20	-10.2011
zon	-10.2013
▁'''12	-10.2014
Bar	-10.2014
liğine	-10.2025
п	-10.2029
ე	-10.2029
▁dönüştü	-10.2029
hra	-10.203
▁Green	-10.2033
▁ci	-10.2037
Ölümü	-10.2038
▁Anna	-10.2041
▁Hel	-10.2046
▁önde	-10.2046
▁oynayan	-10.2048
▁üyesidir	-10.2054
rac	-10.2055
▁Eserleri	-10.2056
▁sp	-10.2059
▁NBA	-10.2061
▁koyu	-10.2062
Je	-10.2063
elle	-10.2064
▁ekiplerinden	-10.2069
▁liman	-10.2069
hard	-10.2074
nos	-10.208
▁1919	-10.2082
▁Sırbistan	-10.2085
▁Out	-10.2088
▁dosya	-10.2097
▁France	-10.2099
▁Ram	-10.2107
▁şiddet	-10.2116
▁5,	-10.2118
▁köyünde	-10.2119
Ara	-10.212
We	-10.2121
▁kule	-10.2125
▁kullanarak	-10.2129
▁başladığı	-10.2133
all	-10.2135
▁istasyonu	-10.2136
iyeti	-10.2138
▁tren	-10.214
▁Blo	-10.2143
ū	-10.2145
lov	-10.2146
▁ismini	-10.2152
▁yurt	-10.2154
▁dolar	-10.2157
▁Cla	-10.216
bus	-10.2162
▁Hen	-10.2164
▁Tokyo	-10.2164
-12	-10.2167
▁türüdür	-10.217
▁yayınlanmıştır	-10.217
▁Barış	-10.2171
▁Gör	-10.2177
amp	-10.2181
▁125	-10.2183
▁Ağ	-10.2185
▁Ahmed	-10.2186
▁1934	-10.219
Ju	-10.2193
üş	-10.2202
▁hükümdar	-10.2202
▁bayrak	-10.2204
▁şekli	-10.2215
wood	-10.2218
▁Way	-10.2229
OR	-10.2236
▁başlarında	-10.2236
now	-10.2237
▁Emin	-10.2239
zel	-10.2247
▁düşman	-10.2248
▁vur	-10.2254
▁göstermektedir	-10.2256
fil	-10.226
▁Williams	-10.2261
▁Simon	-10.2262
meyen	-10.2264
▁orada	-10.2265
▁balık	-10.2267
▁Hareket	-10.2267
▁dalga	-10.2272
ugh	-10.2273
▁Yerelnet	-10.2274
▁Kul	-10.2277
▁ölümünden	-10.2279
baz	-10.2279
oksi	-10.228
▁Arka	-10.228
▁Kürt	-10.2285
▁muharebe	-10.2293
▁ayı	-10.2299
:15	-10.2301
▁Hy	-10.2303
▁görülen	-10.2303
▁Rize	-10.2304
▁kuruluşlar	-10.2304
▁Üçüncü	-10.2307
Star	-10.231
▁işletme	-10.2311
▁Voleybol	-10.2313
▁(2003)	-10.2313
▁Rey	-10.2319
▁metin	-10.2321
▁sar	-10.2322
▁Balıkesir	-10.2323
▁Ey	-10.2325
▁edebiyat	-10.2328
▁süreç	-10.233
▁Young	-10.2331
▁festival	-10.2332
▁ortam	-10.2334
oğul	-10.2335
▁AFC	-10.2335
'''),	-10.2345
▁1937	-10.2348
kra	-10.2349
▁bıraktı	-10.2352
▁koşu	-10.2354
▁opera	-10.2361
▁halka	-10.2363
▁Onur	-10.2367
heim	-10.237
▁kelimesi	-10.2376
▁Op	-10.2377
▁kıl	-10.2381
▁Saf	-10.2385
▁sav	-10.2386
▁aileden	-10.2387
▁ilişki	-10.2388
pha	-10.239
▁Çe	-10.2391
▁105	-10.2392
▁Karadeniz	-10.2392
▁İdari	-10.2393
▁artık	-10.2393
▁inşaat	-10.2394
▁Ang	-10.2399
▁hastane	-10.2399
▁çatışmalar	-10.2399
▁oluştur	-10.24
Serie	-10.2404
▁Pol	-10.2406
▁6,	-10.2406
▁aşaması	-10.2407
▁mavi	-10.2409
▁Altı	-10.241
▁Sayı	-10.2411
▁Joseph	-10.2411
▁Ven	-10.2411
Kadın	-10.2411
▁verilir	-10.2414
IS	-10.2414
▁1970'	-10.242
▁araya	-10.2425
▁aşk	-10.2429
▁yıkıl	-10.2435
▁Yay	-10.2439
▁'''14	-10.2439
2001	-10.2446
dim	-10.2451
▁'''5'''	-10.2455
▁renkli	-10.2459
fet	-10.2461
öz	-10.2461
cent	-10.2462
▁mal	-10.2464
▁adayı	-10.2466
iği	-10.2468
▁takımına	-10.2471
▁edin	-10.2472
▁tercih	-10.2473
▁Brown	-10.2473
▁bünyesinde	-10.2474
▁vermektedir	-10.2474
right	-10.2478
▁Bilgiler	-10.248
▁gerçekleşti	-10.2482
▁konuş	-10.2485
Ay	-10.2485
▁Kurumu	-10.2485
▁etmeye	-10.2489
▁hareketi	-10.2491
▁dizisinde	-10.2492
▁ısı	-10.2496
mis	-10.2499
▁aşağı	-10.2499
▁kültürel	-10.2499
▁iline	-10.2501
▁gezegen	-10.2503
▁Ün	-10.2504
▁Time	-10.2504
▁içi	-10.2507
▁etkili	-10.251
tum	-10.2512
mekte	-10.2513
▁getirildi	-10.2515
wan	-10.2516
▁vb	-10.2516
▁Tim	-10.2517
kara	-10.2521
▁ediyor	-10.2521
▁Carl	-10.2522
▁aşı	-10.2523
Özel	-10.2528
▁1-0	-10.2528
▁etnik	-10.2538
▁atletleri	-10.2538
▁kod	-10.254
▁sitesinde	-10.254
bit	-10.2542
tina	-10.2544
luğa	-10.2546
zza	-10.2552
▁Çanakkale	-10.2554
▁çevresinde	-10.2554
▁terk	-10.2554
yü	-10.2562
Har	-10.2564
▁Hav	-10.2565
▁104	-10.257
د	-10.2574
ES	-10.2584
blo	-10.2584
▁Arabistan	-10.2584
▁yönet	-10.2595
uch	-10.2598
laştırma	-10.2601
▁Viyana	-10.2605
▁gir	-10.261
▁çiçek	-10.2615
▁stadyum	-10.2615
▁takımın	-10.2623
▁Balkan	-10.2626
▁kurulması	-10.2626
▁çekildi	-10.2626
▁kanal	-10.2629
▁ölçüde	-10.2633
▁imzaladı	-10.2634
▁Karl	-10.2634
▁civarında	-10.2635
▁'''19	-10.2636
▁Gençlik	-10.2637
▁karakterleri	-10.2644
▁servis	-10.2647
▁Çar	-10.2649
▁180	-10.2651
▁Genellikle	-10.2656
İtalya	-10.2657
▁Bank	-10.2658
▁Kaynak	-10.2659
▁Kut	-10.2659
Per	-10.2662
▁Prix	-10.2663
▁inç	-10.2664
▁Part	-10.2664
▁uzaklıkta	-10.2665
▁maddesi	-10.2665
abilen	-10.2668
▁işlev	-10.267
king	-10.2672
▁tedavi	-10.2674
▁Kalesi	-10.2676
▁ticari	-10.2676
▁hesap	-10.2676
▁birlikleri	-10.2678
▁aittir	-10.268
▁1921	-10.2683
▁evli	-10.2684
▁Üst	-10.2686
▁standart	-10.2687
meli	-10.2687
▁uçağı	-10.2689
lüğünü	-10.269
▁Dor	-10.2695
!''	-10.2696
ν	-10.2697
ness	-10.2698
▁nesne	-10.2699
▁içindeki	-10.2701
▁isyan	-10.2701
mıştı	-10.2703
▁Kadro	-10.2713
▁Latin	-10.2715
▁Topluluğu	-10.2718
▁komşu	-10.2718
▁TRT	-10.2718
▁prens	-10.272
▁değişikliğinde	-10.272
▁Gor	-10.2726
2.5	-10.2729
▁açısından	-10.2729
▁rapor	-10.2734
▁Sad	-10.2738
▁kütle	-10.2739
▁girmiştir	-10.2742
▁güzel	-10.2754
▁kanat	-10.2755
▁Gold	-10.2756
Kon	-10.2758
Roma	-10.276
▁şampiyonluğu	-10.2762
lum	-10.2763
Final	-10.2764
▁Villa	-10.2765
▁Makedonya	-10.2766
▁aracılığıyla	-10.277
▁antrenör	-10.277
▁araba	-10.2771
▁duyu	-10.2775
mbo	-10.2783
▁yüksel	-10.2791
▁ligi	-10.2793
qu	-10.2796
▁inceleme	-10.2799
▁bölgeleri	-10.2799
▁demiryolu	-10.2801
▁Modern	-10.2801
▁zarar	-10.2802
▁oda	-10.2804
▁Kab	-10.2805
eng	-10.2807
▁Başarıları	-10.2808
▁Town	-10.2812
-16	-10.2814
з	-10.2822
▁(2002)	-10.2822
istler	-10.2823
▁South	-10.2826
uyor	-10.2827
▁edildiği	-10.2827
▁organ	-10.2828
▁mezunudur	-10.2834
▁takımlar	-10.2835
▁Kel	-10.2835
▁Çer	-10.284
▁seçmen	-10.2844
▁sezonunun	-10.2845
viz	-10.2849
stro	-10.2854
▁tıp	-10.2868
ía	-10.2869
▁MS	-10.2871
tıcı	-10.2871
▁anıt	-10.2874
▁(2011)	-10.2875
▁unvanı	-10.2879
▁İşçi	-10.288
▁1.9	-10.288
▁Santa	-10.2882
▁Cem	-10.2883
▁Comp	-10.2884
▁Kas	-10.2889
Tu	-10.289
▁Belediyespor	-10.2893
1961	-10.2894
Her	-10.2895
▁kuşlar	-10.2907
▁Blue	-10.2908
▁iletişim	-10.2916
Yıl	-10.2919
Wi	-10.292
▁kişiden	-10.292
▁Bağ	-10.2924
lé	-10.2928
▁yılın	-10.2928
▁Ekonomi	-10.2931
▁1-1	-10.2932
▁kuru	-10.2934
▁sekreter	-10.2937
lmuş	-10.2937
jin	-10.2937
▁banka	-10.2941
▁dram	-10.2946
▁Hil	-10.2947
▁tutul	-10.2948
▁Teknoloji	-10.2948
▁oynamıştır	-10.2949
ppe	-10.295
düğü	-10.2953
▁kullanıldı	-10.2954
ille	-10.2958
▁sözcüğü	-10.2958
▁görevine	-10.2962
▁seviyesi	-10.2962
▁1926	-10.2963
ışma	-10.2964
▁Ses	-10.2971
▁Oto	-10.2974
Tek	-10.2976
▁kalmıştır	-10.2978
▁yargı	-10.298
▁Anayasa	-10.298
▁politika	-10.2983
▁Fen	-10.2984
▁Mut	-10.2991
▁çalış	-10.2995
▁serileri	-10.3001
laması	-10.3001
▁(2010)	-10.3002
▁Yağ	-10.3004
▁dava	-10.3006
▁kupa	-10.3008
▁103	-10.3009
lot	-10.3013
▁tablosu	-10.302
1989	-10.3021
likleri	-10.3021
▁Die	-10.3022
DE	-10.3027
▁filmde	-10.3028
▁kış	-10.3029
▁yazılmış	-10.3032
▁Pictures	-10.3033
1980	-10.3039
▁1927	-10.3042
▁uydu	-10.3044
yal	-10.3048
▁Şeh	-10.3048
▁Big	-10.305
▁Premier	-10.3054
▁yaprak	-10.3054
▁ölü	-10.3055
uncu	-10.3056
▁elinde	-10.3061
▁sürüm	-10.3062
▁Koç	-10.3064
▁Almanca	-10.3065
▁asit	-10.3066
▁SC	-10.3068
▁ser	-10.3071
mmer	-10.3073
▁Cel	-10.3074
ünde	-10.3083
6'''	-10.3085
▁olası	-10.3088
▁Up	-10.3091
kas	-10.3094
▁gen	-10.3096
▁şirketin	-10.3097
▁Alex	-10.3098
▁Tren	-10.3101
▁kavram	-10.3101
▁Mont	-10.3102
▁albümünde	-10.3102
hara	-10.3106
cio	-10.3108
▁tepki	-10.3108
▁Hem	-10.3111
mos	-10.3114
gur	-10.3117
▁Kam	-10.3118
▁Cast	-10.3125
à	-10.3129
▁yarışmacıları	-10.3129
▁Mahkemesi	-10.313
▁eylem	-10.3131
üzü	-10.3132
lanarak	-10.3134
ín	-10.3137
:19.	-10.3138
▁gövde	-10.314
▁çeşit	-10.3141
▁kayded	-10.3144
▁küme	-10.3144
pin	-10.3148
▁Sarayı	-10.315
▁bazıları	-10.3151
▁hala	-10.3157
▁meyve	-10.3162
▁Manisa	-10.3162
Türkiye	-10.3162
şen	-10.3162
Söz	-10.3165
meyi	-10.3166
▁Hill	-10.317
ο	-10.3172
pon	-10.3174
lmesi	-10.3176
▁seçimler	-10.3177
▁katılım	-10.3178
▁Macar	-10.3191
▁Reg	-10.3193
▁(2001)	-10.3195
hur	-10.3195
▁fo	-10.32
▁daire	-10.3201
▁Milletvekili	-10.3205
▁Haz	-10.3206
matik	-10.3211
▁şekil	-10.3212
▁gösterim	-10.3214
▁División	-10.3216
▁Saat	-10.3218
vor	-10.3218
mara	-10.3223
1987	-10.3225
▁Sefer	-10.3226
▁dijital	-10.3227
▁Papa	-10.3229
▁sebebiyle	-10.3229
▁kamp	-10.3232
▁birisi	-10.3234
ksiyon	-10.3237
MÖ	-10.3238
▁uzunluğunda	-10.3243
▁Fab	-10.3245
▁Ele	-10.3246
▁kalp	-10.3247
▁gider	-10.3248
▁sanayi	-10.3249
mont	-10.3252
▁1922	-10.3258
▁Mehmed	-10.3259
▁Fel	-10.3266
▁bilinmeyen	-10.3271
ington	-10.3272
▁Muharebesi	-10.3274
▁karşılaşma	-10.3277
▁American	-10.3278
▁bağlıdır	-10.3281
▁1929	-10.3282
▁Sav	-10.3285
▁dev	-10.3287
İskoç	-10.3292
▁Asyalı	-10.3295
ören	-10.3304
▁etkinlik	-10.3315
▁Bugün	-10.3316
via	-10.3322
▁Chicago	-10.3325
▁açıkladı	-10.3326
▁öykü	-10.3326
▁Düş	-10.3328
▁Ölüm	-10.3334
▁yönetmenleri	-10.3335
▁BBC	-10.3336
▁ilişkiler	-10.3339
▁analiz	-10.334
▁2.1	-10.3347
RC	-10.335
▁takımlarından	-10.3351
▁Sağ	-10.3352
▁uzan	-10.3356
▁kopya	-10.3358
▁doktor	-10.336
▁alanda	-10.3362
▁Tel	-10.3362
▁250	-10.3362
▁tahta	-10.3364
▁soyu	-10.3366
▁yerleşti	-10.3371
▁Ödül	-10.3372
▁Dağları	-10.3376
Du	-10.3379
ی	-10.338
▁Kav	-10.338
:2019	-10.3384
▁Wil	-10.3386
▁varlığı	-10.3389
ital	-10.3391
lendiği	-10.3391
star	-10.3395
psi	-10.3395
▁kemer	-10.3398
▁kimya	-10.34
▁bahçe	-10.3402
▁parlak	-10.3404
▁Ermenistan	-10.3404
bot	-10.3405
My	-10.3405
▁Olay	-10.3407
masıyla	-10.3411
▁Copa	-10.3412
▁Google	-10.3413
▁Ardından	-10.3413
▁bunu	-10.3416
▁değişim	-10.3416
▁Rose	-10.3417
SD	-10.3421
▁College	-10.3424
▁iklim	-10.3425
ão	-10.3425
Şampiyon	-10.3427
▁sağlamak	-10.3427
▁Konusu	-10.3427
▁çocukları	-10.3431
▁bulunma	-10.3434
▁ilaç	-10.3434
▁masa	-10.3435
Der	-10.3436
▁esas	-10.3439
▁Gece	-10.344
▁taşıtlar	-10.3444
▁bulun	-10.3445
▁yapmaya	-10.3448
▁Arnavutluk	-10.346
▁1924	-10.3467
▁piyasa	-10.3468
▁biriydi	-10.3469
▁Yunanca	-10.3469
▁terim	-10.3472
kâr	-10.3475
▁temsilcisi	-10.348
pra	-10.3482
▁Qui	-10.3482
▁Philip	-10.3483
▁Selim	-10.3483
▁Diskografi	-10.3485
▁'''6	-10.3488
▁araçları	-10.3488
▁Ran	-10.3488
▁oynamaktadır	-10.3491
▁(1998)	-10.3492
▁sonuçlar	-10.3494
▁tüket	-10.3502
ics	-10.351
▁filozof	-10.3513
▁Sinan	-10.3516
Can	-10.3521
▁1912	-10.3524
▁sarmal	-10.3524
▁topluluk	-10.3527
▁korun	-10.3527
RA	-10.3529
▁North	-10.353
▁Kre	-10.3533
▁Atina	-10.3535
▁Berg	-10.3538
▁102	-10.3541
▁İçişleri	-10.3547
uğra	-10.3548
▁Üyeliği	-10.3553
▁Rü	-10.3565
▁elektro	-10.3568
▁İskender	-10.357
▁tuz	-10.3571
▁Cra	-10.3575
ort	-10.3575
▁Erken	-10.3576
ère	-10.3578
▁reklam	-10.3581
Farsça	-10.3582
ár	-10.3583
▁sığ	-10.3583
▁oyunculuk	-10.3584
Los	-10.3584
▁kanalları	-10.3585
▁otomobiller	-10.3585
▁maden	-10.3588
▁Michel	-10.3594
SV	-10.3595
▁yılda	-10.3602
▁Demografi	-10.3603
▁(1999)	-10.3604
▁Kaz	-10.3604
▁101	-10.3609
▁(10	-10.3612
▁Kurtuluş	-10.3615
1982	-10.3615
▁İdare	-10.3616
▁Koleji	-10.3616
▁Les	-10.3617
acağını	-10.3617
▁teklif	-10.3617
600	-10.3619
▁Jones	-10.3626
▁Buna	-10.3636
▁Siyasal	-10.3637
pol	-10.364
▁EP	-10.3641
Kaynaklar	-10.3646
sburg	-10.3647
1983	-10.3647
▁%5	-10.3649
▁çağrı	-10.3652
lio	-10.3652
▁belgesel	-10.3655
▁albümüdür	-10.3655
▁siyasetçileri	-10.3661
▁girişim	-10.3662
▁Kraliyet	-10.3662
▁Bat	-10.3663
▁kariyerini	-10.367
▁ceza	-10.3676
▁hayvanlar	-10.3677
▁Mahallesi	-10.368
gro	-10.3686
▁verme	-10.3689
▁teori	-10.369
:2018	-10.369
▁gizli	-10.3694
▁tanınmış	-10.3696
▁1932	-10.3698
▁yazılmıştır	-10.3699
4'''	-10.3703
▁çar	-10.3705
▁verilme	-10.3708
:2008	-10.3709
▁Cri	-10.3715
▁kurma	-10.372
▁Antlaşması	-10.3728
▁Nik	-10.3729
PG	-10.3732
▁128	-10.3734
1971	-10.3736
▁geçmiştir	-10.3738
▁Uğur	-10.374
▁Çalışma	-10.3746
▁hakem	-10.3748
ž	-10.3751
▁'''13	-10.3753
▁Edi	-10.3754
▁atlet	-10.3756
▁erkekler	-10.3758
▁Program	-10.3758
▁Güvenlik	-10.376
şar	-10.376
ι	-10.3763
▁School	-10.3763
▁klibi	-10.3763
stik	-10.3765
▁Nobel	-10.377
▁Arjantin	-10.3773
▁tanıtılan	-10.3774
▁albümün	-10.3775
▁cephe	-10.3776
Baş	-10.3776
▁sonlarında	-10.3776
phe	-10.3779
▁Sanatlar	-10.3779
▁Joe	-10.3782
▁gerekli	-10.3789
▁hız	-10.379
▁ölümüne	-10.3792
▁sayfa	-10.3792
▁neredeyse	-10.3797
▁House	-10.3798
Büyük	-10.3798
▁erdi	-10.3798
▁State	-10.3799
▁sabit	-10.38
Car	-10.3804
▁(12	-10.3807
▁August	-10.3809
▁anı	-10.381
▁Etap	-10.3812
sso	-10.3813
▁anti	-10.3824
▁ağırlığı	-10.3825
▁Len	-10.3826
▁kenar	-10.3827
Kur	-10.3829
▁Anavatan	-10.3832
▁barış	-10.3832
dığını	-10.3838
▁Ege	-10.3841
▁evre	-10.3841
muz	-10.3842
▁oyunlar	-10.3842
▁editör	-10.3844
▁(2000)	-10.3844
▁zamanlar	-10.3848
▁1960'	-10.3849
▁Orman	-10.3852
▁'''7'''	-10.3852
▁özellikler	-10.3854
å	-10.3855
▁Sanayi	-10.3856
▁asıl	-10.3858
▁projesi	-10.3864
▁kaydetti	-10.3867
-11	-10.3869
Eski	-10.3871
▁yasak	-10.3875
▁Hayat	-10.3875
▁América	-10.3878
▁2-1	-10.3879
▁seslendirme	-10.388
▁***	-10.3886
▁Ödüller	-10.389
▁seyahat	-10.389
▁Bolu	-10.3891
▁Erdoğan	-10.3892
▁Soy	-10.3894
▁şart	-10.3896
▁sert	-10.3903
▁Tele	-10.3904
▁Harp	-10.3906
▁almak	-10.3908
▁Beş	-10.3909
Tarih	-10.3909
▁askerleri	-10.391
▁birbirleri	-10.3913
▁ülkelerin	-10.3914
▁Aile	-10.3915
cısı	-10.3921
▁1923	-10.3924
▁kanıt	-10.3927
▁Komutanlığı	-10.3928
Con	-10.393
▁getiril	-10.3933
▁darbe	-10.3937
lemiştir	-10.394
Em	-10.3945
▁Abdullah	-10.3948
▁deprem	-10.3949
MS	-10.395
▁ob	-10.3951
▁kullanır	-10.3957
▁müzisyenler	-10.396
▁antlaşma	-10.396
▁Önce	-10.3961
Hal	-10.3964
2018	-10.3965
▁Dört	-10.3966
▁Sir	-10.3969
▁senaryo	-10.3971
▁Edirne	-10.3972
▁adım	-10.3974
▁Comm	-10.3975
▁yakınlarında	-10.3978
▁ırk	-10.3985
cular	-10.3986
Za	-10.3993
▁bölümler	-10.3997
1985	-10.3997
▁tank	-10.3998
▁Mimar	-10.4
▁kişidir	-10.4001
▁romantik	-10.4001
▁yaparak	-10.4001
▁kutusu	-10.4002
▁karşılaş	-10.4004
▁Yok	-10.4006
TR	-10.401
▁komuta	-10.401
▁hisse	-10.4015
▁bulma	-10.4016
▁not	-10.4017
wen	-10.4019
vit	-10.402
▁cinsel	-10.4026
▁$	-10.403
▁müziğini	-10.4031
▁üstlendi	-10.4034
hisar	-10.4038
▁giymektedir	-10.4042
▁gitme	-10.4049
▁5-	-10.4054
س	-10.4054
▁tarafta	-10.4055
▁Tokat	-10.406
▁marka	-10.406
▁Bakü	-10.4061
PA	-10.4061
IN	-10.4062
▁Kazakistan	-10.4066
▁faaliyetleri	-10.4067
▁Çorum	-10.4068
▁Maçlar	-10.4069
▁115	-10.4073
▁Koca	-10.4074
▁Vali	-10.4075
▁Francisco	-10.4079
▁tarihlerinde	-10.4079
▁Yasa	-10.4083
▁Land	-10.4088
▁hiç	-10.4088
▁Yardımcısı	-10.4089
▁katılmıştır	-10.4094
rop	-10.4099
▁günümüze	-10.4103
▁(2012)	-10.4103
▁White	-10.4103
▁Group	-10.4103
▁cilt	-10.4104
▁Char	-10.4104
çiler	-10.4108
hem	-10.4111
▁Emir	-10.4113
bank	-10.4114
▁söyledi	-10.4115
▁beşinci	-10.4115
▁müsabakaları	-10.4117
2017	-10.4118
▁Elazığ	-10.4119
▁Scott	-10.4127
▁Giresun	-10.4137
▁güvenlik	-10.4139
Ça	-10.4143
▁kadro	-10.4145
▁'''15	-10.4145
ktadır	-10.4146
▁bilimkurgu	-10.4149
▁Bahçe	-10.4151
▁'''5	-10.4156
hil	-10.4162
uğu	-10.4164
Don	-10.4165
▁Your	-10.4168
1972	-10.4169
▁terimi	-10.4175
▁bölümünü	-10.4176
onya	-10.4178
▁kenti	-10.418
▁tutuk	-10.4181
▁Model	-10.4183
▁Fizik	-10.4185
▁şimdi	-10.4185
▁platform	-10.4188
kçe	-10.419
ñ	-10.4192
▁taşıma	-10.4193
▁Haber	-10.4196
▁Turu	-10.42
▁Kum	-10.4205
▁1916	-10.4207
▁Kütahya	-10.4209
▁tehlike	-10.4209
▁Milliyetçi	-10.4211
▁ödülünü	-10.4213
IV	-10.4219
▁değeri	-10.422
▁boya	-10.4221
▁dağı	-10.4223
▁con	-10.423
▁Ortodoks	-10.4233
▁general	-10.4233
▁maçına	-10.4233
Sta	-10.4236
▁belli	-10.4239
bru	-10.424
▁almaya	-10.424
▁meslek	-10.4245
▁sağladı	-10.4247
▁Böylece	-10.4257
rich	-10.4258
▁süs	-10.4259
▁Müze	-10.4265
▁Karakter	-10.4269
▁2.2	-10.4273
▁Dam	-10.4274
▁ben	-10.4278
▁milyar	-10.4281
▁sanatçılar	-10.4281
▁Günü	-10.4283
▁giden	-10.4283
fen	-10.4286
Not	-10.4288
▁aziz	-10.4291
»	-10.4293
▁kıta	-10.4295
▁kontrolü	-10.4295
▁1917	-10.4297
▁olacak	-10.4302
▁aktar	-10.431
▁edebiyatı	-10.4312
▁Sıralama	-10.4318
▁isimleri	-10.4323
▁FA	-10.4325
▁Kazanan	-10.4325
Mer	-10.4325
▁eren	-10.4326
▁1914	-10.4326
dom	-10.4326
üğü	-10.4328
▁au	-10.4328
▁iktidar	-10.4329
▁CHP	-10.4329
▁bomba	-10.4331
▁yönü	-10.4332
▁hayatına	-10.4333
▁Eric	-10.4335
stri	-10.4338
rick	-10.4339
▁Edward	-10.4342
▁Madalyası	-10.4343
▁yarar	-10.4348
dıkları	-10.4357
▁bulunmayan	-10.4358
▁Beni	-10.4361
mesine	-10.4362
▁pas	-10.4364
▁ilinde	-10.4365
▁vol	-10.4366
▁kaybeden	-10.4366
▁açtı	-10.4368
▁birleşti	-10.4375
▁AB	-10.4377
▁Brezilyalı	-10.4377
▁Hastanesi	-10.4378
▁yöre	-10.4378
ED	-10.4379
▁nişan	-10.4379
▁sahipti	-10.4383
▁Nec	-10.4389
▁Polis	-10.4393
▁adlandırılan	-10.4403
1978	-10.441
▁süper	-10.4415
▁zafer	-10.4415
▁tema	-10.4416
üp	-10.4421
gio	-10.4424
luğunu	-10.4425
▁teslim	-10.4427
▁kilo	-10.4427
▁Miss	-10.4428
▁olayları	-10.4429
ator	-10.443
stre	-10.4432
▁ailenin	-10.4432
▁yüzden	-10.4438
▁efsane	-10.4439
▁tasvir	-10.4439
▁Birçok	-10.4439
▁personel	-10.4439
▁Palm	-10.444
sunu	-10.4443
▁tasarımı	-10.4451
cin	-10.4454
▁#"	-10.4458
▁.4	-10.4461
▁yayım	-10.4461
▁Serbest	-10.4464
▁etkinliği	-10.4465
▁Anton	-10.4471
ρ	-10.4476
▁mahkeme	-10.4476
AD	-10.4477
▁140	-10.448
▁biçim	-10.4481
ries	-10.4488
▁toplantı	-10.4488
:2010	-10.4489
AF	-10.4492
▁Post	-10.4495
▁1915	-10.4496
▁Afrikan	-10.4496
▁içerik	-10.4499
▁finans	-10.4501
sing	-10.4503
▁ip	-10.4508
▁7,	-10.4508
▁firması	-10.4509
▁cisimler	-10.4513
▁Opera	-10.452
▁isimler	-10.4521
time	-10.4525
▁Official	-10.4525
▁shift	-10.4526
▁2''	-10.4526
▁website	-10.4529
▁sezonun	-10.4532
▁amaçlı	-10.4535
▁kısım	-10.4536
▁Yozgat	-10.4538
size	-10.4538
1979	-10.4538
▁tatlı	-10.4539
oid	-10.4541
▁font	-10.4542
▁gemisi	-10.4544
atör	-10.4545
▁oldukları	-10.4548
▁Pin	-10.4548
▁History	-10.455
▁Ross	-10.4551
TP	-10.4554
на	-10.4555
▁Qua	-10.4556
▁Fan	-10.4558
▁kazı	-10.4558
US	-10.4559
▁Alexander	-10.4563
▁tanıtım	-10.4564
Askerî	-10.4568
▁tarafında	-10.4571
lemesi	-10.4571
▁ölen	-10.4571
Tur	-10.4572
öğretim	-10.4573
_	-10.4575
ood	-10.4578
▁grubunun	-10.4583
▁Wor	-10.4583
kale	-10.4586
▁Kamu	-10.4587
▁halkı	-10.4592
▁öğrenciler	-10.4593
▁mekan	-10.4596
▁Mahallenin	-10.4596
▁önünde	-10.4597
▁ürün	-10.4598
cz	-10.4599
▁zirve	-10.46
vik	-10.4603
▁idam	-10.4604
я	-10.4605
▁anlamı	-10.4606
▁Lev	-10.4607
Kö	-10.4607
▁çalı	-10.4608
▁okuma	-10.4609
slav	-10.461
▁çünkü	-10.4612
▁Oğuz	-10.4613
8'''	-10.4614
▁%0,1	-10.4622
lıyor	-10.4623
▁Band	-10.4625
▁Manchester	-10.4625
Ber	-10.4629
▁çevresi	-10.4631
▁Um	-10.4632
▁arkadaşları	-10.4637
▁henüz	-10.465
▁katıldığı	-10.465
▁Chart	-10.4653
–20	-10.4656
▁3-0	-10.4657
▁AS	-10.4658
Hu	-10.4666
part	-10.4667
▁anne	-10.4674
▁amaç	-10.4676
▁(1997)	-10.4676
▁Royal	-10.4679
▁felsefe	-10.4683
ions	-10.4687
▁Metin	-10.4688
oyun	-10.4688
▁olduktan	-10.4688
ов	-10.4689
▁Kırım	-10.4693
▁basın	-10.4696
Bilgi	-10.4699
▁Cy	-10.47
▁aşama	-10.47
▁sunul	-10.4701
▁karısı	-10.4704
▁İmparator	-10.4706
▁aktör	-10.4709
▁görüldü	-10.4713
vey	-10.4722
▁kapan	-10.4723
τ	-10.4726
▁aktivist	-10.4726
▁Malatya	-10.4726
▁Litvanya	-10.4726
▁Başrol	-10.4726
phy	-10.4727
▁forması	-10.4728
▁Tatar	-10.473
▁buldu	-10.4732
▁Yerel	-10.4736
▁kurtul	-10.4741
yüz	-10.4747
▁Sky	-10.4749
▁rütbesi	-10.4751
▁yöne	-10.4751
▁Tasarım	-10.4751
ique	-10.4751
▁Doğum	-10.4753
▁Nikola	-10.4754
Com	-10.4756
▁Kri	-10.4756
▁Nar	-10.4759
▁kişisel	-10.4759
▁basit	-10.476
giller	-10.4761
▁geçerli	-10.4762
▁(2013)	-10.4764
▁mikro	-10.4766
▁Şahin	-10.4767
baba	-10.4771
tura	-10.4771
▁mağara	-10.4776
▁tanınan	-10.4779
▁arada	-10.4787
▁Hanım	-10.4788
▁bakış	-10.4796
▁baraj	-10.4808
▁'''17	-10.481
view	-10.4811
trik	-10.4813
▁sembol	-10.4814
▁Street	-10.4814
▁yaşamaktadır	-10.4815
▁bakım	-10.4824
▁Home	-10.4825
▁operasyon	-10.4829
▁saf	-10.4832
pro	-10.4834
▁Kars	-10.4837
EL	-10.4837
▁'''8'''	-10.4838
▁yavaş	-10.484
▁Pir	-10.4841
▁cins	-10.4843
▁etrafında	-10.4843
7'''	-10.4844
▁Kitabı	-10.4853
▁Jen	-10.4858
▁yüzü	-10.4859
▁Bull	-10.4861
cılığı	-10.4862
▁yetiş	-10.4865
▁Barcelona	-10.4866
▁kabile	-10.4866
▁Emre	-10.4867
▁numaraya	-10.4869
eğin	-10.4869
▁öldürüldü	-10.487
lenerek	-10.487
▁babasının	-10.4874
▁insanların	-10.4874
1963	-10.4877
▁gerçekleşen	-10.4879
▁Dön	-10.488
▁alınmıştır	-10.4884
▁Gümüş	-10.4889
▁gelme	-10.4891
▁'''9'''	-10.4894
▁memur	-10.49
▁Zu	-10.4903
▁işletim	-10.4904
▁geçme	-10.4906
acaktır	-10.4907
▁tez	-10.491
▁yönetilen	-10.4914
▁trans	-10.4914
not	-10.4916
▁ailesinin	-10.4916
▁yörünge	-10.4917
▁kolu	-10.4917
▁hekim	-10.4917
Japan	-10.492
▁olduğundan	-10.4925
▁merkezinde	-10.493
▁çatışma	-10.4934
▁edil	-10.4936
▁Pala	-10.4937
▁kitaplar	-10.4941
?''	-10.4951
▁160	-10.4953
▁Aslan	-10.4953
▁keşfedilmiştir	-10.4956
▁Ceza	-10.4956
▁şeker	-10.4956
trop	-10.4957
▁Hükûmeti	-10.4963
▁2010-11	-10.4963
amaz	-10.497
▁seçilen	-10.4972
▁bağlandı	-10.4976
All	-10.4977
Ferrari	-10.4983
hel	-10.4989
▁girme	-10.4991
▁Leon	-10.4994
Çıkış	-10.5002
▁Öl	-10.5005
▁nasıl	-10.5008
pel	-10.5009
▁markası	-10.501
▁çoğunluğu	-10.5011
JPG	-10.5011
▁getirdi	-10.5019
▁Dol	-10.5032
▁1931	-10.5033
▁Nokia	-10.5034
▁Ölümü	-10.5035
itz	-10.5041
▁kuruluş	-10.5042
stad	-10.5044
▁Cezayir	-10.5047
▁Bisiklet	-10.5047
Ulusal	-10.505
▁deneme	-10.5051
ktedir	-10.5052
Liga	-10.5053
▁Altay	-10.5053
▁1950'	-10.5054
▁Kanadalı	-10.5055
-21	-10.5059
▁molekül	-10.506
▁sözcük	-10.506
inger	-10.5062
▁Old	-10.5063
▁sonu	-10.5065
▁Yazı	-10.5066
▁örneği	-10.5067
enko	-10.5067
▁por	-10.5069
▁Şanlıurfa	-10.5073
▁TCDD	-10.5073
▁organizasyon	-10.5073
▁çıkardı	-10.5073
▁Rap	-10.5074
▁Dia	-10.5077
İstanbul	-10.5077
▁açıldı	-10.5078
:2017	-10.5079
▁kullandığı	-10.5083
▁Dom	-10.5091
▁Okyanusu	-10.5092
LA	-10.5095
:2004	-10.5101
▁kimyasal	-10.5102
▁hızı	-10.511
▁(1996)	-10.5112
▁girişi	-10.5118
▁135	-10.5119
▁Biyografi	-10.5125
▁doktora	-10.5134
▁romanlar	-10.5134
ă	-10.5138
▁götür	-10.5138
▁sözleri	-10.5138
▁sürüldü	-10.5139
▁Drama	-10.5141
▁benzeri	-10.5145
You	-10.5148
▁Özerk	-10.5152
▁elektronik	-10.5153
ball	-10.5157
▁Mike	-10.5157
jer	-10.5159
▁ortasında	-10.5162
▁HD	-10.5163
▁sorunları	-10.5164
▁Moğol	-10.5164
▁ayrılmıştır	-10.5166
ullah	-10.5168
▁uzunluğu	-10.5168
▁performansı	-10.5169
▁Toprak	-10.517
▁dilinde	-10.5175
▁maddeler	-10.518
▁çıktığı	-10.518
▁Rod	-10.5182
▁kuruluşları	-10.5185
Rusça	-10.5191
▁gelebilir	-10.5191
kop	-10.5192
▁finalist	-10.5199
▁sıralaması	-10.5202
dikleri	-10.5204
▁firma	-10.5212
iana	-10.5213
▁arttı	-10.5214
Mon	-10.5214
Gerçek	-10.5214
▁Who	-10.5214
▁çay	-10.5217
ч	-10.5218
uzu	-10.5218
veya	-10.5223
▁kıs	-10.5228
▁Yerleşim	-10.5231
pper	-10.5232
▁Kong	-10.5236
Love	-10.5237
▁karakterini	-10.5237
▁River	-10.5245
▁hayal	-10.525
ving	-10.5251
John	-10.5251
▁sıcak	-10.5251
▁disk	-10.5252
▁İsa	-10.5253
▁unvanını	-10.5257
А	-10.5257
▁parlamento	-10.5257
▁şöyle	-10.5257
▁dayanan	-10.5258
▁Center	-10.5258
▁Efe	-10.526
▁108	-10.5262
▁siyasetçidir	-10.5262
▁2011-12	-10.5266
▁yukarı	-10.5271
▁Holding	-10.5272
▁akış	-10.5273
▁aş	-10.5274
▁paket	-10.5275
▁2-0	-10.5276
Hersek	-10.5278
▁görülmektedir	-10.5284
▁Hırvatistan	-10.5285
▁FW	-10.5286
shire	-10.5286
▁hakim	-10.5289
Sovyet	-10.5292
▁Steve	-10.5295
▁Profili	-10.5298
▁Beşinci	-10.5298
▁geçici	-10.5302
▁bahsed	-10.5311
▁gelecek	-10.5312
▁Artvin	-10.5313
1992	-10.5316
▁nedeni	-10.5316
▁Yugoslavya	-10.5318
▁'''10'''	-10.5318
▁önem	-10.5323
▁hizmeti	-10.5324
▁yaşanan	-10.5325
▁oto	-10.5325
▁tören	-10.533
▁Cru	-10.5332
▁vatandaş	-10.5333
▁José	-10.5338
önü	-10.534
▁uyarlanan	-10.534
▁Song	-10.5342
▁Parça	-10.5347
▁LGBT	-10.5348
▁müzikal	-10.5351
:2022	-10.5353
▁tesis	-10.5355
light	-10.5358
more	-10.5365
▁Devrimi	-10.5365
▁Cur	-10.537
▁dağıtım	-10.5371
laşım	-10.5372
▁Zey	-10.5372
▁1913	-10.5374
▁Book	-10.5379
▁papa	-10.5379
▁Long	-10.538
▁Federal	-10.5392
▁vermek	-10.54
▁Denizli	-10.5403
▁Polonyalı	-10.5403
▁belediyeleri	-10.5409
▁yakınında	-10.5413
▁harita	-10.5413
▁dayalı	-10.5414
▁Erzincan	-10.5419
▁bölgenin	-10.542
▁Kocaeli	-10.542
dük	-10.5431
200	-10.5432
▁güneş	-10.5434
▁2.5	-10.5436
▁rengi	-10.5436
▁tabi	-10.5437
▁başarısı	-10.5438
▁Dere	-10.544
▁geçirdiği	-10.5442
▁play	-10.5444
▁.3	-10.5449
▁nehri	-10.545
▁boyu	-10.5453
▁aksine	-10.5454
▁güçleri	-10.5456
▁Flor	-10.5458
▁metro	-10.5467
NE	-10.547
▁öneri	-10.547
▁düzenli	-10.547
▁Yılı	-10.5471
lmaktadır	-10.5471
ilebilir	-10.5472
К	-10.5473
▁2.3	-10.5473
▁Bayram	-10.5476
▁giyen	-10.5477
▁baba	-10.5478
▁böylece	-10.5479
▁kendine	-10.5482
▁komün	-10.5483
▁temiz	-10.5487
ruk	-10.549
▁Award	-10.5492
▁gazetesi	-10.5494
▁Jersey	-10.55
ON	-10.5508
2023	-10.5512
▁mili	-10.5512
EN	-10.5516
▁God	-10.5516
Kanat	-10.5519
▁109	-10.552
sever	-10.5527
▁tanınır	-10.5528
ciliği	-10.5528
özü	-10.5529
▁Dream	-10.5529
:2015	-10.5532
▁ülkelerde	-10.5535
▁Bob	-10.5535
▁kısmında	-10.5536
1998	-10.5536
▁büyükelçi	-10.5538
-13	-10.554
▁Society	-10.5541
▁Pakistan	-10.5541
Geçersiz	-10.5541
▁parçaları	-10.5545
▁tüy	-10.5547
▁solo	-10.555
▁başı	-10.5553
▁Championship	-10.5555
▁duygu	-10.5555
▁arama	-10.5556
▁sanatı	-10.5557
İl	-10.5558
▁Parlamentosu	-10.556
Aşk	-10.5568
▁yumurta	-10.5569
▁Christian	-10.5569
▁Güven	-10.5573
▁yöntemi	-10.5577
▁Ever	-10.558
şit	-10.5582
▁tabanlı	-10.5583
▁ihti	-10.5583
:2014	-10.5584
▁davranış	-10.5591
DP	-10.5594
▁dünyada	-10.5596
▁Bundesliga	-10.5596
▁(13	-10.5597
▁Askeri	-10.5599
▁Örgütü	-10.5601
rerek	-10.5607
▁Bou	-10.5617
▁yaşamış	-10.5623
▁sürgün	-10.5626
▁Nick	-10.5633
▁Emil	-10.5633
▁benim	-10.5635
1973	-10.5638
▁doğmuştur	-10.5638
▁Kimya	-10.5639
▁Rou	-10.564
lamış	-10.5641
▁yaşar	-10.5651
▁Kahraman	-10.5652
Ru	-10.5654
1977	-10.5655
Super	-10.5655
▁Yarış	-10.5658
▁Üye	-10.5661
▁Chu	-10.5662
poli	-10.5664
▁175	-10.5667
-01	-10.5669
▁parçasıdır	-10.567
▁altındaki	-10.567
▁'''18	-10.567
▁biçimde	-10.5671
▁hizmetleri	-10.5672
▁kesim	-10.5676
▁«	-10.5683
▁vergi	-10.5683
▁Ob	-10.5684
pur	-10.5692
▁başardı	-10.5694
▁3.0	-10.5694
ст	-10.5695
▁Fas	-10.5696
▁demir	-10.5696
▁Matt	-10.57
▁bölgelerinde	-10.5702
Yer	-10.5703
▁politikacı	-10.5704
▁Şam	-10.5706
▁albümünü	-10.5706
▁Sınıf	-10.5707
▁1908	-10.5708
▁bilgileri	-10.5711
▁formasını	-10.5711
▁Boston	-10.5715
▁diya	-10.5716
▁şehirde	-10.5719
▁Takımı	-10.572
▁Venedik	-10.5721
▁Year	-10.5728
▁%2	-10.5733
▁London	-10.5735
▁sıvı	-10.5735
▁Çelik	-10.5735
▁grafik	-10.5738
ová	-10.5741
▁topluluğu	-10.5743
▁107	-10.5749
▁sayılabilir	-10.5749
▁É	-10.5752
ping	-10.5754
▁aşırı	-10.5755
1975	-10.5755
▁Engin	-10.5763
▁Koz	-10.5764
▁drama	-10.5764
▁askerler	-10.5767
▁Meslek	-10.5768
▁görünümü	-10.5771
▁düştü	-10.5771
▁Atlet	-10.5773
▁rekor	-10.5773
▁problem	-10.5777
▁yetenek	-10.5791
▁Tunus	-10.5792
▁Kendi	-10.5796
▁(14	-10.5798
geç	-10.5799
1956	-10.58
▁defans	-10.5808
Yunan	-10.5812
▁145	-10.5813
Rusya	-10.5819
▁gerekir	-10.5819
▁Köyü	-10.5824
▁Sonraki	-10.5825
▁albümde	-10.5828
ğinde	-10.5829
▁evlilik	-10.5833
▁Camp	-10.5834
▁akademisyen	-10.5834
▁kurgusal	-10.5835
▁öldürül	-10.5839
▁Good	-10.584
RI	-10.5843
▁114	-10.5846
▁(1995)	-10.5848
▁deneyim	-10.5848
▁zamanında	-10.5854
▁görünüm	-10.5854
▁High	-10.5859
▁sayfalar	-10.586
▁Lewis	-10.5862
▁vadi	-10.5863
▁Yaşam	-10.5866
ан	-10.5866
▁hızla	-10.5869
▁dergiler	-10.5871
▁diplomat	-10.5874
▁mimari	-10.588
▁Fro	-10.5882
▁Aşağı	-10.5885
▁öğrencisi	-10.5885
▁hatta	-10.5885
1951	-10.5885
▁süt	-10.5889
este	-10.5896
▁yazılımları	-10.5898
▁halklardan	-10.5898
▁Eser	-10.5899
▁Maz	-10.59
▁cezası	-10.5901
▁krizi	-10.5905
:2000	-10.5908
▁galaksidir	-10.5908
▁Yine	-10.5909
▁Tarım	-10.591
▁(11	-10.591
Ye	-10.5914
▁Wood	-10.5924
▁ilişkin	-10.5931
▁Halil	-10.5931
TÜ	-10.5933
Doğu	-10.5935
▁Ari	-10.5936
▁varlık	-10.5939
-14	-10.5942
▁Şili	-10.5942
▁Yüksel	-10.5947
▁Kraliçe	-10.5947
▁(2015)	-10.5948
▁BM	-10.5949
▁Mira	-10.5949
war	-10.595
▁yetkili	-10.5958
▁Öğretmen	-10.5961
▁çözüm	-10.5962
▁2.4	-10.5964
vre	-10.5968
IC	-10.5976
▁Hizmet	-10.5976
▁Kit	-10.5984
▁savaşı	-10.5987
▁kullanılarak	-10.599
▁kütüphane	-10.599
▁YouTube	-10.599
▁rakibi	-10.599
▁(%	-10.5991
▁Mr	-10.5995
▁şarkının	-10.5997
▁Kilise	-10.5997
▁versiyon	-10.5998
▁usta	-10.6002
▁Yıldırım	-10.6004
▁Çiçek	-10.6004
▁kullanılabilir	-10.6005
▁figür	-10.6005
▁çaba	-10.6005
:2006	-10.6008
▁112	-10.601
▁çekti	-10.6016
▁alması	-10.6019
▁Hollandalı	-10.602
▁muhtemelen	-10.6021
▁Anıt	-10.6022
mekteydi	-10.6026
▁dersleri	-10.6028
Mil	-10.603
▁Taylor	-10.6033
▁cep	-10.6034
▁gelişi	-10.6034
vent	-10.6037
tım	-10.6037
ional	-10.6046
âr	-10.6046
▁serisinin	-10.6048
▁çıkardığı	-10.6054
▁Arena	-10.6054
▁Fire	-10.6057
▁turizm	-10.6058
▁Listeler	-10.6059
▁Uzay	-10.6063
▁istasyonları	-10.6066
▁kasabası	-10.6069
▁sap	-10.607
▁Island	-10.607
boy	-10.6071
▁+2	-10.6072
▁birisidir	-10.6073
▁Bülent	-10.6076
▁Sakarya	-10.6076
diğini	-10.6078
▁başkanlık	-10.6081
ojen	-10.6082
▁ajan	-10.6082
▁3-1	-10.6082
Genel	-10.6083
▁Carlos	-10.6087
▁af	-10.6088
▁cam	-10.609
▁dönme	-10.6091
▁arşiv	-10.6091
▁kaynaklar	-10.6094
▁azalt	-10.6096
▁anlamlara	-10.6097
▁finaller	-10.6098
Teknik	-10.6099
▁toplama	-10.6102
▁gösterdi	-10.6103
▁'''10	-10.6106
▁Hong	-10.6106
mond	-10.6108
▁kalite	-10.611
▁tanımlanan	-10.6111
▁AK	-10.6119
▁manastır	-10.612
▁Android	-10.612
▁106	-10.6122
ander	-10.6136
list	-10.6136
▁Çayı	-10.6139
▁isten	-10.6155
▁kişileri	-10.616
▁Silahlı	-10.616
Die	-10.6161
▁(3)	-10.6161
▁Afganistan	-10.6163
რ	-10.6163
▁İşletme	-10.6163
▁Uni	-10.6164
gay	-10.6164
▁Inc	-10.6166
▁onları	-10.6168
eau	-10.6171
▁finale	-10.618
▁Mun	-10.6186
▁Okul	-10.6187
hol	-10.6187
▁Lau	-10.6193
▁anlaşıl	-10.6193
▁Album	-10.6193
▁170	-10.6196
▁Heart	-10.6199
chan	-10.6199
▁diller	-10.62
:1992	-10.6207
▁çaplı	-10.6208
less	-10.6208
1959	-10.6212
Film	-10.6217
▁Çö	-10.6219
▁başlangıcı	-10.6222
▁(2014)	-10.6223
▁Saray	-10.6228
demir	-10.6229
▁görevinden	-10.6235
1969	-10.6239
▁Ayşe	-10.6241
Ser	-10.6242
▁indirme	-10.6242
▁Team	-10.6248
▁Körfezi	-10.6251
–0	-10.6253
Ze	-10.6255
▁sayımında	-10.626
gazi	-10.6262
▁Jon	-10.6264
▁idare	-10.6264
▁°	-10.6265
▁Disney	-10.6266
▁çekilen	-10.627
▁Bad	-10.6271
▁Tony	-10.6276
▁Sara	-10.6277
▁'''20	-10.628
▁Senaryo	-10.6281
▁zincir	-10.6281
▁Güç	-10.6281
▁motoru	-10.6282
▁açılış	-10.6282
▁İçin	-10.6283
▁Dun	-10.6283
▁dile	-10.6284
▁Jim	-10.6286
▁116	-10.6286
▁111	-10.6287
▁tri	-10.6288
▁sonuna	-10.6295
▁başkent	-10.6296
▁yapılması	-10.6297
komutan	-10.63
▁Hakan	-10.6304
▁Que	-10.6305
▁seçimi	-10.6305
1964	-10.6305
▁Yedi	-10.631
▁Fotoğraf	-10.631
▁Çeşitli	-10.631
▁senesinde	-10.6312
▁Pers	-10.6314
IM	-10.6314
▁Prince	-10.6316
▁bisiklet	-10.6316
▁Yama	-10.6318
▁mini	-10.632
ruz	-10.6321
1901	-10.6327
▁Harris	-10.6327
able	-10.6328
▁Game	-10.6332
mesiyle	-10.6335
▁sezonları	-10.6336
▁İlçesi	-10.6339
aux	-10.634
ра	-10.6341
▁bugünkü	-10.6342
ense	-10.6345
▁Juan	-10.6352
▁başarısız	-10.6352
▁Kılıç	-10.6355
▁Cephesi	-10.6355
▁Antonio	-10.6356
Off	-10.6359
▁Andrew	-10.6364
1946	-10.6365
▁Düzen	-10.6365
Ab	-10.6371
ance	-10.638
▁pul	-10.6382
▁gelişmiş	-10.6385
▁Single	-10.6385
▁istatistikleri	-10.6387
▁Şehri	-10.6388
▁karşılık	-10.639
▁yaşamını	-10.639
2019	-10.6391
çam	-10.6392
▁Ailesi	-10.6393
▁okulun	-10.6398
▁yanlış	-10.64
▁aslında	-10.64
▁biraz	-10.6401
▁Stefan	-10.6402
▁Mühendisliği	-10.6403
yorum	-10.6406
▁Story	-10.6407
mişti	-10.6409
▁aralarında	-10.6411
́	-10.6414
▁kalıntıları	-10.6415
▁117	-10.6417
▁Akça	-10.6424
▁Pierre	-10.6427
▁CONCACAF	-10.6429
▁Wei	-10.6436
sper	-10.6439
▁sıcaklık	-10.6439
▁2009-10	-10.6442
Video	-10.6442
▁Demokrasi	-10.6444
▁protein	-10.6446
▁:''	-10.6446
▁kapalı	-10.6446
batı	-10.6447
▁haritası	-10.6451
▁Sayısı	-10.6458
▁Türkmen	-10.6458
▁ال	-10.646
▁ayrılır	-10.6461
▁hit	-10.6461
▁ilişkili	-10.6462
▁Ateş	-10.6466
▁East	-10.6468
▁töreni	-10.6469
▁poli	-10.6474
▁Turnuva	-10.6474
▁cinayet	-10.6475
▁layık	-10.6475
▁Peru	-10.6475
▁bitkiler	-10.6477
▁Fox	-10.6487
▁tarz	-10.6492
▁fiziksel	-10.6493
Pol	-10.6496
▁sektörü	-10.6497
▁listesine	-10.6501
▁saç	-10.6501
▁Münih	-10.6505
▁Ash	-10.651
▁matematik	-10.6514
onia	-10.6519
▁oluşuyordu	-10.652
▁Caddesi	-10.652
▁Yukarı	-10.652
▁Azeri	-10.652
▁yirmi	-10.652
▁araştırmalar	-10.6523
▁elemeleri	-10.6524
▁‘	-10.6524
▁modeller	-10.6527
▁Turizm	-10.6531
▁arkeolojik	-10.6533
Gürcüce	-10.6534
▁Devrim	-10.6535
Ver	-10.6538
▁yetki	-10.654
▁görevlisi	-10.654
▁anayasa	-10.654
▁Bayrak	-10.6541
▁Masa	-10.6543
▁esir	-10.6544
▁adası	-10.6549
Sha	-10.6549
şek	-10.6552
▁ima	-10.6552
▁Ağır	-10.6559
▁Arnavut	-10.6562
▁sokak	-10.6565
▁maça	-10.6569
▁üstlendiği	-10.6572
▁röportaj	-10.658
▁Yavuz	-10.658
▁bağış	-10.6582
▁Amatör	-10.6584
▁pu	-10.6587
▁gelmiş	-10.6596
▁Abdül	-10.6596
▁idaresi	-10.6598
▁taksonlar	-10.6599
▁Monte	-10.66
Antik	-10.6608
▁işgali	-10.6609
▁davet	-10.6611
▁113	-10.6611
▁zayıf	-10.6611
▁fakülte	-10.6611
▁%0	-10.6613
▁Yaşar	-10.6613
▁kemik	-10.6613
▁132	-10.6613
▁vatandaşları	-10.6614
▁maçlar	-10.6616
▁Kırmızı	-10.6617
▁Kâ	-10.6617
▁Yolu	-10.662
▁adları	-10.6622
▁Slav	-10.6622
▁yatırım	-10.6626
2014	-10.6628
▁1910	-10.6628
▁salonu	-10.6631
Art	-10.6633
▁Def	-10.6634
▁Arch	-10.6635
▁alıyor	-10.6635
▁bölgesinin	-10.6637
▁birbirine	-10.664
ε	-10.6641
▁Ağrı	-10.6643
▁Sergi	-10.6645
▁Dy	-10.6647
▁üstlenmiştir	-10.6647
▁altyapısı	-10.6655
▁Temel	-10.6657
▁strateji	-10.6657
rif	-10.6658
▁manga	-10.6659
▁evinde	-10.666
▁katılımcı	-10.666
mic	-10.6666
▁çıkması	-10.6666
Chi	-10.6666
▁Mardin	-10.6669
Col	-10.6676
▁Gaz	-10.6677
▁kaydı	-10.6678
ebilme	-10.668
▁Erdem	-10.6685
▁Free	-10.6686
▁ihtiyaç	-10.6687
▁keşif	-10.6687
2004	-10.6689
▁gıda	-10.669
▁seçme	-10.669
▁124	-10.6691
▁sınırlı	-10.6695
▁fonksiyon	-10.6697
▁Eğitimi	-10.67
▁Latince	-10.6701
▁Pasifik	-10.6703
▁florası	-10.6703
▁Apple	-10.6703
▁İskoçya	-10.6703
▁Çetin	-10.6706
▁tarafı	-10.6708
▁Özgür	-10.6711
▁VI	-10.6712
▁Patri	-10.6716
▁işlemci	-10.6716
▁1907	-10.6718
▁akraba	-10.6718
:1988	-10.6718
▁119	-10.6719
▁dolayısıyla	-10.6721
▁Vokal	-10.6721
▁üstünde	-10.6725
tiv	-10.6726
Nor	-10.6727
▁epi	-10.673
ğini	-10.673
▁Light	-10.6731
▁zamanlarda	-10.6732
▁bölgesel	-10.6733
▁yapıldığı	-10.6734
▁üretil	-10.6735
▁Petr	-10.674
▁mah	-10.6741
▁teorisi	-10.6741
▁benze	-10.6743
▁başlıca	-10.6749
▁beğen	-10.675
▁gelişimi	-10.675
▁bölgeye	-10.6755
▁Rio	-10.6759
▁Maliye	-10.676
1954	-10.6761
▁118	-10.6763
▁Vladimir	-10.6765
▁bürokrat	-10.6765
▁coğrafi	-10.6765
▁tabaka	-10.6765
▁takvim	-10.6766
Paris	-10.677
▁hayatta	-10.6775
Death	-10.6777
beyaz	-10.6778
▁DVD	-10.678
▁adlandırılır	-10.6781
▁patlama	-10.6782
▁Özet	-10.6788
▁açılan	-10.6792
▁800	-10.6794
▁satışa	-10.6795
▁psikoloji	-10.6796
▁içermektedir	-10.6796
:1996	-10.6796
▁360	-10.6799
▁Katılım	-10.6802
▁Beh	-10.6803
▁Roger	-10.6804
▁yaşlı	-10.6805
▁devletin	-10.6806
Kaleci	-10.6806
▁vize	-10.6808
▁kalır	-10.6809
-2007	-10.6811
▁Sekreteri	-10.6813
▁'''0'''	-10.6821
▁ödülleri	-10.6821
▁gitarist	-10.6822
ecektir	-10.6822
▁Belarus	-10.6827
▁Kurul	-10.6831
▁atom	-10.6833
▁hasar	-10.6837
▁ekip	-10.6839
▁(1994)	-10.6842
▁(2016)	-10.6843
▁Kişisel	-10.6846
ар	-10.6848
▁başlandı	-10.6848
▁Berk	-10.685
▁GK	-10.6852
▁123	-10.6855
▁%7	-10.6857
▁atlama	-10.6858
▁komutanı	-10.686
:2002	-10.6861
▁Marmara	-10.6862
leyerek	-10.6863
▁sıkı	-10.6864
▁yüzünden	-10.6864
▁yürüttü	-10.6865
▁Johnson	-10.6865
▁kademe	-10.6868
▁galaksiler	-10.6869
▁türler	-10.6871
lanabilir	-10.6873
▁UNESCO	-10.6874
▁Vietnam	-10.6874
▁kümesi	-10.6875
1955	-10.6875
▁Petro	-10.6882
ت	-10.6889
▁bileşik	-10.6889
▁Š	-10.6891
▁geçirme	-10.6893
▁Kutsal	-10.6894
▁Kongresi	-10.6894
▁çalışmıştır	-10.6894
far	-10.6894
▁Power	-10.6895
iano	-10.6901
▁yayımladı	-10.6903
▁küçükresim	-10.6905
▁tarihsel	-10.6906
▁okulu	-10.6908
▁belediyesi	-10.6909
▁gördüğü	-10.6909
1945	-10.6914
▁Yap	-10.6918
М	-10.6921
▁klavye	-10.6921
▁kentin	-10.6924
▁sundu	-10.6933
▁ağırlık	-10.6938
▁kazandığı	-10.6939
eceğini	-10.694
▁görevinde	-10.6941
act	-10.6943
▁vefat	-10.6949
▁Estonya	-10.6952
▁Suudi	-10.696
1936	-10.6966
▁MP	-10.6967
▁Çam	-10.6967
▁duyurdu	-10.6968
▁hazırlanan	-10.6974
▁Fred	-10.6975
▁Format	-10.6979
▁Hırvat	-10.698
▁yönetiminde	-10.698
▁İsveçli	-10.6983
▁Oxford	-10.6984
▁mitolojisi	-10.6984
▁eleştirmen	-10.6984
▁Pres	-10.699
ology	-10.6991
▁kurumları	-10.6998
dou	-10.7005
uldu	-10.7006
▁Karaca	-10.7007
▁eşlik	-10.7009
▁Ruh	-10.701
Stüdyo	-10.7016
Doctor	-10.7017
▁Ziya	-10.702
▁Tha	-10.7021
1966	-10.7026
tılmış	-10.7026
▁Kapı	-10.7029
:2013	-10.703
▁koloni	-10.703
▁Galaxy	-10.7031
▁kahverengi	-10.7032
▁Down	-10.7034
▁edilebilir	-10.7035
âl	-10.7035
▁getirme	-10.7037
▁Spa	-10.7039
▁unsur	-10.7048
▁defter	-10.7049
▁%9	-10.705
▁Galler	-10.7062
▁Kosova	-10.7064
▁Adaylık	-10.7064
▁Wolf	-10.7064
▁fikir	-10.7066
▁Mol	-10.7068
onic	-10.707
▁Kamp	-10.7073
▁bilgisi	-10.7077
▁alternatif	-10.7079
▁Musa	-10.7084
▁hata	-10.7084
▁gösterme	-10.7085
MP	-10.7088
▁uçakları	-10.7089
▁halde	-10.709
▁çalışmalarını	-10.7095
х	-10.7095
ß	-10.7095
▁kapsayan	-10.7095
▁Vadisi	-10.7096
▁Belde	-10.7096
▁Great	-10.7098
▁gri	-10.7108
göl	-10.7111
▁köpek	-10.7111
▁silindir	-10.7111
▁akarsu	-10.7111
▁(1993)	-10.7111
▁uzanan	-10.7118
Just	-10.7119
▁karmaşık	-10.7127
▁Giriş	-10.7129
▁Samsung	-10.713
▁Little	-10.7132
tasyon	-10.7132
▁Mario	-10.7133
▁Bölgesel	-10.714
▁Got	-10.7141
1965	-10.7142
▁akademik	-10.7143
▁gereği	-10.7144
▁ciddi	-10.7144
▁'''11'''	-10.7147
eira	-10.7151
-2014	-10.7153
▁Cambridge	-10.716
▁etkileşim	-10.716
▁gereken	-10.7161
▁gezi	-10.7164
▁giderek	-10.7164
▁Marie	-10.7169
▁Özellikleri	-10.7177
▁Linux	-10.7179
1957	-10.718
▁parçalar	-10.7183
▁familya	-10.7183
İranlı	-10.7184
▁olabil	-10.7185
▁familyasından	-10.7187
▁İnce	-10.7188
lmaz	-10.7188
▁terimleri	-10.7192
▁Platform	-10.7192
▁Jane	-10.7197
DR	-10.7198
▁yazmıştır	-10.72
▁Stone	-10.7201
▁altıncı	-10.7204
▁Lise	-10.7205
▁kullanılma	-10.7206
▁eyaleti	-10.7208
▁başlangıçta	-10.7208
ī	-10.7208
▁erişim	-10.7208
▁138	-10.7213
▁kurul	-10.722
▁kare	-10.7221
▁üreticisi	-10.7224
▁emri	-10.7225
▁Rusça	-10.7226
▁olayı	-10.7231
▁Brian	-10.7234
▁CB	-10.7235
▁Ivan	-10.7239
▁orkestra	-10.7241
FF	-10.7244
▁VII	-10.7244
▁sahil	-10.7246
▁durumunda	-10.7249
▁Master	-10.725
▁bölgelerde	-10.725
▁С	-10.7255
▁Yönetimi	-10.7255
▁(2017)	-10.7258
▁petrol	-10.7258
▁arkasında	-10.7262
▁tanındı	-10.7265
▁içeriği	-10.7271
—	-10.7273
▁Zonguldak	-10.7273
▁kum	-10.7275
▁Sporcu	-10.7276
▁Yakın	-10.7279
▁bağlantı	-10.7282
:1998	-10.7283
▁Cent	-10.7283
ward	-10.7285
▁Dance	-10.7286
ه	-10.7289
▁şunlardır	-10.7289
▁Kişi	-10.729
▁uğraş	-10.7293
▁Awards	-10.7296
Hükûmet	-10.7297
▁kısaca	-10.7298
▁isteme	-10.7302
▁değiştirildi	-10.7304
İspanyolca	-10.7304
▁mensup	-10.7306
▁Cengiz	-10.7306
▁fiyat	-10.7312
▁dost	-10.7312
▁Selçuklu	-10.7313
▁yöneticisi	-10.7316
kuş	-10.7316
▁Mavi	-10.7319
mark	-10.732
ô	-10.7322
▁saniye	-10.733
▁gönderildi	-10.7331
out	-10.7333
▁bırakıldı	-10.7337
▁eğlence	-10.7338
▁pasaport	-10.7338
▁bakteri	-10.734
▁yasal	-10.7342
▁moda	-10.7347
▁milli	-10.735
:1981	-10.7354
▁Muğla	-10.7355
▁Florida	-10.7355
▁Sparta	-10.7358
leşti	-10.7363
▁Shin	-10.7364
▁evrim	-10.7366
▁hapis	-10.7368
▁Queen	-10.7369
▁Image	-10.7372
▁Çay	-10.7376
▁kaleme	-10.7381
▁Yapımcı	-10.7385
▁vücut	-10.7388
▁simge	-10.7388
▁Profesör	-10.7388
▁Bern	-10.739
What	-10.7394
▁kullandı	-10.7397
▁yürü	-10.7398
▁valisi	-10.7398
Amerika	-10.74
▁çıkmış	-10.7402
▁ters	-10.7402
:1986	-10.7404
▁Şeyh	-10.7405
▁İnan	-10.7406
▁düzeyi	-10.7406
▁halkın	-10.7409
▁Aksu	-10.7411
▁Ford	-10.7411
▁nesil	-10.7412
▁kapasite	-10.7416
iyesi	-10.7416
▁ekonomisi	-10.7417
▁Albümün	-10.742
▁Recep	-10.7421
:1984	-10.7422
doğan	-10.7423
▁caz	-10.7426
▁içeri	-10.743
▁Marc	-10.7432
▁Karaman	-10.7432
▁Uygulama	-10.7437
▁isteyen	-10.7437
▁eksik	-10.7439
▁ücretsiz	-10.7439
▁Lisans	-10.7443
▁Julia	-10.7451
▁göçmenler	-10.7451
▁Lübnan	-10.7454
▁esnasında	-10.7454
▁Cemiyeti	-10.7455
1952	-10.7461
▁kurtar	-10.7466
▁gelmesi	-10.7467
▁Dijital	-10.7471
▁bireysel	-10.7471
▁kaplı	-10.7471
▁fosil	-10.7473
▁1000	-10.7473
▁bileşen	-10.7473
▁xxx	-10.7474
▁mobil	-10.7474
▁ödüller	-10.7477
▁katkıda	-10.7478
▁Yara	-10.7482
▁1902	-10.7483
▁mümkün	-10.7486
▁Fon	-10.7487
▁Dinamo	-10.7487
▁Bah	-10.749
▁Sahil	-10.749
▁istedi	-10.7494
▁çocuklar	-10.7495
▁ıs	-10.7497
▁Hareketi	-10.7497
▁teşvik	-10.7504
▁Cihaz	-10.7504
▁düzenlendi	-10.7505
▁terfi	-10.7511
▁Cro	-10.7516
▁uygulamaları	-10.752
▁1909	-10.7521
▁Gemi	-10.7523
▁Britanyalı	-10.7523
▁Yar	-10.7526
▁meydan	-10.7535
▁Endonezya	-10.7537
▁Dergisi	-10.7537
▁saygı	-10.7537
▁Refah	-10.7537
▁oluşturduğu	-10.7539
▁set	-10.754
▁2.6	-10.754
ensis	-10.7542
▁Media	-10.7543
300	-10.7543
▁kafa	-10.7549
1950	-10.755
▁sinir	-10.7552
▁gök	-10.7554
ლ	-10.7554
▁tanıştı	-10.7554
back	-10.7554
▁Duru	-10.7562
yazı	-10.7564
Gre	-10.757
▁Kolombiya	-10.7571
▁2008-09	-10.7571
▁Turgut	-10.7571
▁Kartal	-10.7575
▁merkezleri	-10.7578
▁Metal	-10.7579
▁yapımcıları	-10.7582
–3	-10.7585
▁mimarisi	-10.7587
▁Kök	-10.7587
▁Filmografisi	-10.7587
▁dokuz	-10.7587
▁PlayStation	-10.7588
▁Filistin	-10.7588
▁Arthur	-10.7589
▁karbon	-10.7591
▁kaleci	-10.7596
▁bireyler	-10.7598
▁Museum	-10.7605
▁işbirliği	-10.7605
▁pist	-10.7608
▁Open	-10.7609
▁Kurucu	-10.761
▁Aşağıdaki	-10.7611
▁Brad	-10.7619
▁Mix	-10.7621
▁SSCB	-10.7621
▁klasmanı	-10.7622
▁şehrinin	-10.7623
▁Last	-10.7629
Pop	-10.763
▁müsabaka	-10.7632
▁önceden	-10.7634
▁1911	-10.7635
▁hastalıkları	-10.7637
▁Klasik	-10.7638
▁açılmıştır	-10.7642
▁Wilson	-10.7644
▁kullanılması	-10.7646
▁fizik	-10.7647
▁komünist	-10.7649
Tra	-10.7651
Cam	-10.7652
▁fizikçi	-10.7654
▁Rıza	-10.7655
▁kanalında	-10.7657
▁Lisesinde	-10.7663
▁yansıt	-10.7664
▁Almanyası	-10.7669
▁Amasya	-10.7673
▁yapımlar	-10.7681
▁diz	-10.7682
▁dişi	-10.7686
▁Oblastı	-10.7689
▁Stephen	-10.7689
▁Sahne	-10.769
:2001	-10.7692
▁sırt	-10.7694
▁Solo	-10.7697
▁araştırmacı	-10.7699
▁coğrafyası	-10.77
▁Şirketi	-10.7702
issa	-10.7705
▁1900	-10.7714
arch	-10.772
▁politik	-10.772
▁mağlup	-10.7723
aydın	-10.7724
▁(2019)	-10.7724
▁Bilimleri	-10.7726
leşen	-10.7727
▁Chan	-10.7729
▁çalışmalarına	-10.773
▁2013-14	-10.773
▁Krist	-10.7731
▁Salonu	-10.7737
▁örgütü	-10.7739
▁soyadı	-10.774
▁Henri	-10.7741
▁Çağı	-10.7747
▁atma	-10.7751
▁Walter	-10.7753
▁evliliği	-10.7754
▁Kanun	-10.7754
▁Yabancı	-10.7757
▁kuyruk	-10.7757
▁aktris	-10.7757
▁göm	-10.7757
▁olacağı	-10.7761
▁liderleri	-10.7767
▁olmadan	-10.7772
tation	-10.7772
▁açıdan	-10.7774
▁dayanmaktadır	-10.7774
▁yapılmaktadır	-10.7777
▁mülk	-10.7778
▁Hatay	-10.7788
▁İlişkiler	-10.7792
▁üniversiteler	-10.7792
▁America	-10.7793
▁hükûmetin	-10.7793
▁mutfağında	-10.7794
▁Kah	-10.7796
▁Steven	-10.7804
▁Orijinal	-10.7805
▁talep	-10.7809
▁bakımından	-10.781
▁Tunç	-10.781
▁Bernard	-10.7811
▁kaba	-10.7822
▁Elizabeth	-10.7826
▁galibiyet	-10.7827
▁More	-10.7827
▁müzeler	-10.7828
▁buluş	-10.7828
▁kaldığı	-10.7833
▁Anti	-10.7836
▁Pek	-10.7842
▁Kid	-10.7843
▁teleskopla	-10.7843
▁Kayıt	-10.7844
▁amatör	-10.7848
▁kurduğu	-10.785
▁bunların	-10.7852
▁CM	-10.7857
zio	-10.7857
▁Hakkında	-10.7859
▁yükselt	-10.7859
▁Tuna	-10.786
▁İletişim	-10.786
▁kont	-10.7864
▁Boks	-10.7865
▁Avustralyalı	-10.7871
▁ulaşma	-10.7873
▁Şube	-10.7873
▁Festival	-10.7874
▁olgu	-10.7876
▁(2018)	-10.7879
▁Karadağ	-10.7885
▁risk	-10.7891
▁farkı	-10.7893
▁İşleri	-10.7893
▁First	-10.7895
▁rastlan	-10.7899
▁sözü	-10.7904
lop	-10.7907
enberg	-10.7908
▁Sistem	-10.7908
▁Komutan	-10.7908
▁1886	-10.7913
▁Cins	-10.7916
Kariyer	-10.7919
▁ederken	-10.7921
▁değişiklikler	-10.793
▁ayrılarak	-10.7933
ische	-10.7935
▁Salih	-10.7937
çuk	-10.7938
▁Luis	-10.7938
illo	-10.7939
▁ex	-10.7941
▁sayım	-10.7951
▁his	-10.7954
▁Zafer	-10.7956
▁Colo	-10.7958
▁Hikâye	-10.7965
▁Gitar	-10.7965
▁ideal	-10.7966
▁bulgu	-10.7968
▁amaçla	-10.7969
▁Hawk	-10.7969
▁3.5	-10.7974
▁acı	-10.7977
▁Songs	-10.7978
▁protesto	-10.7982
▁mesaj	-10.7982
Yarı	-10.7983
▁yüzde	-10.7984
▁ürünü	-10.7984
▁olun	-10.7988
house	-10.7989
▁kitle	-10.7994
▁geçerek	-10.7995
▁Konuk	-10.7997
▁Yel	-10.8
▁Uşak	-10.8
▁Trabzonspor	-10.8008
▁Jeff	-10.8011
▁Rah	-10.8011
▁dağıtı	-10.8014
▁Sony	-10.8015
▁Times	-10.8016
▁ürünler	-10.8016
ო	-10.8017
▁System	-10.8017
▁Koruma	-10.8018
▁(1992)	-10.8018
▁yetişkin	-10.802
1949	-10.802
▁alanlarda	-10.8022
▁(4)	-10.8025
▁Mini	-10.8026
▁uygulaması	-10.8026
▁bulut	-10.8026
▁biçiminde	-10.8027
1953	-10.8031
▁Işık	-10.8036
▁şairleri	-10.8036
polis	-10.8036
▁öncesinde	-10.8039
▁Üyesi	-10.804
Arapça	-10.804
Hip	-10.8045
▁biçimi	-10.8047
▁Türkçeye	-10.8047
▁Rub	-10.8049
▁döner	-10.805
▁taslakları	-10.8052
▁Adıyaman	-10.8052
▁ağacı	-10.8053
▁semtinde	-10.8055
▁Selçuk	-10.8062
▁Phil	-10.8063
▁Davis	-10.8064
▁şampiyonluk	-10.8065
▁mağaza	-10.807
▁soğuk	-10.807
Gün	-10.8072
İkinci	-10.8077
Seçme	-10.8077
▁Helen	-10.8079
▁nadir	-10.8082
▁öğret	-10.8084
▁çevrimiçi	-10.8088
▁dövüş	-10.8088
▁tamamlamıştır	-10.809
▁Patrick	-10.8095
▁depo	-10.8096
ovic	-10.8097
Azeri	-10.8101
▁mali	-10.8103
▁ister	-10.8103
Maç	-10.8105
▁Goller	-10.8105
λ	-10.8105
▁memeliler	-10.8106
▁sok	-10.8107
▁salgı	-10.8112
Hayvan	-10.8112
▁Vatan	-10.8115
▁Cumhuriyetçi	-10.8117
rasyon	-10.812
▁bez	-10.8122
:1994	-10.8123
▁2.7	-10.8124
▁kapasitesi	-10.8129
RO	-10.813
▁otel	-10.813
dong	-10.8135
▁yaklaşım	-10.8137
▁skor	-10.8137
▁yayımlanmıştır	-10.8144
▁Kütüphanesi	-10.8144
gres	-10.8145
▁söyler	-10.8148
▁Annesi	-10.8149
0,000	-10.815
▁yoğunluğu	-10.8157
▁Hafta	-10.8158
▁Television	-10.8159
▁Yunus	-10.8159
Real	-10.8161
▁görevlerinde	-10.8162
▁köyünün	-10.8162
▁Rolü	-10.8164
▁reform	-10.8166
▁Olimp	-10.8166
▁unvan	-10.8171
▁gemileri	-10.8174
▁Meydanı	-10.8175
▁İhsan	-10.8177
▁yaklaş	-10.8177
▁Önceki	-10.8177
▁Müdür	-10.8178
▁yapılma	-10.8186
III	-10.819
tori	-10.8192
danışman	-10.8194
▁Yaklaşık	-10.8194
▁anlamda	-10.8196
▁Çeyrek	-10.8198
▁asistan	-10.82
ен	-10.8204
:2.	-10.8205
dışı	-10.8206
▁Araç	-10.8208
▁alfabesi	-10.8212
ш	-10.8212
▁kategorisinde	-10.8221
▁İlçenin	-10.8224
▁tasarımcı	-10.8226
Uruguay	-10.823
▁başbakanları	-10.8231
▁partisi	-10.8231
▁kapısı	-10.8232
▁kazanma	-10.8232
ütü	-10.8237
▁Radio	-10.8239
▁işlemi	-10.824
▁1-2	-10.8247
▁Karabağ	-10.8248
▁arması	-10.825
▁Aleks	-10.8256
ülmüş	-10.8263
1931	-10.8263
▁Katalog	-10.8266
▁hariç	-10.8266
▁çatı	-10.8267
▁icat	-10.8269
▁sandık	-10.8269
▁onur	-10.828
▁tehdit	-10.8284
▁Bitlis	-10.8284
▁seçilmiş	-10.8284
▁üreticileri	-10.8284
▁Kevin	-10.8293
▁farklılık	-10.8296
▁dergileri	-10.83
▁Yardımcılığı	-10.8301
▁anlamında	-10.8302
▁onların	-10.8303
▁davul	-10.8304
borg	-10.8305
▁Veli	-10.8305
▁Hattı	-10.8308
▁kutu	-10.8316
▁kadrosunda	-10.8319
▁etkinlikleri	-10.832
▁Fall	-10.832
▁210	-10.832
▁olumlu	-10.832
▁İnşaat	-10.832
▁Muş	-10.8326
▁Sistemi	-10.833
Yahudi	-10.8331
Mor	-10.8333
▁çizim	-10.8335
▁tekniği	-10.8339
▁canlandırdığı	-10.8341
ebilen	-10.8343
▁yandan	-10.8345
▁Şirketin	-10.8347
▁Kazak	-10.8348
▁faktör	-10.8352
▁190	-10.8353
▁Kafkasya	-10.8354
▁Yön	-10.8356
▁tanımlama	-10.8362
São	-10.8362
Italia	-10.8364
▁toplu	-10.8366
▁kullanıldığı	-10.8369
▁Harry	-10.8369
▁algı	-10.837
▁220	-10.8371
▁Gine	-10.8372
▁kitabında	-10.8374
ddy	-10.8376
stru	-10.8383
▁çalma	-10.8385
▁Ayak	-10.8385
liyor	-10.8387
üşü	-10.8389
lenebilir	-10.8391
ń	-10.8393
▁Dairesi	-10.8393
▁Katar	-10.8394
▁şarap	-10.8395
▁teknolojisi	-10.8398
▁Abbas	-10.8399
▁matematikçi	-10.84
owski	-10.8403
▁Grammy	-10.8408
▁rolünü	-10.841
μ	-10.8411
▁Friedrich	-10.8411
▁Konstantin	-10.8411
▁Çankırı	-10.8411
▁reaksiyon	-10.8411
eaturing	-10.8411
▁yeterli	-10.8411
▁Studios	-10.8412
▁zemin	-10.8414
▁ortalarında	-10.8415
Space	-10.8422
▁bisikletçi	-10.8423
▁piskopos	-10.8426
▁konferans	-10.843
▁Öykü	-10.843
ides	-10.8435
göz	-10.8437
Flag	-10.8438
▁Platin	-10.8438
feld	-10.8438
Sev	-10.8439
Â	-10.8448
▁asteroit	-10.8448
▁kabine	-10.8448
▁kavramı	-10.8448
vier	-10.8448
kapı	-10.845
▁Beat	-10.8453
park	-10.8454
▁Tav	-10.8457
Kıbrıs	-10.846
UEFA	-10.846
▁UK	-10.8462
▁Pur	-10.8462
▁bölgesine	-10.8466
▁özerk	-10.8466
▁soylu	-10.8467
▁+3	-10.847
▁çalıştığı	-10.8473
▁sıralama	-10.8477
▁Eyalet	-10.8478
▁Çoğu	-10.8482
▁eşya	-10.8482
▁yapımcılığını	-10.8486
▁Özdemir	-10.8487
ılabilir	-10.8487
gno	-10.8488
▁küresel	-10.8488
▁tedavisi	-10.849
▁Porto	-10.8491
▁salon	-10.8495
▁türlü	-10.8498
▁tanesi	-10.8505
▁yoluna	-10.8511
▁hatları	-10.8515
▁halen	-10.8518
▁Mirası	-10.852
▁olmaya	-10.8522
UN	-10.8523
Bas	-10.8525
▁2012-13	-10.853
▁çan	-10.8532
▁artı	-10.8538
▁görüşme	-10.8541
▁Hitler	-10.8542
▁Atlas	-10.8543
▁Dead	-10.8548
▁arkadaş	-10.8553
▁Clark	-10.8554
Black	-10.8554
▁Facebook	-10.8558
▁Hunt	-10.8559
▁Ebu	-10.856
Oyuncu	-10.8564
▁katman	-10.8565
▁Games	-10.857
ography	-10.8574
▁miktarda	-10.8578
▁Legend	-10.8578
Renault	-10.8579
▁mevkiinde	-10.858
▁dışarı	-10.8581
▁almakta	-10.8581
▁vs	-10.8582
▁Emek	-10.859
▁Formula	-10.8596
▁Kolordu	-10.8596
Apollo	-10.8605
▁öldüğü	-10.8607
▁%4	-10.8607
▁yarışmada	-10.8607
▁Milano	-10.8613
▁Division	-10.8614
▁Teksas	-10.8615
pati	-10.862
▁Vic	-10.8621
▁böyle	-10.8628
П	-10.8633
▁repesaj	-10.8633
▁çekirdek	-10.8633
▁İzlanda	-10.8633
▁Mahmut	-10.8634
▁tipik	-10.864
▁DJ	-10.8643
yıp	-10.8651
Bilinmiyor	-10.8652
▁rolüyle	-10.8662
▁sebebi	-10.8666
OL	-10.867
▁yeteneği	-10.867
▁Aleksandr	-10.867
▁hazırlık	-10.8672
▁avcı	-10.8675
card	-10.8678
▁alınması	-10.8678
▁Cemal	-10.868
Warner	-10.868
▁Serdar	-10.8682
1944	-10.8682
▁Proje	-10.8683
▁müdürü	-10.8683
▁akıllı	-10.8684
▁çıkışı	-10.8686
▁Bulut	-10.8688
İlk	-10.8689
▁kurtarma	-10.8689
▁görülmüştür	-10.8689
▁kompleks	-10.8689
▁Yüce	-10.8689
▁(1988)	-10.8689
Mercedes	-10.8689
▁Yor	-10.8699
▁şehridir	-10.87
▁miras	-10.87
Blood	-10.8702
▁Brand	-10.8703
Öz	-10.8707
1941	-10.8707
▁çıkarma	-10.8713
▁Victoria	-10.872
▁familyasın	-10.8725
çılık	-10.8727
▁Nijerya	-10.8727
▁Road	-10.873
▁Dizisi	-10.8734
İller	-10.8734
▁Plak	-10.8736
▁Avusturyalı	-10.8736
▁gerektir	-10.8737
▁eğit	-10.874
▁Zeynep	-10.8746
▁keşfedilen	-10.8748
▁yenerek	-10.875
opol	-10.8755
▁yarım	-10.8759
▁Wild	-10.8761
▁çubuk	-10.8764
Yalnız	-10.8764
örneğin	-10.8773
▁Dark	-10.8775
▁kırsal	-10.8776
▁öğrenimini	-10.8777
▁GP	-10.8783
▁başvuru	-10.8783
▁sinyal	-10.8784
▁Oscar	-10.8785
▁terör	-10.8787
▁düzenlenmiştir	-10.8787
▁Nuri	-10.8788
▁Europe	-10.8789
abilecek	-10.8791
Pri	-10.8794
-2004	-10.8795
▁cinsiyet	-10.8796
▁platformu	-10.8797
▁metrosu	-10.8797
▁akım	-10.8799
▁oyuncudur	-10.88
▁anahtar	-10.8802
▁yuva	-10.8803
▁seslendirdi	-10.8803
rica	-10.8805
▁alanlarında	-10.8806
▁(%)	-10.8807
▁düşü	-10.881
▁edebi	-10.8814
▁aylarında	-10.8815
▁Sinop	-10.8817
▁yükselen	-10.8826
▁Baha	-10.8829
▁fabrika	-10.884
▁Singles	-10.8841
▁Lang	-10.8842
▁gösterilmiştir	-10.8842
▁açıklandı	-10.8842
ка	-10.8842
▁vaka	-10.8842
▁büyüme	-10.8846
Bay	-10.8847
▁direktörü	-10.8848
▁Kongre	-10.8854
▁websitesi	-10.8855
▁yerleşme	-10.8856
▁müzisyenleri	-10.8856
▁Gökyüzünde	-10.8859
▁cumhurbaşkanı	-10.8859
▁Science	-10.886
▁kaydedilmiştir	-10.8862
▁Cuma	-10.8871
▁Pav	-10.8872
▁formasıyla	-10.8873
▁cumhuriyet	-10.8879
Б	-10.8879
▁oyunudur	-10.8887
▁yarısında	-10.8889
▁belirtti	-10.8892
char	-10.8897
▁karışık	-10.8898
▁çağdaş	-10.8898
▁bilimci	-10.8899
▁kökeni	-10.8901
▁satan	-10.8903
▁başkanlığını	-10.8907
▁korumak	-10.8908
▁Milan	-10.891
är	-10.8912
▁tasarlanmış	-10.8914
eline	-10.8915
▁%3	-10.8916
Family	-10.8917
▁SEDS	-10.8917
▁rejim	-10.8918
▁Movie	-10.8918
▁Dost	-10.8923
▁Şampiyonluğu	-10.8927
▁özellik	-10.8927
bury	-10.8929
▁çap	-10.8931
▁Normal	-10.8934
▁tüfek	-10.8936
▁Letonya	-10.8936
▁yangın	-10.8939
▁iptal	-10.894
▁aylık	-10.8948
▁adlandır	-10.8953
▁Valiliği	-10.8953
▁Fort	-10.8954
▁herkes	-10.8955
▁olmadığını	-10.8955
▁intihar	-10.8956
▁kimse	-10.8956
Futbol	-10.8957
▁Toplum	-10.8958
▁örnekleri	-10.896
▁tutar	-10.8962
▁Ekonomik	-10.8966
900	-10.8969
▁posta	-10.8971
▁dolu	-10.8973
▁baskısı	-10.8976
▁ardı	-10.8976
Müzik	-10.8977
▁İmam	-10.8977
Hayatı	-10.8977
▁bildiri	-10.8979
▁çekme	-10.8982
▁Malta	-10.8982
▁zorunlu	-10.8986
▁sıklıkla	-10.8987
Rumen	-10.8987
▁Kör	-10.8989
▁Arjantinli	-10.8992
▁formül	-10.8992
▁Wilhelm	-10.8994
▁Etkinlik	-10.8994
▁karşılığında	-10.8994
▁hikâyesi	-10.8997
▁Başbakanı	-10.9002
zzo	-10.9005
▁silahlı	-10.9008
▁Wall	-10.9009
▁Come	-10.9011
▁Salon	-10.9013
▁ötürü	-10.9014
:1993	-10.9014
▁1904	-10.9016
▁Thor	-10.9018
Macar	-10.9027
▁mühendisliği	-10.9031
ц	-10.9033
▁Hakkı	-10.9035
▁politikası	-10.9037
▁vilayeti	-10.9038
▁Erol	-10.9043
▁Bang	-10.9046
pazar	-10.9048
▁karşıtı	-10.905
ع	-10.9052
▁ahşap	-10.9052
-2005	-10.9056
▁fotoğrafçı	-10.9061
▁görür	-10.9062
▁vermiş	-10.9064
▁anılır	-10.9065
▁altyapı	-10.9065
▁tarihî	-10.9066
▁1896	-10.907
▁kampanya	-10.9072
▁(1991)	-10.9073
▁Boyu	-10.9074
Erkek	-10.9075
▁ulaşan	-10.9078
▁çekilmiştir	-10.9082
▁oğludur	-10.9084
▁kurban	-10.9084
▁Gabriel	-10.9091
▁Rakip	-10.9092
▁ağırlıklı	-10.9094
▁sıklet	-10.9099
▁Well	-10.9105
nomi	-10.9105
▁Ryan	-10.9107
▁gözü	-10.9109
▁gençlik	-10.9109
▁Örnek	-10.9111
Top	-10.9112
▁kısmını	-10.9112
1947	-10.9113
▁Lü	-10.9114
▁Gazetesi	-10.9116
▁ilçesinin	-10.9117
▁numarası	-10.9117
▁denge	-10.9125
▁Sevgi	-10.913
ნ	-10.9131
▁Bütün	-10.9131
grad	-10.9136
Çek	-10.9138
+1	-10.9146
▁Onun	-10.9146
▁Çalışmaları	-10.9148
ь	-10.915
2020	-10.9156
▁toplumsal	-10.9159
▁Savaşları	-10.9162
▁rektör	-10.9164
▁Vilayeti	-10.917
▁Network	-10.917
İş	-10.9178
▁sö	-10.9178
▁That	-10.9179
▁2014-15	-10.9183
▁kilisesi	-10.9188
▁isteği	-10.919
▁havayolu	-10.9192
Kulüp	-10.9195
abad	-10.9195
▁girdiği	-10.9199
▁Prag	-10.9201
▁Kuruluş	-10.9202
▁yenilgi	-10.921
▁Marco	-10.9211
laşmış	-10.9212
▁uyg	-10.9214
town	-10.9218
▁görülme	-10.922
▁başlama	-10.9228
▁Uygur	-10.9229
▁tarif	-10.923
▁(1987)	-10.9231
▁polisiye	-10.9234
▁basketbolcu	-10.9235
▁olabileceği	-10.924
▁ayaklanma	-10.9243
▁işleme	-10.9244
▁genelinde	-10.9245
▁tıbbi	-10.9249
çeşme	-10.925
Sırp	-10.9256
▁görsel	-10.9261
▁hatır	-10.9264
▁bölü	-10.9265
mışlardır	-10.9267
▁Dave	-10.927
▁İstasyonu	-10.9275
▁Vah	-10.928
ffer	-10.9283
▁ulus	-10.9284
▁şarkıyı	-10.9284
▁ayar	-10.9284
▁Eğer	-10.9289
▁yaratıcı	-10.9291
▁mangaları	-10.9294
▁Müdürü	-10.9294
▁kayıp	-10.9296
Project	-10.9298
2016	-10.93
▁Skor	-10.93
▁yardımcılığı	-10.9301
▁Köprü	-10.9308
▁ofis	-10.9309
▁(1986)	-10.9309
▁baskın	-10.9314
▁Keş	-10.9315
▁büyüdü	-10.9316
▁kuralları	-10.9316
▁Lord	-10.9322
▁İmparatoru	-10.9323
▁giymiştir	-10.933
▁1906	-10.933
▁Julie	-10.9332
▁şarkıcısı	-10.9335
XVI	-10.9337
▁ressamları	-10.9338
Major	-10.9341
▁şef	-10.9344
▁Corporation	-10.9349
▁hentbol	-10.9349
▁pencere	-10.9349
▁ayrıntı	-10.9349
▁anlatan	-10.9349
▁(1990)	-10.935
▁değerli	-10.9355
İzmir	-10.9357
▁girişimi	-10.9358
▁Rich	-10.9363
▁icra	-10.937
▁motorlu	-10.9374
▁müdür	-10.9374
ograf	-10.9378
▁engelli	-10.9381
▁Odası	-10.9386
▁Kaptan	-10.9386
ς	-10.9389
▁rekabet	-10.9389
▁füze	-10.9389
▁Kasaba	-10.9389
▁sosyalist	-10.939
▁kısmen	-10.9393
▁Lady	-10.9394
lang	-10.9396
▁üyesiydi	-10.9401
κ	-10.9409
▁Kahramanmaraş	-10.9409
▁kaynaklarda	-10.9409
▁2007-08	-10.9409
alım	-10.9418
1939	-10.9428
▁saldırısı	-10.9428
▁bağlantılı	-10.9435
Batı	-10.9436
▁Hoca	-10.9437
▁Victor	-10.9446
▁Felsefe	-10.945
▁komedyen	-10.945
▁donanım	-10.945
▁Moon	-10.9454
ер	-10.9456
▁Kıy	-10.9456
▁adamları	-10.9457
▁Yurt	-10.9458
▁Zeki	-10.9458
▁altyapısında	-10.9458
▁Law	-10.9461
▁Merc	-10.9463
▁yağış	-10.9465
▁küre	-10.9465
▁oluşturmak	-10.9466
▁akademisyenler	-10.9469
▁Bağlantı	-10.947
▁imkân	-10.947
▁kubbe	-10.947
▁Sound	-10.9471
▁Diego	-10.9478
Dördüncü	-10.949
▁Bedelsiz	-10.949
▁Giorgi	-10.9491
▁Gian	-10.9491
▁yakınlarındaki	-10.9491
▁uyarlaması	-10.9492
▁hukukçu	-10.9492
▁Alaska	-10.9493
▁savaşın	-10.9497
▁XI	-10.9508
▁bulunmuş	-10.951
▁komutasındaki	-10.9511
▁fayda	-10.9512
▁Sarah	-10.9513
▁oluşumu	-10.9514
▁İmparatorluk	-10.9516
▁Batman	-10.9527
▁profesörü	-10.9528
▁halterci	-10.9531
▁Jimmy	-10.9532
▁(1989)	-10.9532
ovsk	-10.9532
▁1,8	-10.9534
▁bağımsızlığını	-10.9534
▁voleybolcuları	-10.9536
▁Görsel	-10.9539
▁Over	-10.954
head	-10.9544
▁Georgia	-10.955
▁istediği	-10.9551
▁Herschel	-10.9551
Journal	-10.9552
▁özgün	-10.9552
▁Medya	-10.9555
phon	-10.9555
▁kaçır	-10.9557
izasyon	-10.9557
▁%8	-10.9563
▁durumlarda	-10.9565
▁Zagreb	-10.9572
▁Mağara	-10.9572
▁Gümüşhane	-10.9573
▁Şampiyonu	-10.9579
Suudi	-10.9584
▁ilişkisi	-10.9584
▁İtalyanca	-10.9584
▁maliyet	-10.959
▁kazanmış	-10.9592
:(-10,	-10.9592
σ	-10.9592
▁mektup	-10.9592
▁Kub	-10.9593
▁Çal	-10.9593
▁Özgün	-10.9601
▁blok	-10.9601
▁1905	-10.9602
▁Yolcu	-10.9607
Ž	-10.9613
▁Virginia	-10.9613
▁****	-10.9614
▁rakam	-10.9614
▁Usta	-10.9618
▁atanmıştır	-10.962
▁Illinois	-10.9634
▁şüphe	-10.9634
▁Hazırlık	-10.9634
▁yiyecek	-10.9634
▁Kudüs	-10.9634
Carl	-10.9634
▁torunu	-10.9634
1943	-10.9644
▁Rosa	-10.9645
▁telefonları	-10.9648
▁Oyuncusu	-10.9648
▁nezdinde	-10.9654
▁sandalye	-10.9654
▁Bingöl	-10.9654
▁edecek	-10.966
▁Series	-10.9667
▁aralığı	-10.9669
mediği	-10.9671
▁Budapeşte	-10.9675
▁doldur	-10.9675
▁Otto	-10.9677
▁Kont	-10.9679
▁ismiyle	-10.9683
bach	-10.9684
▁Auto	-10.9684
▁istasyon	-10.969
▁Frankfurt	-10.9696
▁İpek	-10.9696
ndre	-10.9698
▁eleştiriler	-10.97
▁Child	-10.97
▁kazanarak	-10.9701
▁hanedanı	-10.9706
▁kaptan	-10.9708
▁Hâ	-10.9709
▁yayıncı	-10.9711
▁Afyonkarahisar	-10.9717
▁Tunceli	-10.9717
▁Shu	-10.9717
▁Direktör	-10.9718
▁Edebiyatı	-10.9721
▁eleştiri	-10.9725
▁hükümdarı	-10.9726
–18	-10.9727
▁yüzeyi	-10.973
▁taşır	-10.9731
▁Kenan	-10.9736
▁türbe	-10.9737
▁Prusya	-10.9737
▁otomatik	-10.9738
▁yakıt	-10.9739
oviç	-10.974
▁Justin	-10.9741
▁öldürme	-10.9742
▁Manastırı	-10.9745
▁Başka	-10.9748
▁bakanı	-10.9754
▁gazetecileri	-10.9758
▁NATO	-10.9758
▁fırlat	-10.9758
▁yedinci	-10.9759
▁rütbe	-10.9759
▁bestecileri	-10.9764
▁Zor	-10.9772
▁öyküsü	-10.9777
▁müdahale	-10.9779
▁Tiflis	-10.9779
▁Tayvan	-10.9779
▁Pınar	-10.9782
cchi	-10.9786
▁girmesi	-10.979
▁Morris	-10.9791
▁Filip	-10.9795
▁mayın	-10.98
ك	-10.98
:1995	-10.9801
▁Esen	-10.9801
▁Görü	-10.9803
▁gazetesinde	-10.9806
▁belirgin	-10.9806
ılacak	-10.9812
▁dışındaki	-10.9812
▁değişen	-10.9813
▁Under	-10.9815
“	-10.9816
▁Yalçın	-10.9821
▁Çelebi	-10.9821
▁yürüyüş	-10.9821
▁Ardahan	-10.9822
▁belirlemek	-10.9824
▁maruz	-10.9825
▁Allen	-10.9829
▁kedi	-10.9838
▁kariyer	-10.9839
▁ücret	-10.984
▁kalmış	-10.9841
▁şifre	-10.9842
▁ödeme	-10.9843
▁paralel	-10.9844
▁Divan	-10.9848
ño	-10.985
▁değişken	-10.9853
▁Galerisi	-10.9859
▁Hız	-10.9859
▁padişah	-10.9863
ح	-10.9863
▁Hikmet	-10.9863
Che	-10.9867
▁geçtiği	-10.9868
▁boyun	-10.9868
▁Adnan	-10.987
▁ayrılan	-10.9883
▁François	-10.9884
▁Nintendo	-10.9884
▁Venezuela	-10.9884
▁Junior	-10.9885
▁videosu	-10.9885
▁Köln	-10.9885
▁yönetil	-10.9887
▁0-0	-10.9887
▁edilerek	-10.9888
▁tenisçi	-10.989
▁Rapor	-10.9899
▁odası	-10.99
▁Philadelphia	-10.9906
▁böcek	-10.9906
▁kocası	-10.991
▁kere	-10.991
▁başlayarak	-10.9911
graph	-10.9914
▁yapması	-10.9914
▁Futbolcu	-10.9918
Millî	-10.9923
İran	-10.9925
▁girmiş	-10.9925
▁Stuttgart	-10.9927
▁muhabir	-10.9927
▁İlkokul	-10.9927
▁Charlie	-10.9927
▁konsol	-10.993
▁kullanılmaya	-10.9931
▁Mühendislik	-10.9933
▁başlattı	-10.9934
ла	-10.9938
▁Hakları	-10.9944
Ermeni	-10.9945
▁gerekçesiyle	-10.9948
▁tekerlek	-10.9948
worth	-10.9948
▁Özbekistan	-10.9949
▁Danışma	-10.995
▁Water	-10.996
Gül	-10.9965
▁ittifak	-10.997
▁atmıştır	-10.997
▁imzalanan	-10.9976
▁Portekizli	-10.998
▁vurgu	-10.9982
2022	-10.9984
▁bırakma	-10.9985
▁Başlangıçta	-10.9991
▁Sayfası	-10.9991
▁Silkme	-10.9991
▁millet	-10.9991
▁kaldırıldı	-10.9998
Doğum	-11.0017
▁atletler	-11.0018
Christ	-11.0019
▁diplomatik	-11.0021
▁bacak	-11.0025
▁İstatistik	-11.003
▁bulunması	-11.0032
В	-11.0034
▁muhafaza	-11.0034
▁Elektrik	-11.0034
▁Nicola	-11.0034
▁hepsi	-11.0037
▁çarpı	-11.0039
▁başlanmıştır	-11.0043
▁düşmesi	-11.0049
▁koleksiyonu	-11.0053
noktası	-11.0055
▁German	-11.0055
▁peynir	-11.0055
▁Prenses	-11.0055
▁rakip	-11.0056
▁otorite	-11.0056
▁1,5	-11.0059
▁egemenliği	-11.0061
dorf	-11.0064
▁Programı	-11.0067
▁şefi	-11.0072
Filmografi	-11.0076
▁Hollywood	-11.0077
▁eğilim	-11.0077
▁Kaymakam	-11.0077
▁(1984)	-11.0077
▁oluşturma	-11.0078
1942	-11.0078
▁programlama	-11.0083
UTC	-11.0087
▁dönen	-11.0088
▁temalı	-11.009
▁Enerji	-11.0098
▁Sadece	-11.01
▁Güler	-11.01
▁fikri	-11.01
▁düşen	-11.01
▁1903	-11.0101
▁direktörlük	-11.0106
▁Pekin	-11.0109
▁mitolojisinde	-11.0113
▁sütun	-11.0117
▁Yang	-11.0118
▁gruba	-11.012
-2016	-11.0121
▁organize	-11.0122
▁İstatistikleri	-11.0124
▁halkının	-11.0129
▁voleybolcular	-11.0137
η	-11.0142
▁Production	-11.0142
▁Gönül	-11.0142
ни	-11.0144
▁atış	-11.0148
▁ilham	-11.0149
▁miktarı	-11.015
▁aralık	-11.0157
▁Diş	-11.0157
IR	-11.016
▁enfeksiyon	-11.0163
▁müşteri	-11.0164
▁Tayland	-11.0164
▁Alexandr	-11.0164
▁fabrikası	-11.0164
▁adlandırılmış	-11.0165
▁Köprüsü	-11.0165
▁Şerif	-11.0165
▁Marcel	-11.0169
:16.	-11.018
▁hücreleri	-11.0181
▁Sekreter	-11.0183
▁sponsor	-11.0185
▁yaptıkları	-11.0186
▁güneybatısında	-11.0187
▁dökül	-11.0188
fect	-11.0191
▁bağlanmıştır	-11.0191
▁Düz	-11.0192
▁Arif	-11.0194
▁endüstrisi	-11.0195
▁Allah	-11.0196
▁Uçak	-11.02
▁bö	-11.0206
▁Jung	-11.0206
▁Hizmetler	-11.0206
▁Kızılderili	-11.0207
▁mevsim	-11.0207
▁Donanması	-11.0207
1986	-11.0216
▁değişikliği	-11.0221
ebilecek	-11.0226
▁Dergi	-11.0227
▁güncel	-11.0227
▁Sher	-11.0228
▁Xbox	-11.0229
▁Borsası	-11.0229
▁Jordan	-11.0229
▁Indiana	-11.023
David	-11.023
▁ayrılmaktadır	-11.0231
▁etap	-11.0241
1871	-11.0243
▁ortamı	-11.0249
▁kodu	-11.0252
▁pişir	-11.0253
1881	-11.0254
▁koşulları	-11.0257
▁Sig	-11.0261
▁Mass	-11.0265
▁Avcı	-11.0266
Č	-11.0273
▁Matthew	-11.0273
▁Mahmud	-11.0273
▁sözleşmesi	-11.0274
▁kuşatma	-11.0275
▁denilen	-11.0276
▁portre	-11.0276
▁Futbolculuk	-11.0276
▁Tuş	-11.0279
▁ayrılma	-11.028
0%	-11.0283
▁1890	-11.0289
▁Liverpool	-11.0295
▁muhalefet	-11.0295
▁çeşidi	-11.0295
▁Yarımadası	-11.0295
▁Koparma	-11.0295
▁restoran	-11.0295
▁frekans	-11.0295
müzik	-11.0297
▁ağrı	-11.03
▁sendromu	-11.0303
Yol	-11.0306
▁başlaması	-11.0307
▁milliyetçi	-11.0317
▁sertifika	-11.0317
▁kenarında	-11.0318
▁yarattı	-11.0324
▁Ünlü	-11.0325
▁yükselme	-11.0327
▁vermeye	-11.0327
▁uyum	-11.0333
▁çeken	-11.0335
▁Anthony	-11.0339
▁disiplin	-11.0339
▁Soccer	-11.0339
▁Manuel	-11.034
▁krallığı	-11.034
▁Yahudileri	-11.0341
İnsan	-11.0342
▁ilerleme	-11.0345
▁grubudur	-11.0349
▁beden	-11.0354
▁Hayır	-11.0358
▁Lyon	-11.0359
750	-11.0359
ق	-11.0361
▁Spring	-11.0361
▁Etki	-11.0362
▁rahatsız	-11.0362
book	-11.0368
Play	-11.037
▁Woman	-11.038
▁California	-11.0384
▁fantastik	-11.0384
▁piyano	-11.0384
kuyu	-11.0391
yurt	-11.0392
ammad	-11.0404
▁Arslan	-11.0407
▁Heat	-11.0409
▁geliştirilmiş	-11.041
▁2019-20	-11.0417
▁gücünü	-11.0426
▁dergisinde	-11.0429
▁geometri	-11.0429
▁getirilmiştir	-11.0433
▁Çık	-11.0435
ağaç	-11.0436
ор	-11.0439
▁sektör	-11.044
▁Hell	-11.0441
▁Halter	-11.045
▁Pozisyon	-11.045
▁2006-07	-11.0451
eux	-11.0451
▁Mobile	-11.0451
suzluk	-11.0452
▁değiştirme	-11.0452
▁Performansı	-11.0452
▁Now	-11.0453
▁bebek	-11.0454
▁Ozan	-11.0454
Çağdaş	-11.0461
▁anlatır	-11.0462
▁Mou	-11.0472
▁Association	-11.0473
▁WWE	-11.0473
▁Alfred	-11.0473
▁Belgrad	-11.0474
ان	-11.0475
▁verimli	-11.0475
▁organı	-11.0478
▁Lind	-11.0488
▁köle	-11.0488
▁hidro	-11.0488
▁Güneydoğu	-11.0495
▁tat	-11.0499
Küçük	-11.05
▁yükseklikte	-11.0501
▁DNA	-11.0509
Live	-11.0509
▁basınç	-11.051
▁tüccar	-11.0518
▁otobüs	-11.0518
▁hayran	-11.0518
▁büyükelçileri	-11.0524
▁Gelen	-11.0525
▁Whit	-11.0525
▁türünde	-11.0527
▁ağzı	-11.0528
▁tuş	-11.0529
▁kurumu	-11.053
▁teklisi	-11.0531
ро	-11.0533
▁eyaletinin	-11.0537
▁Francis	-11.0537
▁sağlama	-11.0537
▁(2020)	-11.0541
Bulgar	-11.0546
▁yaparken	-11.055
Yayınlanma	-11.0551
▁bahş	-11.0552
ს	-11.0563
υ	-11.0563
▁Çünkü	-11.0563
▁Karabük	-11.0563
▁Samuel	-11.0563
▁nahiyesine	-11.0565
layıp	-11.0565
▁tutuklandı	-11.0572
▁%6	-11.0574
▁üçgen	-11.0578
▁dönemlerde	-11.0581
▁sorunlar	-11.0581
▁Slovenya	-11.0586
▁Amir	-11.0586
▁Başkent	-11.0587
▁kuzeybatısında	-11.0588
▁edip	-11.0592
▁pandemisi	-11.0593
▁girer	-11.0596
▁hukuku	-11.0601
▁Pont	-11.0602
Т	-11.0608
▁Mücadele	-11.0608
▁Öğrenci	-11.0608
▁Digital	-11.0609
▁Matematik	-11.0609
▁başbakanı	-11.0614
İslam	-11.0615
Buffy	-11.0621
▁anılan	-11.0621
▁1876	-11.0621
▁getiren	-11.0629
▁gösterdiği	-11.0631
æ	-11.0631
▁Gümrük	-11.0631
▁genetik	-11.0632
ılıp	-11.0644
▁olmaması	-11.0648
▁Columbia	-11.0654
▁Abdul	-11.0655
▁çoğunu	-11.0657
▁Celal	-11.0663
▁sınav	-11.0664
▁tesisleri	-11.0665
▁Projesi	-11.0671
▁gösterilen	-11.0672
▁kalesi	-11.0674
▁suikast	-11.0677
▁etiketiyle	-11.0677
▁oluşturdu	-11.0684
Almanca	-11.0685
Break	-11.0685
▁Düzce	-11.0686
tino	-11.0687
Sloven	-11.0689
▁Gökhan	-11.0691
NK	-11.0692
▁Ermenice	-11.0693
▁hü	-11.0693
Rock	-11.0694
CR	-11.0696
×	-11.07
▁grekoromen	-11.07
hanesi	-11.07
▁rapçi	-11.0701
▁kimliği	-11.0703
▁Yayla	-11.0706
▁formu	-11.0718
▁nahiye	-11.0721
ж	-11.0723
▁Amsterdam	-11.0723
▁görünüş	-11.0723
Ödül	-11.0732
▁kapağı	-11.0735
▁yaptıktan	-11.0736
▁Önemli	-11.0746
▁Turnuvası	-11.0746
▁şerit	-11.0746
▁Hamburg	-11.075
▁kablo	-11.075
Açık	-11.0756
▁Mimarlık	-11.0762
▁turnuvası	-11.0762
▁çevirmen	-11.0766
ա	-11.0769
▁Yurdu	-11.0769
gâh	-11.077
▁konuşan	-11.077
▁yağmur	-11.0772
▁elçi	-11.078
▁Four	-11.0788
▁gölü	-11.079
მ	-11.0792
▁Athletic	-11.0792
▁çeyrek	-11.0792
▁Kıta	-11.0794
▁kimi	-11.0799
▁Konferansı	-11.08
▁Gökçe	-11.0807
▁sorunu	-11.0812
▁boyutlu	-11.0813
▁emir	-11.0814
▁kapak	-11.0817
▁şansı	-11.0818
▁tabanı	-11.082
▁Norman	-11.082
▁Halep	-11.0821
▁Tibet	-11.0823
▁ulaşmıştır	-11.0824
▁varlığını	-11.0833
▁foto	-11.0836
▁mahkûm	-11.0839
▁çikolata	-11.0839
▁sürdürmektedir	-11.0839
▁olama	-11.0841
▁bölgeyi	-11.0843
Claudi	-11.0848
▁Kanunu	-11.085
▁mono	-11.0856
ин	-11.0858
▁bozukluk	-11.0862
▁boyunda	-11.0862
▁alınarak	-11.0868
▁parmak	-11.0872
UR	-11.0873
▁Artist	-11.0873
▁kesiminde	-11.088
▁Sofya	-11.0886
1930	-11.0888
ianus	-11.0888
▁Cass	-11.0888
6.5	-11.0889
1933	-11.0896
▁şarkısıyla	-11.0897
▁Carey	-11.09
▁Jason	-11.0907
▁derleme	-11.0908
▁teşkil	-11.0908
▁heykeltıraş	-11.0909
▁havza	-11.0909
▁İlhan	-11.0915
Port	-11.092
5.5	-11.0922
NR	-11.0926
▁Lüksemburg	-11.0932
▁seyirci	-11.0932
ვ	-11.0932
▁André	-11.0934
▁ağız	-11.0938
ش	-11.0956
▁Douglas	-11.0956
▁alışveriş	-11.0956
▁direniş	-11.0956
▁kraliçe	-11.0956
▁(2022)	-11.0956
▁yönetti	-11.0957
▁mümkündür	-11.0958
▁felsefesi	-11.0964
▁önemi	-11.0979
▁başlığı	-11.0979
▁hoş	-11.0979
▁Michigan	-11.0979
▁potansiyel	-11.0979
▁vücudu	-11.0979
▁hapse	-11.098
▁attığı	-11.0981
▁kayıtlarda	-11.0982
▁kongre	-11.0983
▁çalışmaktadır	-11.0985
zhou	-11.0987
▁Morgan	-11.0991
▁gerektiğini	-11.1003
▁İktisadi	-11.1003
▁Organizasyon	-11.1003
▁Meryem	-11.1003
▁Piyade	-11.1004
▁buraya	-11.1005
▁'''-'''	-11.1006
▁Kill	-11.1006
▁Women	-11.1011
▁karşılıklı	-11.1011
▁kısımları	-11.1018
▁buzul	-11.1019
▁Demirspor	-11.102
▁alkol	-11.1024
▁logosu	-11.1027
▁trafik	-11.1028
▁sakla	-11.103
▁Ltd	-11.1032
▁katılmış	-11.1035
Grup	-11.1041
▁Ankaragücü	-11.105
▁kıyafet	-11.105
▁Hamilton	-11.105
▁yönetmenliği	-11.1068
Liber	-11.107
▁İsti	-11.1072
▁Atlanta	-11.1075
▁Haydar	-11.108
▁Call	-11.1081
1920	-11.1082
▁Küba	-11.1086
Battle	-11.1091
▁tanınma	-11.1095
▁3-2	-11.1097
▁nükleer	-11.1098
▁çalgı	-11.1098
▁yürürlü	-11.1098
▁Fırat	-11.1098
▁kutsal	-11.1098
▁şekilleri	-11.11
▁keman	-11.1118
▁cümle	-11.1122
▁sunuldu	-11.1124
▁bulur	-11.1131
▁İbn	-11.1133
▁Parlamento	-11.1137
▁element	-11.1142
▁izleme	-11.1145
▁Liberal	-11.1146
▁gerçekleştirdi	-11.1147
▁olmayı	-11.1149
▁Ümit	-11.1149
uklu	-11.1149
0.5	-11.1155
▁Şef	-11.1157
▁teması	-11.1159
AZ	-11.1161
▁Bağdat	-11.117
▁Viktor	-11.1171
▁Hakem	-11.1171
▁türündeki	-11.1172
▁uğradı	-11.1177
1934	-11.1181
▁Johnny	-11.1186
NBA	-11.1187
▁geleneği	-11.1189
Р	-11.1194
▁Isparta	-11.1194
1861	-11.1196
▁hep	-11.1203
▁tuttu	-11.1207
▁değerleri	-11.1217
▁Katedrali	-11.1218
▁Temsilciler	-11.1218
▁Harvard	-11.1218
▁Özgürlük	-11.1221
6.0	-11.1222
▁kulak	-11.1227
▁doğduğu	-11.1231
▁bateri	-11.1232
▁İttifak	-11.1243
▁Üretim	-11.1243
▁Jacob	-11.1243
▁Field	-11.1243
abilmek	-11.125
▁Evren	-11.1253
▁modelleri	-11.126
▁Kiev	-11.1268
▁Melek	-11.1273
▁Temp	-11.1276
köprü	-11.1284
doğum	-11.1285
▁Yemen	-11.129
И	-11.1291
ة	-11.1291
▁Selanik	-11.1291
▁bulunmaktaydı	-11.1293
▁Oranı	-11.1293
Asya	-11.1297
▁Levent	-11.1301
▁tenis	-11.1301
iyot	-11.1307
▁dansçı	-11.131
Deniz	-11.131
▁Müsabaka	-11.1315
▁Wikipedia	-11.1315
▁Houston	-11.1316
▁resmen	-11.1316
amayan	-11.1316
▁Kongo	-11.1317
▁yazıldı	-11.1322
▁yetiştiri	-11.1331
▁finalinde	-11.1333
▁seçilme	-11.1335
▁anlaşması	-11.1337
1937	-11.1338
ý	-11.134
▁Eleştirmenleri	-11.134
▁Kırşehir	-11.1341
▁(1985)	-11.1342
▁yüzücü	-11.1344
▁göstermiştir	-11.1347
▁bitiş	-11.1352
▁Kelly	-11.1354
▁balıkçı	-11.1362
▁gerçekleşir	-11.1364
▁(1981)	-11.1365
▁mekanizma	-11.1365
▁yardımıyla	-11.1368
▁boru	-11.1369
▁depolama	-11.1371
▁Şeker	-11.1373
print	-11.1374
Paul	-11.1378
▁kurgu	-11.1381
▁bağlıyken	-11.1386
▁Niğde	-11.1389
▁kaybetmiş	-11.1391
▁kurulduğu	-11.1397
▁Vikipedi	-11.1414
▁0.1	-11.1425
▁Silver	-11.1434
ج	-11.1438
▁hacmi	-11.1439
şarkı	-11.1441
▁Chang	-11.1441
▁Çor	-11.1444
İsveç	-11.1459
▁dayanır	-11.1463
▁Bahar	-11.1468
▁öğrenme	-11.1475
▁Boris	-11.1479
Adalet	-11.1485
▁%0,6	-11.1491
svg	-11.1491
▁Orkestrası	-11.1494
▁Özbek	-11.1495
Hint	-11.1495
▁Umut	-11.1506
▁birbiri	-11.1512
▁dışişleri	-11.1513
▁senatör	-11.1513
▁Kiralık	-11.1513
Sweet	-11.1517
ault	-11.1519
▁ölme	-11.152
▁Stadyum	-11.1522
Peter	-11.1524
▁Kağan	-11.1527
Spor	-11.1527
▁Marcus	-11.1531
roid	-11.1534
▁bilinme	-11.1535
▁başlıklı	-11.1538
▁Yargıtay	-11.1538
▁tatil	-11.1539
▁danışmanı	-11.1539
▁tasarlanmıştır	-11.1542
▁Bruce	-11.1542
▁imparatoru	-11.1548
Repesaj	-11.1563
▁Moldova	-11.1563
▁Toronto	-11.1563
▁Online	-11.1563
▁Koyu	-11.1574
▁nitelik	-11.1588
▁Hikaye	-11.1588
▁(1983)	-11.1589
▁şubesi	-11.159
▁Familya	-11.1591
▁Howard	-11.1591
▁%1,2	-11.1594
▁olacaktır	-11.1594
▁Cemil	-11.1595
▁fonksiyonu	-11.1597
▁açtığı	-11.16
▁yaratma	-11.16
▁yönetme	-11.1607
Seçilenler	-11.1613
▁Fernando	-11.1613
▁güneydoğusunda	-11.1613
▁kampı	-11.1613
▁Channel	-11.1613
▁yeryüzü	-11.1614
▁(1980)	-11.1615
▁Sınır	-11.1615
▁Vasil	-11.1616
▁görünme	-11.1629
FIFA	-11.1637
▁Giovanni	-11.1638
▁zehir	-11.1638
▁ayrılmış	-11.1639
▁Güngör	-11.1639
▁yapılacak	-11.1642
▁düet	-11.1643
▁Miami	-11.1654
▁alınır	-11.1657
і	-11.1663
▁görülebilir	-11.1663
▁kapsamlı	-11.1663
▁demokrat	-11.1663
▁olumsuz	-11.1663
▁Ekrem	-11.1667
▁Oct	-11.1671
▁Tuva	-11.1674
work	-11.1675
▁India	-11.1677
mund	-11.1681
ли	-11.1688
▁Antarktika	-11.1689
Н	-11.1689
▁keşfedildi	-11.1689
eiro	-11.1695
▁girerek	-11.1697
▁güzellik	-11.1701
Afrika	-11.1714
▁Geleneksel	-11.1714
▁protokol	-11.1714
Slovak	-11.1714
▁konseyi	-11.1714
▁koleksiyon	-11.1717
▁anısına	-11.1718
▁bağlantısı	-11.1719
▁artış	-11.1719
▁donanması	-11.172
▁örtü	-11.1721
▁geçmesi	-11.1723
Miss	-11.1726
π	-11.1739
▁Theodor	-11.174
▁Değer	-11.174
▁Siyah	-11.1742
▁akımı	-11.1746
▁2015-16	-11.1754
▁Sports	-11.176
О	-11.1765
▁fırsat	-11.1765
▁lehçe	-11.1765
▁Görüntü	-11.1765
▁Timur	-11.1768
▁yetişti	-11.177
▁Kosta	-11.1774
▁Crow	-11.1775
▁+4	-11.1788
▁korunması	-11.1789
▁tamamlandı	-11.179
▁Yüzyıl	-11.1791
ABD	-11.1792
▁(1982)	-11.1792
▁(1978)	-11.1792
▁zorla	-11.1796
▁Napoli	-11.1799
▁Gill	-11.1802
▁Hugh	-11.1809
Á	-11.1816
▁Kadıköy	-11.1816
▁Anderson	-11.1816
▁aynalı	-11.1817
▁liderliği	-11.1817
▁Kahire	-11.1818
Soğuk	-11.1819
Kanada	-11.1819
▁Asker	-11.1824
▁Tahran	-11.183
▁0.3	-11.1838
vizyona	-11.1842
▁doğrultusunda	-11.1842
▁Twitter	-11.1842
▁vakıf	-11.1842
▁kıyasla	-11.1842
Tokyo	-11.1844
▁görüntüsü	-11.1844
▁atıcı	-11.1849
Ölüm	-11.1849
▁Pedro	-11.185
Big	-11.1857
▁oyuncusudur	-11.1864
▁Milliyet	-11.1867
▁Büyükelçisi	-11.1868
▁defnedildi	-11.1868
县	-11.1868
▁havalimanı	-11.1868
▁kahve	-11.1868
▁Earth	-11.1868
▁Filipinler	-11.1868
▁geçemedi	-11.1868
▁delege	-11.1869
▁şampiyonluğunu	-11.1869
▁kutlama	-11.1872
▁metni	-11.1874
Abhaz	-11.1875
Tarihçe	-11.1877
flor	-11.1881
▁zırhlı	-11.1884
▁Organ	-11.1893
▁cemaat	-11.1894
▁piyanist	-11.1894
▁katliam	-11.1894
▁inanç	-11.1894
▁Jüri	-11.1894
▁havacılık	-11.1901
▁sürücü	-11.1904
▁sağlam	-11.1905
▁duvarı	-11.1905
▁Marvel	-11.1905
Oyun	-11.1917
▁yumuşak	-11.1919
▁Vincent	-11.192
▁Adrian	-11.1922
▁yayınlanmış	-11.1933
▁Polat	-11.1937
▁gittiği	-11.1941
Luc	-11.1942
▁Aviv	-11.195
Claude	-11.1955
▁ekipman	-11.196
▁Silah	-11.1961
▁sessiz	-11.1964
▁Üstün	-11.1969
▁Want	-11.197
თ	-11.1971
▁Sebastian	-11.1971
▁Mektebi	-11.1971
▁Sibirya	-11.1972
▁ışın	-11.1972
▁denetim	-11.1973
▁gerektiği	-11.1975
▁imalat	-11.1975
Arkadaş	-11.198
▁istatistik	-11.1993
▁Heykel	-11.1998
▁federal	-11.1998
▁Doğal	-11.1998
▁Kafkas	-11.2001
▁kurmuştur	-11.2005
▁coğrafya	-11.2007
loğu	-11.2013
▁çıkarılan	-11.2014
ów	-11.2018
▁alınmış	-11.2023
▁roket	-11.2025
▁tamamlayan	-11.2029
abileceği	-11.203
▁şov	-11.2031
▁%0,3	-11.2031
▁çerçeve	-11.2047
Д	-11.205
▁Bilgisayar	-11.205
▁gönüllü	-11.205
▁boksör	-11.205
▁olsun	-11.205
▁Siirt	-11.205
Deutsch	-11.2051
▁bırakıl	-11.2052
▁yarıştı	-11.2052
▁görmüştür	-11.2053
▁bulunuyordu	-11.2053
▁çiftçi	-11.2058
▁saptan	-11.206
▁astronomik	-11.2062
▁sevgi	-11.2062
▁iyon	-11.2068
Korku	-11.207
▁Jennifer	-11.2076
▁atmosfer	-11.2076
▁sömürge	-11.2076
▁tarayıcı	-11.2076
▁cevap	-11.2076
▁Portakal	-11.2076
▁ikamet	-11.2076
▁Website	-11.2077
▁Politika	-11.2077
▁havuz	-11.2077
▁yedek	-11.2077
▁Libya	-11.2077
▁Bitki	-11.2077
▁dernek	-11.2078
▁Reich	-11.2079
▁edebilir	-11.2079
LGBT	-11.2082
American	-11.2082
▁sakat	-11.2084
▁belirlenen	-11.2087
▁ordusunun	-11.2095
Yunanca	-11.2099
′	-11.2103
▁Varşova	-11.2103
▁doçent	-11.2103
▁British	-11.2103
Three	-11.2114
▁pandemisinde	-11.2121
▁vermesi	-11.2121
▁kazanır	-11.2126
▁bütçe	-11.2129
▁sancağı	-11.2129
▁Saldırı	-11.213
▁(1979)	-11.2131
Bölüm	-11.2135
Hırvat	-11.2135
1926	-11.2136
Robert	-11.2139
▁ihtiyacı	-11.2156
▁görünür	-11.2156
▁Fikret	-11.2156
▁Kazım	-11.2161
▁Link	-11.2162
▁kalıcı	-11.2165
▁tayin	-11.2165
Dallas	-11.2178
▁Bilecik	-11.2182
▁Etimoloji	-11.2182
▁giyim	-11.2183
▁çekilmesi	-11.2185
▁kraliyet	-11.2188
Çocuk	-11.2189
▁ayrılması	-11.219
▁uzaklığı	-11.2202
▁oylama	-11.2206
1935	-11.2208
▁Episode	-11.2209
▁gitaristler	-11.2209
▁pornografi	-11.2209
▁prodüktör	-11.2209
▁2005-06	-11.2209
▁patenci	-11.2209
▁cadde	-11.2209
▁sayede	-11.221
▁Franz	-11.2211
kılıç	-11.2212
▁Göç	-11.2215
▁tahtı	-11.2215
ción	-11.2221
▁kazanması	-11.2229
та	-11.2232
▁üretildi	-11.2232
▁göçmen	-11.2233
ő	-11.2236
ř	-11.2236
ف	-11.2236
▁Comics	-11.2236
ის	-11.2236
ль	-11.2237
Dev	-11.2254
▁vazgeç	-11.2262
▁Premyer	-11.2262
▁Hastalık	-11.2263
▁İklim	-11.2263
▁Mirasları	-11.2263
▁tohum	-11.2264
▁sekizinci	-11.2264
ştırma	-11.2265
▁uyan	-11.2272
▁Murad	-11.2273
▁belirsiz	-11.2277
▁%33,0	-11.2289
▁eşcinsel	-11.2289
▁yüzölçümü	-11.2289
▁Century	-11.2289
▁çekilme	-11.2291
▁Satış	-11.2292
▁çelik	-11.2294
▁Cross	-11.2305
▁oynar	-11.2313
▁bulunuyor	-11.2314
▁sattı	-11.2316
▁%64,0	-11.2316
▁istihbarat	-11.2316
▁Belgesel	-11.2316
▁kuzeydoğusunda	-11.2316
▁Çukur	-11.2316
▁sıkıntı	-11.2316
▁Boeing	-11.2317
▁Rekorlar	-11.2318
▁Operasyon	-11.2321
▁geçirmiştir	-11.2327
Life	-11.2343
▁Boğazı	-11.2343
▁Üsküdar	-11.2343
▁Aksaray	-11.2343
▁Country	-11.2343
▁hektar	-11.2343
▁yapay	-11.2344
▁Christopher	-11.2349
▁düğüm	-11.2354
▁Stalin	-11.2363
▁canlandırdı	-11.2367
▁enstrüman	-11.237
▁Fatma	-11.2375
▁anlaştı	-11.2379
▁Laura	-11.2381
1984	-11.2381
▁Faruk	-11.2381
▁kaplama	-11.2387
▁diploma	-11.239
-1995	-11.2396
▁kuzeybatı	-11.2396
ï	-11.2398
▁Phoenix	-11.2398
▁kullanılmış	-11.2398
▁ölçek	-11.2398
▁Siyaset	-11.2398
▁denklem	-11.2398
▁oynandı	-11.2398
▁endişe	-11.2398
▁Adolf	-11.2398
▁Greg	-11.2398
▁Oğlu	-11.2398
▁Gordon	-11.24
▁yükselmiştir	-11.2402
▁sabah	-11.2403
▁Olma	-11.2403
Sezon	-11.2413
▁karşılaşmasın	-11.2419
▁Lincoln	-11.2425
▁harekât	-11.2425
▁Şırnak	-11.2425
▁atıft	-11.2425
▁manzara	-11.2425
▁Ohio	-11.2425
▁komite	-11.2425
Sonuçlar	-11.2436
▁araştır	-11.244
▁sembolü	-11.2443
▁Malezya	-11.2452
▁başlangıç	-11.2452
▁Ajansı	-11.2452
▁(1976)	-11.2452
▁geliyor	-11.2454
▁tasarlanan	-11.248
▁bellek	-11.248
▁Valentin	-11.248
▁güneybatı	-11.2506
▁Minnesota	-11.2507
▁Dayanışma	-11.2507
▁koruyucu	-11.2507
▁tramvay	-11.2507
▁Müziği	-11.2507
▁Arsenal	-11.2507
▁*****	-11.2508
▁ertesi	-11.2509
dinamik	-11.251
Londra	-11.252
ре	-11.2521
▁akıl	-11.2523
▁cenaze	-11.2535
▁sorgu	-11.2535
▁Osaka	-11.2535
▁Sokak	-11.2536
▁Central	-11.2537
▁oluşmuştur	-11.2539
▁Kulvar	-11.2539
yıldız	-11.2549
▁tapınak	-11.2562
▁Şimdi	-11.2562
▁Summer	-11.2571
▁üzüm	-11.2575
Başarıları	-11.2576
▁1,2	-11.2586
ė	-11.259
▁Yaprak	-11.2592
▁Union	-11.2594
Korece	-11.2594
1929	-11.2603
▁kaybetme	-11.2607
layacak	-11.2611
▁Danıştay	-11.2618
▁FIBA	-11.2618
▁meşhur	-11.2618
▁tescil	-11.2618
▁eğri	-11.2618
▁Söyle	-11.2621
но	-11.2629
̣	-11.2646
▁prodüksiyon	-11.2646
▁Kennedy	-11.2646
▁binlerce	-11.2646
▁devrimci	-11.2646
▁Moğolistan	-11.2647
▁kaybı	-11.265
Atlant	-11.2654
▁uyumlu	-11.2657
▁Chelsea	-11.2674
▁konuşulan	-11.2674
▁People	-11.2674
▁inancı	-11.2674
▁İdman	-11.2674
▁Arşiv	-11.2675
▁psiko	-11.2676
▁Öztürk	-11.2679
▁sağlamıştır	-11.2681
▁çıkarıldı	-11.2682
▁miktar	-11.269
▁golünü	-11.2691
▁Selahattin	-11.2702
▁dayanıklı	-11.2702
▁Kurallarına	-11.2702
▁komisyon	-11.2702
▁Kırgızistan	-11.2702
▁Calcio	-11.2703
▁'''16'''	-11.2705
▁Sivil	-11.2709
ز	-11.273
1928	-11.2733
▁Yayıncılık	-11.2734
▁link	-11.2736
▁seks	-11.274
▁Forest	-11.2741
birinden	-11.2746
▁duyuru	-11.2754
ć	-11.2756
▁maksimum	-11.2758
▁Racing	-11.2758
▁Bridge	-11.2758
▁seslendirilen	-11.2758
▁önüne	-11.2759
▁doktorasını	-11.2763
▁sağlığı	-11.2777
▁Kolej	-11.2784
Angel	-11.2786
▁kuzeydoğu	-11.2786
▁Jonathan	-11.2786
▁sendika	-11.2786
▁ahlak	-11.2787
▁Konak	-11.2788
▁Kürtçe	-11.2795
▁Girit	-11.2801
After	-11.2805
▁Ertuğrul	-11.2814
▁pozitif	-11.2814
▁Universe	-11.2814
▁bağımlı	-11.2815
▁güvenliği	-11.2817
▁kazasında	-11.2832
▁Brook	-11.2832
Şarkı	-11.2832
▁İktisat	-11.2843
▁Institute	-11.2843
▁Tıva	-11.2843
Kürt	-11.2862
▁Universal	-11.2871
▁sürdürmüştür	-11.2871
▁Sidney	-11.2871
▁Again	-11.2874
▁değişme	-11.2891
▁güneydoğu	-11.29
▁karikatür	-11.29
▁Swift	-11.29
▁santral	-11.2901
▁getirir	-11.2901
▁(1977)	-11.2901
▁Senatosu	-11.2905
Bizim	-11.2916
▁alıp	-11.2921
iyye	-11.2928
▁Academy	-11.2928
▁Ürün	-11.293
▁Ertesi	-11.293
▁rahip	-11.2932
▁izleyici	-11.2934
▁yatak	-11.2934
▁gösterilir	-11.2934
▁örtüsü	-11.2936
World	-11.2948
Devlet	-11.295
1923	-11.2954
ę	-11.2957
▁Netflix	-11.2957
▁çözünür	-11.2957
▁Airlines	-11.2957
▁Church	-11.2958
▁Trakya	-11.2958
▁Kulesi	-11.2963
▁İsmet	-11.2967
▁Komedi	-11.2968
ί	-11.2986
▁Nitekim	-11.2986
▁gizem	-11.2986
▁Janeiro	-11.2987
▁Tayyi	-11.2987
▁Bayern	-11.2987
▁2-2	-11.2988
Ghost	-11.299
▁Leonard	-11.2991
▁Rayonu	-11.2998
▁Cannes	-11.3
Kaynak	-11.3004
▁yalnız	-11.3006
‘	-11.3007
▁adalet	-11.3011
▁Marino	-11.3011
1981	-11.3012
▁Wanderers	-11.3015
▁Şövalye	-11.3015
▁liberal	-11.3015
▁sentez	-11.3015
▁Jerry	-11.3015
▁Miguel	-11.3015
▁(1974)	-11.3015
▁mermi	-11.3017
▁sürmüştür	-11.3017
▁paylaştığı	-11.3018
▁olmaktadır	-11.302
▁gitmiş	-11.3021
▁giyme	-11.3021
▁rahat	-11.3021
1927	-11.3023
▁Beach	-11.3031
▁şans	-11.3035
▁Massachusetts	-11.3044
▁reddetti	-11.3044
▁Classic	-11.3045
ktörü	-11.3055
ия	-11.3061
▁0-1	-11.3065
▁Heinrich	-11.3073
▁romancı	-11.3076
▁istek	-11.3079
▁evlenme	-11.3092
▁restore	-11.3102
Yapı	-11.3103
▁tahrir	-11.3103
▁Ceylan	-11.3103
▁Bryan	-11.3104
▁Fethi	-11.3107
▁kazasının	-11.3109
▁Short	-11.311
▁Tarık	-11.3115
▁öldürdü	-11.3127
Hürriyet	-11.3131
▁Endüstri	-11.3131
▁İnönü	-11.3133
▁(1971)	-11.3133
▁oynamış	-11.3137
го	-11.3155
Kalp	-11.3161
▁Ludwig	-11.3161
▁tavsiye	-11.3161
▁müttefik	-11.3161
▁Ziraat	-11.3161
▁mineral	-11.3161
▁Russell	-11.3161
▁plastik	-11.3162
▁(1975)	-11.3162
▁çektiği	-11.3163
▁4-0	-11.3173
▁0,1	-11.3173
▁Çev	-11.3178
▁öldürülmesi	-11.3178
▁gündem	-11.3185
▁Magic	-11.3185
َ	-11.319
▁Dipnotlar	-11.319
▁veritabanı	-11.319
▁durdurul	-11.319
▁Arkeoloji	-11.3191
▁kimlik	-11.3191
▁(1973)	-11.3192
Г	-11.322
▁akşam	-11.322
▁Komiser	-11.322
▁Eyüp	-11.3221
leştirildi	-11.3223
AKP	-11.3229
▁aktarıl	-11.3231
▁taç	-11.3234
▁yetmezliği	-11.3249
▁hayır	-11.325
▁Birkaç	-11.325
▁Haçlı	-11.325
▁Amazon	-11.3251
▁4-1	-11.3259
Adana	-11.3265
▁mevki	-11.3274
ъ	-11.3279
▁Singapur	-11.3279
▁yetersiz	-11.3279
▁Charlotte	-11.3279
▁Library	-11.3279
▁Mexico	-11.3279
▁demektir	-11.3279
▁beceri	-11.3279
▁hakimiyeti	-11.328
▁parçacık	-11.3283
▁aletleri	-11.3284
▁Atilla	-11.3284
▁rota	-11.3287
ucci	-11.3304
boğa	-11.3306
▁helikopter	-11.3309
▁Ürdün	-11.3309
▁Stewart	-11.3309
▁Tekirdağ	-11.3309
▁Geçerli	-11.3309
▁Knight	-11.3309
▁(2021)	-11.331
▁Senato	-11.3314
▁belirlenmiştir	-11.3315
▁organik	-11.332
▁balığı	-11.3327
▁Intel	-11.3329
Mısır	-11.3335
▁yazarlığı	-11.3336
Kısa	-11.3337
İbranice	-11.3338
▁Bülbül	-11.3338
▁Öğretim	-11.3338
▁Nacional	-11.3338
▁ibadet	-11.3339
▁Stadium	-11.3339
▁karanlık	-11.3339
When	-11.3345
▁Boğaziçi	-11.3368
▁çekirdeği	-11.3368
▁Karolina	-11.3368
▁Lefkoşa	-11.3368
▁teorem	-11.3368
▁Barbara	-11.3369
▁Nelson	-11.3369
▁ilerleyen	-11.3369
▁Lakers	-11.3369
▁Demiryolu	-11.3371
▁kapsar	-11.3374
▁bitirmiştir	-11.3374
▁komut	-11.3382
Büyü	-11.3394
▁kalabalık	-11.3398
▁Tevfik	-11.3398
▁Sigorta	-11.3398
▁Taksim	-11.34
▁yaşamıştır	-11.3405
▁Court	-11.3419
▁sıcaklığı	-11.3424
▁azalma	-11.3426
▁Studio	-11.3427
γ	-11.3429
▁Middle	-11.3429
▁Çekoslovakya	-11.3429
▁Şeref	-11.3429
▁robot	-11.3429
▁Samsunspor	-11.3439
▁çekici	-11.3441
▁Geniş	-11.3442
Brezilya	-11.3457
▁Mihail	-11.3459
▁pembe	-11.3459
▁lakabı	-11.3459
▁Kullanım	-11.3459
▁Yazılım	-11.3459
MKE	-11.3471
▁kozm	-11.3487
▁Çavuş	-11.3489
▁hokeyi	-11.3489
▁taşıyıcı	-11.3489
▁gelerek	-11.3489
▁Saadet	-11.3491
▁uzaklaş	-11.3491
▁Gösteri	-11.35
▁yönlendir	-11.351
▁yayımlanma	-11.3511
▁sürdürü	-11.3513
▁Hacettepe	-11.3519
BAFTA	-11.352
▁Sorumlu	-11.352
▁görünen	-11.352
▁özgürlüğü	-11.3523
▁oynat	-11.3531
laşır	-11.3538
Diğer	-11.355
▁Linnaeus	-11.355
▁Stockholm	-11.355
▁şövalye	-11.355
▁Seattle	-11.355
▁Office	-11.355
▁PKK	-11.355
▁aygıt	-11.355
▁Erivan	-11.355
▁Internet	-11.3555
▁Basket	-11.3558
▁Review	-11.3562
▁düzenlediği	-11.3563
▁klasman	-11.3579
Genç	-11.3581
$	-11.3581
▁rezerv	-11.3581
Fransızca	-11.3581
▁değin	-11.3581
▁piyade	-11.3581
▁gayri	-11.3582
▁düzenledi	-11.3582
▁çerçevesinde	-11.3584
oğraf	-11.3588
▁direktördür	-11.3589
▁üretilmiş	-11.359
▁unut	-11.3592
▁Adventure	-11.3611
▁tercüme	-11.3611
▁Türkmenistan	-11.3613
▁sakinleri	-11.3613
▁verilmiş	-11.3614
▁kuşağı	-11.3625
leştirdi	-11.3631
▁egemen	-11.3634
leştirilmiş	-11.3635
Ğ	-11.3642
▁Oliver	-11.3643
▁Georgi	-11.365
▁Uzak	-11.3652
Defter	-11.3672
▁Senarist	-11.3673
▁Cooper	-11.3673
▁mutlak	-11.3673
▁Hekim	-11.3675
▁kurmuş	-11.3678
▁Pilot	-11.3683
▁mekanik	-11.3683
▁mantar	-11.3687
▁Guide	-11.3697
▁önderliğinde	-11.3704
▁hikaye	-11.3704
▁istila	-11.3704
▁Yahya	-11.3704
craft	-11.3705
▁Harita	-11.3713
▁Fırkası	-11.3735
▁sürülmüştür	-11.3735
▁Catherine	-11.3735
ûrî	-11.3735
▁Margaret	-11.3735
▁Horasan	-11.3735
▁tünel	-11.3735
▁görmüş	-11.3736
▁Edition	-11.3739
▁Emmy	-11.3741
▁tanımlanır	-11.3743
▁kullanmıştır	-11.3745
▁hadis	-11.3752
▁Barselona	-11.3766
▁neticesinde	-11.3766
▁Genelkurmay	-11.3766
▁rivayet	-11.3766
▁hediye	-11.3766
▁(1970)	-11.3766
▁Eddie	-11.3766
▁maddi	-11.3767
▁verilmektedir	-11.3767
▁yolunu	-11.3773
▁Yayınevi	-11.3773
▁kalıp	-11.3775
▁Vakıf	-11.3789
▁doğmuş	-11.3796
▁yemeği	-11.3797
▁ufak	-11.3797
▁Donald	-11.3797
▁benzeyen	-11.38
▁bozulma	-11.3801
Savaş	-11.3801
lararası	-11.3803
▁denizaltı	-11.3803
▁Mühendis	-11.3812
▁Paraguay	-11.3829
▁laboratuvar	-11.3829
▁levha	-11.3829
▁jüri	-11.3829
▁2004-05	-11.3829
▁Madonna	-11.3829
▁Ticari	-11.3829
▁eğer	-11.383
▁koltuk	-11.383
▁Gökada	-11.383
С	-11.3833
▁fra	-11.386
▁Brüksel	-11.386
▁Tennessee	-11.386
▁ortaokul	-11.386
▁Slovakya	-11.3861
École	-11.3861
▁1,9	-11.3861
Série	-11.3861
Blue	-11.388
ì	-11.3892
▁yeğeni	-11.3892
▁NASA	-11.3892
▁Theatre	-11.3892
▁üreme	-11.3894
▁karıştı	-11.3897
▁korsan	-11.3898
ě	-11.3923
▁Lawrence	-11.3923
▁Leipzig	-11.3923
▁ağabeyi	-11.3923
▁Popüler	-11.3923
▁Ronald	-11.3924
▁Çeşme	-11.3924
Champion	-11.3927
▁Muhafız	-11.3955
▁Helsinki	-11.3955
▁Detroit	-11.3955
▁bayram	-11.3955
▁yavru	-11.3955
▁Barajı	-11.3956
▁bedeli	-11.3956
▁Kırgız	-11.3986
э	-11.3987
nispeten	-11.3987
▁sağlamaktadır	-11.3987
▁tanıtıldı	-11.3989
Şeytan	-11.3993
▁tanımlanmıştır	-11.3994
▁Tugay	-11.4
▁−1	-11.4001
ometri	-11.4007
▁1,0	-11.4009
▁Orada	-11.4018
▁Mülkiye	-11.4019
▁avantaj	-11.4019
▁dinozor	-11.4019
▁botanik	-11.4019
▁minare	-11.402
▁Eugen	-11.402
▁ideoloji	-11.402
▁Blanc	-11.4023
Arjantin	-11.4026
▁Ofisi	-11.4026
▁1,7	-11.4031
Mobil	-11.4035
▁aktivite	-11.4051
▁oksijen	-11.4051
▁Point	-11.4078
ბ	-11.4083
▁Teşkilatı	-11.4083
▁satranç	-11.4083
უ	-11.4083
▁Çoban	-11.4083
▁slogan	-11.4083
▁Phone	-11.4083
▁güncelleme	-11.4098
▁Salvador	-11.4115
▁materyal	-11.4115
▁yelken	-11.4115
▁seçenek	-11.4115
▁(1972)	-11.4117
▁özeti	-11.4121
▁soruşturma	-11.4148
▁Dublin	-11.4148
▁restorasyon	-11.4148
▁sıfat	-11.4148
Count	-11.4148
▁Warriors	-11.4148
▁deyişle	-11.4153
▁edici	-11.4154
▁zırh	-11.416
press	-11.4175
Å	-11.418
▁Raymond	-11.418
▁Göztepe	-11.4183
Kızıl	-11.419
evski	-11.4195
▁peygamber	-11.4213
▁gelişen	-11.4213
▁Sancağı	-11.4213
▁kamyon	-11.4213
▁boğaz	-11.4214
▁yürütmüştür	-11.4215
▁47,5	-11.422
▁bant	-11.4221
Coupe	-11.4226
▁Russia	-11.423
▁endüstri	-11.4231
▁1,3	-11.4235
▁Çalış	-11.424
▁Benjamin	-11.4245
▁aşiret	-11.4246
▁Vegas	-11.4246
▁oluşturuldu	-11.4247
Beyaz	-11.4271
▁çalışmış	-11.4277
ą	-11.4278
▁Yüksekokulu	-11.4278
▁mürettebat	-11.4278
▁Çarşamba	-11.4278
▁Mitchell	-11.4278
▁belirtilmiştir	-11.4278
▁düşünülen	-11.4278
▁Ortaokul	-11.4278
▁Zirve	-11.4278
Özgür	-11.429
Görev	-11.429
Royal	-11.4293
▁önlemek	-11.4299
▁CEO	-11.4311
▁tanınmaktadır	-11.4312
▁KBS	-11.4312
▁çarpışma	-11.4313
▁vuruş	-11.4315
▁düşürü	-11.4317
▁davran	-11.4324
Diplo	-11.4325
▁olimpiyat	-11.4344
▁niteliğinde	-11.4344
▁azınlık	-11.4345
▁sunmaktadır	-11.4345
▁amcası	-11.4346
▁bölünme	-11.4351
fizik	-11.4359
▁Etiyopya	-11.4377
▁uyuşturucu	-11.4377
동	-11.4377
خ	-11.4377
▁İşbirliği	-11.4377
▁(1968)	-11.4377
égion	-11.4381
▁kaldırılmıştır	-11.4381
Yunanistan	-11.4392
▁enzim	-11.4401
▁Shield	-11.4411
▁Ramazan	-11.4411
▁sultan	-11.4411
▁Lanka	-11.4415
siklet	-11.4415
▁Çakır	-11.4415
▁1,6	-11.4419
abilmesi	-11.4438
prefektörlük	-11.4444
▁Yiğit	-11.4444
:1921	-11.4444
ος	-11.4444
▁mantık	-11.4448
▁hapishane	-11.4452
Uluslararası	-11.4458
▁bağlanma	-11.4462
▁IMDb	-11.4477
▁Campbell	-11.4477
▁birleşerek	-11.4477
▁Telekom	-11.4477
▁bulunabilir	-11.4481
Strange	-11.4493
ș	-11.4511
▁Geliştirme	-11.4511
▁yerleşik	-11.4511
▁atölye	-11.4511
▁Menderes	-11.4511
▁gömüldü	-11.4511
▁Hükümeti	-11.4513
▁başlayıp	-11.4514
▁üretilmiştir	-11.4522
BĞMSZ	-11.4544
▁algoritma	-11.4544
▁Christmas	-11.4544
▁Efsane	-11.4544
▁Orleans	-11.4544
▁Special	-11.4544
▁belirtmiştir	-11.4544
▁Standart	-11.4544
▁yamaç	-11.4545
▁Seslendirme	-11.4546
▁Africa	-11.4546
▁sunulmuştur	-11.4546
▁liderliğindeki	-11.4547
▁kiralandı	-11.456
Takım	-11.4561
▁uyu	-11.4573
ω	-11.4578
▁bozukluğu	-11.4578
Taksonomi	-11.4578
▁Nancy	-11.4578
▁mekân	-11.4578
▁fırın	-11.4581
▁prim	-11.4581
▁çözül	-11.4581
▁Oktay	-11.4583
▁etiket	-11.4583
▁Scene	-11.4584
court	-11.4596
8.0	-11.4599
▁Santiago	-11.4612
▁hesabı	-11.4612
▁Yargı	-11.4613
▁tahrip	-11.4614
▁çözme	-11.4619
Litvan	-11.4624
Michael	-11.4629
▁Mevcut	-11.4646
▁sıfır	-11.4646
▁yuvarlak	-11.4646
▁Sicilya	-11.4646
▁spektr	-11.4646
▁Çınar	-11.4646
Heavy	-11.4648
▁sunma	-11.4656
▁ediliyor	-11.4656
Grand	-11.4658
Diskografi	-11.4664
▁adlandırıldı	-11.4664
eçildiği	-11.4667
▁Earl	-11.4672
Liste	-11.4674
▁yayımlanmış	-11.468
▁Celtics	-11.468
▁Bireysel	-11.468
▁Isabel	-11.4681
▁Austin	-11.4681
▁mutlu	-11.4681
▁borç	-11.4681
▁xx	-11.4681
▁kabuk	-11.4682
▁Sekiz	-11.4682
▁(18,7	-11.4683
▁Makedon	-11.4683
▁Muharebe	-11.4702
▁beslenme	-11.4705
▁Bangladeş	-11.4714
▁Boşnak	-11.4714
▁Üzerine	-11.4714
▁okuyucu	-11.4714
▁ISO	-11.4715
▁Senatör	-11.4717
▁İzmit	-11.4717
▁Napolyon	-11.4749
▁Wrestling	-11.4749
▁Cenevre	-11.4749
▁mesleği	-11.4749
▁Avukat	-11.4749
▁oluşturulmuş	-11.4749
▁hidrojen	-11.4749
▁Kamerun	-11.4749
▁dokuzuncu	-11.475
▁öğeler	-11.4757
XIII	-11.4759
James	-11.4773
▁seyre	-11.4773
▁Front	-11.4776
▁popülasyon	-11.4783
▁DNF	-11.4783
▁2008-2009	-11.4783
▁Keskin	-11.4784
▁Uzman	-11.4784
▁Bobby	-11.4786
▁%0,0	-11.4789
Albüm	-11.4803
Katılım	-11.4803
▁Kırıkkale	-11.4818
▁Otomobil	-11.4818
▁şehre	-11.4818
▁Global	-11.4818
▁Hotspur	-11.4818
▁departman	-11.4818
seksüel	-11.4818
▁Başlıca	-11.4818
▁Gustav	-11.482
▁nöro	-11.4833
▁aroma	-11.4842
▁kaydedilmiş	-11.4853
ά	-11.4853
▁Nevşehir	-11.4853
▁Robinson	-11.4853
▁rehber	-11.4853
▁dayanarak	-11.4853
▁çapraz	-11.4853
▁sevgilisi	-11.4854
▁Somali	-11.4854
▁Kontrol	-11.4854
▁uyarınca	-11.4855
▁About	-11.4855
▁uyarlanmıştır	-11.4857
▁Record	-11.4864
Gürcü	-11.487
Sinema	-11.4876
▁Dükü	-11.4888
▁giysi	-11.4889
▁Sylv	-11.4897
öğre	-11.4905
ē	-11.4922
▁koalisyon	-11.4922
▁Jamaika	-11.4922
▁Antakya	-11.4922
▁enstitü	-11.4923
▁kalkış	-11.4923
▁Okyanus	-11.4939
▁Bavyera	-11.4958
▁Johannes	-11.4958
▁feminist	-11.4958
▁FOX	-11.4958
▁Çeçen	-11.4958
▁Nicole	-11.4958
▁vatandaşlığın	-11.4963
kadın	-11.4988
▁Kürdistan	-11.4993
▁Müttefik	-11.4993
▁şahıs	-11.4993
▁Shakespeare	-11.4993
▁kristal	-11.4993
▁sebze	-11.4993
▁talebi	-11.4993
▁(1967)	-11.4993
▁Kansas	-11.4993
▁kolej	-11.4996
PDF	-11.5
George	-11.5017
ό	-11.5028
▁deplasman	-11.5028
▁içeriyordu	-11.5029
▁Mikro	-11.5033
▁Meydan	-11.5035
▁modül	-11.5038
Cennet	-11.5043
▁tahtta	-11.5047
▁rakım	-11.5048
Sosyal	-11.5053
▁Hakkâri	-11.5064
▁Havaalanı	-11.5064
▁kömür	-11.5064
▁okyanus	-11.5064
▁tapınağı	-11.5064
▁Müfettiş	-11.5064
▁Public	-11.5064
▁İlgili	-11.5064
▁ilkokul	-11.5064
▁Standard	-11.5064
▁Brothers	-11.5065
7.8	-11.5068
Phys	-11.5089
▁Jessica	-11.5099
▁Marshall	-11.5099
▁Nilüfer	-11.5099
▁duyuruldu	-11.51
child	-11.511
script	-11.5113
▁Vampire	-11.5135
Tıbbi	-11.5136
Çizgi	-11.5137
▁(1965)	-11.5137
▁içerme	-11.5142
Murder	-11.5158
▁Kırklareli	-11.5171
▁sipariş	-11.5171
▁Bakırköy	-11.5171
▁Magazine	-11.5171
▁Liyakat	-11.5171
▁Atlantik	-11.5171
▁Farklı	-11.5171
▁ömür	-11.5171
▁yarımada	-11.5172
▁dönmüştür	-11.5173
▁bulunmakta	-11.5194
ebileceği	-11.5206
▁kâşif	-11.5207
▁referans	-11.5207
▁Ülkü	-11.5207
▁tabanca	-11.5207
▁kaybeder	-11.5207
▁branş	-11.5207
▁Express	-11.5207
▁Moore	-11.5208
▁adaylıklar	-11.5217
▁öncelikle	-11.5235
honneur	-11.5243
▁Broadway	-11.5243
▁Bükreş	-11.5243
▁olağanüstü	-11.5243
▁Abdülhamid	-11.5243
▁Manhattan	-11.5243
▁keşfi	-11.5243
▁Machine	-11.5243
▁kilit	-11.5244
▁Gıda	-11.5248
▁Yöre	-11.5251
▁boşalt	-11.5263
Yıldız	-11.5271
▁örümcek	-11.5279
▁Research	-11.5279
▁İslâm	-11.5279
▁Protestan	-11.5279
▁penaltı	-11.5279
▁federasyon	-11.5279
▁Emniyet	-11.5279
▁hassas	-11.5279
:1938	-11.5279
:1940	-11.528
▁0,2	-11.5302
▁1,1	-11.5307
É	-11.5308
terapi	-11.5312
9.0	-11.5314
▁Bolivya	-11.5315
▁demokrasi	-11.5315
▁çekişli	-11.5315
▁'''100,0	-11.5315
▁Emirlikleri	-11.5317
Siyasi	-11.5346
▁barındıran	-11.5352
▁monarşi	-11.5352
▁Lumia	-11.5352
▁nesli	-11.537
Coğrafya	-11.5382
Güneş	-11.5383
▁burun	-11.5387
▁Ansiklopedi	-11.5388
▁Güncelleme	-11.5388
▁Muzaffer	-11.5388
▁Medrese	-11.5388
▁Coğrafi	-11.5389
▁buğday	-11.5389
efendi	-11.5389
▁Petersburg	-11.5391
▁değerlendirme	-11.5391
ülfü	-11.5399
Prva	-11.5403
▁müdürlüğü	-11.5413
▁Thompson	-11.5425
▁Zürih	-11.5425
▁rüzgar	-11.5425
höyük	-11.5425
▁muhalif	-11.5425
▁eskrim	-11.5425
▁2003-04	-11.5425
▁Elektronik	-11.5426
▁üssü	-11.5426
Toyota	-11.543
▁erişil	-11.5432
▁edeme	-11.5456
▁Challenge	-11.5462
▁mutfak	-11.5462
▁birçoğu	-11.5462
▁Uçuş	-11.5462
▁Budist	-11.547
▁mitoloji	-11.5486
Ülke	-11.5496
lerarası	-11.5498
Universit	-11.5499
▁Valencia	-11.5499
▁başarmıştır	-11.5499
▁endüstriyel	-11.5499
▁tüzel	-11.5499
▁NFL	-11.5499
▁teşkilatı	-11.55
▁eğim	-11.5501
▁Güzergâh	-11.5536
▁Süryani	-11.5536
▁Brooklyn	-11.5536
▁ziyade	-11.5536
▁Rangers	-11.5536
▁Senegal	-11.5536
▁okçu	-11.5537
▁onuruna	-11.5539
lendirdi	-11.5541
Çaykur	-11.5544
erkek	-11.5551
▁üzeri	-11.5568
▁dükkân	-11.5574
▁Floransa	-11.5574
▁München	-11.5574
▁Collins	-11.5574
▁Yetiş	-11.5574
▁nitelendir	-11.5575
▁Mezun	-11.5578
▁adanmış	-11.5584
İsrail	-11.5608
▁ilahiyat	-11.5611
▁görülecek	-11.5611
▁iskelet	-11.5611
▁Lizbon	-11.5611
▁ömrü	-11.5611
▁şehristanı	-11.5612
▁sürdürme	-11.5613
▁Vlad	-11.564
▁konsept	-11.5649
▁tahliye	-11.5649
▁geleceği	-11.5653
▁Ovası	-11.5654
Detaylar	-11.568
▁Büyükelçiliği	-11.5686
▁Cüneyt	-11.5686
▁Konfederasyon	-11.5686
▁sinagog	-11.5686
▁İskandinav	-11.5686
▁deneysel	-11.5687
▁Jandarma	-11.5687
▁kurşun	-11.5687
Leeds	-11.5699
▁Australia	-11.5724
▁Missouri	-11.5724
▁heavy	-11.5724
▁Ajax	-11.5725
Sullivan	-11.5725
▁Halife	-11.5725
▁Deprem	-11.5725
▁(1966)	-11.5726
▁kumaş	-11.5727
▁dağılım	-11.5732
▁düğün	-11.5738
Institut	-11.5762
▁koordinat	-11.5762
▁Tapınağı	-11.5762
▁tecrübe	-11.5762
▁thumb	-11.5762
▁pirinç	-11.5762
▁tükenmiş	-11.5762
▁uzmanlaşmış	-11.5763
Gök	-11.5768
▁Abdurrahman	-11.5801
▁dikdörtgen	-11.5801
▁omurga	-11.5801
▁teşhis	-11.5801
▁huzur	-11.5801
▁Utah	-11.5802
▁(1969)	-11.5803
▁duyma	-11.5816
▁Arizona	-11.5839
▁Senfoni	-11.5839
▁solunum	-11.5839
▁ihlal	-11.5839
▁Bueno	-11.5845
▁Kuvvet	-11.587
▁Paleo	-11.5875
▁Galibiyet	-11.5877
▁kâğıt	-11.5877
▁akciğer	-11.5877
▁çember	-11.5878
▁optik	-11.5878
▁cüce	-11.5879
Suriye	-11.5879
▁Ernest	-11.5888
▁Ereğli	-11.5916
▁medrese	-11.5916
▁rüzgâr	-11.5916
▁Collection	-11.5916
▁Bayburt	-11.5916
▁çıkıntı	-11.5916
▁Türbesi	-11.5916
▁işkence	-11.5916
▁kuzeni	-11.5916
▁menzil	-11.5916
▁Diamond	-11.5917
▁çaldı	-11.5919
▁otoyol	-11.5922
▁ameliyat	-11.5955
▁metrajlı	-11.5955
▁mükemmel	-11.5955
▁Kullanıcılar	-11.5955
▁sosyoloji	-11.5955
▁bilinç	-11.5955
ewicz	-11.5955
:1911	-11.5955
Yedekler	-11.5955
▁istiyor	-11.5978
Work	-11.5993
▁Lloyd	-11.5994
▁arkeolog	-11.5994
▁haricinde	-11.5994
▁Texas	-11.5994
▁Sendika	-11.5994
Virgin	-11.5998
Happy	-11.6002
▁Yardım	-11.6028
RSSSF	-11.6033
▁Connecticut	-11.6033
▁toprağa	-11.6033
▁Personel	-11.6033
▁Darbesi	-11.6033
▁sahte	-11.6033
▁casus	-11.6034
▁akademi	-11.6034
▁anatomi	-11.6037
▁Ayrıntı	-11.6072
▁Coşkun	-11.6072
▁Taşımacılık	-11.6072
▁müzakere	-11.6072
▁Kuveyt	-11.6072
▁Ontario	-11.6072
▁negatif	-11.6072
▁sermaye	-11.6072
▁verilebilir	-11.6073
▁bildirdi	-11.6077
▁ettirdi	-11.6106
▁Performans	-11.6108
▁Birmingham	-11.6111
▁Publishing	-11.6111
▁motosiklet	-11.6111
▁Sönmez	-11.6111
▁yoksul	-11.6112
▁Hitit	-11.6112
tarihi	-11.6118
Double	-11.6119
▁donatıl	-11.6133
▁Service	-11.6151
▁oynuyor	-11.6151
▁Western	-11.6152
Pierre	-11.6156
▁Ferdinand	-11.619
▁García	-11.619
▁Rönesans	-11.619
▁Tottenham	-11.619
▁Müsteşar	-11.619
▁bıçak	-11.619
Katılmadı	-11.6191
▁Dakota	-11.6191
▁about	-11.6191
▁referandum	-11.623
▁taarruz	-11.623
▁episode	-11.623
▁koşucuları	-11.623
▁kitabe	-11.623
▁kafatası	-11.6232
Lehçe	-11.6236
▁bölünmüş	-11.6251
▁Lokomotiv	-11.627
▁ayakkabı	-11.627
▁intikam	-11.627
▁vitamin	-11.6271
piskopos	-11.6278
yaklaşık	-11.6278
▁kuralı	-11.628
Temsil	-11.628
▁Sertifika	-11.631
▁kriz	-11.6311
▁Antrenör	-11.6311
▁ödüllendirildi	-11.6311
▁Rachel	-11.6311
▁(1964)	-11.6313
Grammy	-11.6319
▁Maurice	-11.6351
▁2011-2012	-11.6351
▁arayüzü	-11.6351
▁bulmuştur	-11.6351
İngiltere	-11.636
Girl	-11.6361
▁Anonim	-11.6391
Eylül	-11.6401
▁Guatemala	-11.6432
▁Kullanılan	-11.6432
▁ihracat	-11.6432
▁prefektörlüğü	-11.6432
▁Frederick	-11.6432
▁Marseille	-11.6432
▁Sophie	-11.6432
▁Salzburg	-11.6432
▁övgü	-11.6432
▁canavar	-11.6432
▁entegre	-11.6432
▁2002-03	-11.6432
▁türemiştir	-11.6432
▁alfabe	-11.6433
▁Dominik	-11.6434
▁Ernst	-11.6435
▁kumanda	-11.6443
Club	-11.6444
▁Parlamenter	-11.6473
▁propaganda	-11.6473
▁zeytin	-11.6473
▁terminal	-11.6473
▁Gilbert	-11.6473
▁Sandalye	-11.6473
▁kemiği	-11.6473
▁Albion	-11.6473
▁yatağı	-11.6483
seçme	-11.6486
▁Kopenhag	-11.6514
▁Metropolitan	-11.6514
▁Gregory	-11.6514
▁reddedi	-11.6515
▁direkt	-11.6518
Bizans	-11.6525
ISBN	-11.6525
▁çarpma	-11.6541
▁Cleveland	-11.6555
▁müsteşar	-11.6555
▁width	-11.6555
▁çoğal	-11.6555
▁İstihbarat	-11.6555
▁Yasemin	-11.6555
▁soyadları	-11.6555
▁gökdelen	-11.6555
▁Kamarası	-11.6555
Friends	-11.6555
▁ihraç	-11.6596
▁Çoğunlukla	-11.6596
▁Bordeaux	-11.6596
▁Shadow	-11.6596
▁efekt	-11.6596
▁Jamie	-11.6597
▁kanadı	-11.6603
Music	-11.6611
Mariah	-11.6616
▁vilayet	-11.6627
Germain	-11.6632
▁Satranç	-11.6638
▁Smaçör	-11.6638
▁gelindiğinde	-11.6638
▁karaciğer	-11.6638
▁Sabancı	-11.6638
▁Akarsu	-11.6638
▁Monaco	-11.6638
Louis	-11.6652
▁hafıza	-11.6679
▁Olympique	-11.6679
▁misafir	-11.6679
▁(1962)	-11.668
▁Database	-11.6721
▁Deportivo	-11.6721
▁Foundation	-11.6721
▁otomotiv	-11.6721
▁kıvr	-11.6721
▁pratik	-11.6721
▁uyku	-11.6721
ã	-12.1777
Š	-12.2221
«	-12.7183
