<unk>	0
<s>	0
</s>	0
.	-3.41765
,	-3.72589
'	-3.99846
▁==	-4.08208
▁ve	-4.38239
▁	-4.41443
:	-4.49839
▁Kategori	-4.79431
▁bir	-4.97356
▁(	-5.02223
▁''	-5.03135
''	-5.07691
)	-5.09681
a	-5.35237
e	-5.3919
i	-5.39475
s	-5.41777
da	-5.44598
n	-5.44625
de	-5.45988
-	-5.65392
▁'''	-5.72994
'''	-5.74349
▁olarak	-5.74775
in	-5.80032
lar	-5.81842
ler	-5.82417
▁ile	-5.88739
nin	-5.93436
"	-5.9397
▁"	-5.9799
k	-5.97991
▁===	-6.00546
d	-6.01896
na	-6.04633
▁yılında	-6.06794
nın	-6.07522
▁Kaynakça	-6.18329
te	-6.1837
t	-6.19203
ın	-6.26497
▁futbolcuları	-6.26913
ne	-6.26968
ya	-6.29142
▁de	-6.32525
▁için	-6.32855
▁tarafından	-6.33252
▁olan	-6.33673
ları	-6.33859
li	-6.37205
leri	-6.3833
ı	-6.42232
u	-6.44854
▁da	-6.46292
▁bağlantılar	-6.49243
y	-6.50862
o	-6.51738
si	-6.52586
▁bu	-6.53198
ta	-6.54742
ni	-6.5478
▁*	-6.5554
==	-6.55719
nde	-6.58141
m	-6.5963
nda	-6.60437
▁sonra	-6.60729
▁Dış	-6.62911
r	-6.64223
un	-6.65978
),	-6.67071
dir	-6.67348
ye	-6.67919
le	-6.67998
▁Bu	-6.68921
den	-6.69119
lı	-6.7173
la	-6.71773
’	-6.75006
z	-6.7573
▁doğumlular	-6.75808
▁yer	-6.77672
l	-6.77948
dan	-6.79099
▁ilk	-6.84462
2	-6.85696
er	-6.87081
▁en	-6.88228
dır	-6.91356
an	-6.91777
▁göre	-6.94458
;	-6.95107
▁Türk	-6.95289
▁of	-6.95495
ki	-6.9758
1	-6.99159
▁A	-7.00129
A	-7.00426
▁arasında	-7.02168
ma	-7.05124
sı	-7.06467
en	-7.0728
▁daha	-7.0853
▁ise	-7.10963
p	-7.12993
S	-7.13295
▁bağlı	-7.13887
lik	-7.1465
▁Türkiye	-7.15932
3	-7.16761
▁km	-7.17272
▁10	-7.17776
h	-7.18454
▁S	-7.22623
nı	-7.23034
▁kadar	-7.23672
di	-7.23715
▁gibi	-7.25033
▁2010	-7.25143
▁veya	-7.26224
▁futbolcular	-7.26992
f	-7.28946
▁oldu	-7.29314
▁15	-7.29539
▁2009	-7.29779
▁the	-7.29931
▁tarihinde	-7.30072
▁2012	-7.30736
▁Dünya	-7.32092
▁2007	-7.32203
al	-7.32341
ca	-7.32497
c	-7.3263
▁2011	-7.33111
▁iki	-7.33314
g	-7.34809
The	-7.35467
▁2008	-7.35846
▁12	-7.36765
lu	-7.37095
B	-7.37285
▁çok	-7.37803
/	-7.38322
▁2014	-7.38568
man	-7.39164
▁2013	-7.39741
4	-7.4029
▁2015	-7.41828
▁ilçesine	-7.42235
▁18	-7.43467
▁adı	-7.43667
▁Partisi	-7.44014
▁2016	-7.44153
▁nüfus	-7.44326
▁İstanbul	-7.45515
7	-7.45967
daki	-7.4598
▁büyük	-7.45986
▁Ayrıca	-7.46316
ce	-7.46332
C	-7.46687
▁16	-7.46887
▁insanlar	-7.47095
Birleşik	-7.48392
6	-7.48548
ların	-7.49091
▁17	-7.49133
8	-7.49619
▁filmler	-7.49652
▁2018	-7.50854
5	-7.50929
▁Mart	-7.51408
nun	-7.52422
▁ölenler	-7.5257
▁Üniversitesi	-7.53269
▁2017	-7.5345
▁11	-7.53548
ra	-7.53908
▁20	-7.54067
▁14	-7.54362
nden	-7.54651
▁alan	-7.54708
ti	-7.54799
▁13	-7.55829
▁2019	-7.56152
D	-7.57065
x	-7.57278
lerin	-7.57486
▁En	-7.57513
on	-7.57573
me	-7.57829
▁K	-7.58201
b	-7.58546
▁I	-7.59044
▁kadın	-7.59182
9	-7.59221
▁olduğu	-7.59603
▁2000	-7.59992
ar	-7.60165
▁E	-7.60177
0	-7.60373
E	-7.60561
ş	-7.61118
▁T	-7.61573
yı	-7.61966
O	-7.62774
▁köy	-7.62785
T	-7.62847
▁Avrupa	-7.63452
ndan	-7.63795
G	-7.63914
sa	-7.63918
▁futbol	-7.64381
▁Bir	-7.64932
▁bulunan	-7.65153
K	-7.65297
re	-7.65372
lık	-7.66146
se	-7.66306
▁filmleri	-7.67377
us	-7.67742
deki	-7.6789
▁birlikte	-7.68239
▁aynı	-7.68278
▁millî	-7.68366
ten	-7.68657
▁Mayıs	-7.68795
yi	-7.68877
▁ya	-7.69172
▁Ocak	-7.69283
▁eski	-7.69614
ka	-7.69621
▁O	-7.70068
▁Haziran	-7.70269
▁The	-7.70285
I	-7.71367
▁30	-7.72148
▁**	-7.72207
▁aldı	-7.7242
yla	-7.73052
▁Temmuz	-7.73098
at	-7.73182
▁Kasım	-7.73224
ri	-7.73285
▁adlı	-7.73442
▁M	-7.73462
tan	-7.73516
▁Ekim	-7.74014
▁Kupası	-7.742
▁Nisan	-7.74213
▁in	-7.75085
▁Eylül	-7.75198
▁and	-7.75418
▁Nüfus	-7.76001
▁diğer	-7.76062
▁Ağustos	-7.76233
▁yıl	-7.77351
M	-7.77363
▁mahalle	-7.77414
▁görev	-7.77531
Türk	-7.78279
yle	-7.78794
P	-7.7904
▁ilinin	-7.79444
el	-7.79736
ga	-7.79745
▁B	-7.79832
▁C	-7.79841
▁merkezine	-7.80525
il	-7.80825
ci	-7.81444
ine	-7.82165
▁21	-7.82637
Kaynakça	-7.82868
F	-7.83171
▁Devletleri	-7.84374
▁erkek	-7.84401
▁2020	-7.84506
'',	-7.84764
▁Şubat	-7.85013
▁Film	-7.85107
▁26	-7.85568
ur	-7.86054
▁Ödülü	-7.86061
▁Aralık	-7.86177
▁22	-7.87197
▁yüzyıl	-7.87335
▁verileri	-7.87364
th	-7.8747
▁25	-7.87783
v	-7.87846
▁G	-7.87862
▁D	-7.88135
▁başladı	-7.88501
es	-7.89042
▁her	-7.89144
▁kurulan	-7.89588
to	-7.90098
▁*''	-7.9028
▁olmuştur	-7.90496
ing	-7.90579
▁takımı	-7.909
▁kg	-7.90938
su	-7.91081
▁etti	-7.91383
ü	-7.91708
ir	-7.91747
▁P	-7.92428
▁Yıllara	-7.92508
▁Dosya	-7.928
ge	-7.93051
▁bakınız	-7.93407
▁U	-7.93459
▁Amerika	-7.93973
▁F	-7.94282
H	-7.9478
▁il	-7.94935
▁1990	-7.95116
▁Tarihçe	-7.95135
▁23	-7.95259
is	-7.96169
ç	-7.96613
▁gurbetçi	-7.96745
▁24	-7.96795
L	-7.97196
▁La	-7.97337
▁1.	-7.97478
▁Me	-7.97525
▁Köy	-7.97548
▁27	-7.97809
▁19	-7.97836
▁Lig	-7.98014
▁yılı	-7.9935
ken	-7.99411
▁son	-7.99469
▁yaptı	-8.00099
▁yılları	-8.00194
▁teknik	-8.00299
▁yeni	-8.00469
▁Amerikalı	-8.00945
et	-8.0119
j	-8.01471
it	-8.02259
larını	-8.02703
R	-8.02751
▁Savaşı	-8.03067
▁televizyon	-8.03118
▁karşı	-8.03289
▁yapılan	-8.03306
00	-8.03792
▁28	-8.038
larda	-8.03828
ha	-8.03831
dur	-8.04056
▁Al	-8.045
▁2021	-8.04603
▁olup	-8.05762
os	-8.06097
▁ABD	-8.06848
va	-8.07077
ve	-8.07103
▁doğumlu	-8.07259
▁De	-8.07288
▁tarihi	-8.07494
ba	-8.07897
ck	-8.08123
▁İyi	-8.082
no	-8.08487
▁önce	-8.08636
▁vardır	-8.09204
▁Osmanlı	-8.09215
▁dönem	-8.09358
ul	-8.09376
▁1985	-8.09492
▁film	-8.09699
lara	-8.10143
▁R	-8.1029
ak	-8.10455
mi	-8.10612
U	-8.10653
▁2.	-8.10734
▁üzere	-8.10872
ton	-8.11025
▁kez	-8.11536
bi	-8.11731
px	-8.11908
▁2006	-8.12023
▁müzik	-8.12062
▁Daha	-8.12139
▁FC	-8.12211
▁önemli	-8.12211
tı	-8.12406
st	-8.12838
▁oyuncuları	-8.13337
ch	-8.13645
ik	-8.13827
sel	-8.13866
son	-8.14577
lerde	-8.14671
▁Coğrafya	-8.14698
▁Ankara	-8.147
ro	-8.149
▁29	-8.15038
▁ikinci	-8.15196
▁İlk	-8.1534
▁Şarkı	-8.15408
''',	-8.15436
oğlu	-8.15887
▁Parti	-8.16472
lerini	-8.16606
ün	-8.16721
▁Le	-8.16733
▁üç	-8.16889
um	-8.16913
▁ancak	-8.16916
ke	-8.17028
▁H	-8.17077
yan	-8.17375
tir	-8.17596
ia	-8.1782
ter	-8.18052
lo	-8.18155
ır	-8.18195
▁N	-8.1832
lere	-8.18455
▁Şampiyonası	-8.18856
▁Re	-8.1908
du	-8.19498
dı	-8.19512
(	-8.19663
ini	-8.19839
▁Se	-8.19872
▁üzerine	-8.20027
V	-8.20567
ö	-8.20634
liği	-8.20921
▁bulunmaktadır	-8.2119
▁yüzyılda	-8.21657
ed	-8.21688
▁gelen	-8.21807
▁uzaklıktadır	-8.22184
im	-8.22453
▁Ha	-8.22463
▁New	-8.22631
▁iyi	-8.22869
▁yüksek	-8.23012
▁at	-8.23223
▁II	-8.23534
▁Na	-8.24659
▁içinde	-8.24771
▁sahip	-8.24855
▁----	-8.24913
be	-8.25225
cı	-8.25244
der	-8.25349
lan	-8.25679
▁belde	-8.25693
▁Ar	-8.25702
▁su	-8.26126
N	-8.26161
▁olmak	-8.26314
▁ardından	-8.26665
▁devam	-8.26989
▁on	-8.27102
w	-8.27245
▁genel	-8.27366
▁birçok	-8.27687
za	-8.27728
len	-8.2796
▁2004	-8.28
▁2005	-8.28279
▁Sa	-8.28447
▁L	-8.28875
▁Güney	-8.28877
▁tek	-8.28894
▁Genel	-8.28901
mo	-8.29469
▁Su	-8.29857
▁V	-8.29964
▁fazla	-8.30118
ko	-8.30481
▁sırasında	-8.3055
▁Yeni	-8.31048
▁takım	-8.31289
do	-8.31311
▁31	-8.31465
▁eden	-8.31475
===	-8.3158
▁Cumhuriyeti	-8.31836
▁iş	-8.31858
▁Kara	-8.32408
as	-8.32576
▁öğrenim	-8.32842
▁üzerinde	-8.33136
'')	-8.3334
▁(''	-8.33506
▁kazandı	-8.33522
▁El	-8.33551
▁kabul	-8.33942
ol	-8.34025
▁Be	-8.34096
ran	-8.34129
tır	-8.34283
W	-8.34361
▁Er	-8.34388
▁tüm	-8.34431
▁ilçe	-8.34628
▁oyuncu	-8.3487
▁100	-8.34906
▁Ali	-8.34913
▁beri	-8.34969
▁dizi	-8.35386
go	-8.35889
lü	-8.35913
▁3.	-8.3598
▁şekilde	-8.36112
co	-8.36115
▁ev	-8.36133
▁Birliği	-8.36371
▁Ma	-8.36415
▁köyleri	-8.36488
▁oyunları	-8.36537
é	-8.36836
▁kariyeri	-8.36859
▁ilgili	-8.36951
▁sinema	-8.37312
▁J	-8.37392
▁çeşitli	-8.37395
lığı	-8.37634
▁2002	-8.38317
▁Her	-8.38514
or	-8.38582
▁League	-8.38778
larının	-8.38839
han	-8.39015
▁Ak	-8.39168
nu	-8.39832
Dış	-8.40145
▁Amerikan	-8.40394
▁2003	-8.4075
▁biri	-8.4103
ov	-8.41033
▁kendi	-8.41093
▁40	-8.41139
▁2022	-8.41291
▁4	-8.4132
▁Yaz	-8.41356
▁Halk	-8.41391
▁kişi	-8.41691
▁adıyla	-8.41803
▁Fransa	-8.41918
▁Da	-8.41983
vi	-8.42491
▁küçük	-8.42579
▁Ligi	-8.43146
▁görenler	-8.43247
▁nedeniyle	-8.43322
lerinin	-8.43626
▁Man	-8.43753
▁W	-8.43768
kan	-8.43957
▁====	-8.44401
▁Almanya	-8.44639
tu	-8.4476
▁ana	-8.44953
▁listesi	-8.45103
ğ	-8.4512
▁bölüm	-8.45244
lerinde	-8.45361
▁ili	-8.45375
▁zaman	-8.45478
▁albümleri	-8.45919
▁Di	-8.46426
▁almıştır	-8.46452
▁Alman	-8.46458
ry	-8.46476
▁zamanda	-8.46555
▁yapımı	-8.46917
▁50	-8.47035
gi	-8.47287
▁farklı	-8.47288
larında	-8.47596
spor	-8.47615
gen	-8.47794
▁Ne	-8.48354
ly	-8.4851
▁d	-8.4856
ver	-8.4866
▁edilmiştir	-8.48829
çe	-8.48874
▁York	-8.49001
▁video	-8.49087
▁köydür	-8.49098
▁bazı	-8.49257
çi	-8.49277
▁1997	-8.49311
▁gün	-8.49494
▁TV	-8.49747
▁Toplam	-8.50551
▁Ko	-8.50781
▁hem	-8.51044
▁sayısı	-8.51192
▁geri	-8.51323
▁yaklaşık	-8.51456
▁siyasetçiler	-8.51588
▁Kuzey	-8.51632
▁edildi	-8.51745
J	-8.5189
▁devlet	-8.52149
La	-8.52383
▁1999	-8.52451
mak	-8.52554
▁San	-8.52559
sen	-8.52728
▁to	-8.52765
▁İngiliz	-8.52827
▁Ka	-8.53212
▁2001	-8.5324
am	-8.53276
▁Ho	-8.53284
▁süre	-8.53528
larına	-8.53808
▁yaptığı	-8.53859
▁5.	-8.53899
ster	-8.5402
ber	-8.54073
▁madalya	-8.54134
lama	-8.54298
▁bulunur	-8.54315
▁yapmıştır	-8.54443
▁Oyuncu	-8.54485
▁almaktadır	-8.54633
▁dahil	-8.54912
▁yeniden	-8.54915
▁Fransız	-8.55169
▁boyunca	-8.55217
ği	-8.55224
tik	-8.55265
▁Yıl	-8.55495
▁Devlet	-8.55541
▁ö	-8.55562
▁Ulusal	-8.55926
▁Mo	-8.56063
▁yaş	-8.56079
pa	-8.56222
ze	-8.56379
▁Büyük	-8.56418
sh	-8.56439
–	-8.5652
▁3	-8.57009
▁Ca	-8.57598
▁Cumhuriyet	-8.57738
▁nüfusu	-8.57943
▁;	-8.57963
ktan	-8.5807
▁Afrika	-8.58089
▁yapan	-8.58125
ını	-8.58211
▁Doğu	-8.58344
▁Roma	-8.58363
ren	-8.58457
sal	-8.58498
▁edilen	-8.58502
▁yaşında	-8.58808
▁doğdu	-8.58892
▁32	-8.58999
▁altı	-8.59099
▁Pa	-8.59302
▁el	-8.59454
î	-8.59558
lerinden	-8.59691
men	-8.59797
▁Rus	-8.59801
▁Rusya	-8.5987
▁üyeleri	-8.60275
▁So	-8.60322
İ	-8.60741
▁mahalleleri	-8.60831
▁orta	-8.60913
zi	-8.60986
▁sıra	-8.61421
Y	-8.61478
iş	-8.61516
▁yakın	-8.61605
lerine	-8.61659
▁filmi	-8.61703
▁Mi	-8.6176
▁uzun	-8.61842
lardan	-8.6186
▁merkezi	-8.61885
▁İngilizce	-8.6195
▁geçen	-8.62006
▁To	-8.62126
:20.	-8.62264
ndeki	-8.6237
▁1998	-8.625
lerden	-8.63154
▁Uluslararası	-8.63342
▁olduğunu	-8.63377
▁eğitim	-8.63965
TBMM	-8.64184
▁Do	-8.64333
van	-8.64363
ut	-8.64516
▁Oyunları	-8.64623
▁4.	-8.64704
▁kısa	-8.64992
▁Müzik	-8.65087
▁Bölüm	-8.65253
ndaki	-8.65586
ek	-8.65672
mış	-8.65688
ay	-8.65948
▁6.	-8.65992
|	-8.66065
▁Çin	-8.66142
yu	-8.6629
20	-8.66294
gan	-8.66365
▁sahipleri	-8.66847
”	-8.66872
▁kullanılan	-8.66942
▁No	-8.66946
▁çocuk	-8.66949
▁altında	-8.66949
▁35	-8.67002
▁ait	-8.67133
▁sezon	-8.67326
▁savaş	-8.67444
▁özel	-8.6787
:21.	-8.67961
▁metre	-8.68048
▁az	-8.68075
▁Bo	-8.68308
▁John	-8.68392
▁dizileri	-8.68452
:'''	-8.6887
▁Ancak	-8.68907
▁1995	-8.69153
▁yılından	-8.6931
inde	-8.69688
▁rol	-8.69885
▁An	-8.70067
▁oyuncular	-8.70068
iz	-8.70341
luk	-8.70346
▁7.	-8.7047
▁Po	-8.70472
▁Han	-8.70544
▁Orta	-8.70698
ist	-8.70772
▁an	-8.70789
ah	-8.70808
▁mahalledir	-8.70891
▁öldü	-8.71198
▁şarkı	-8.7123
▁34	-8.71303
▁Ay	-8.71388
▁Si	-8.71601
▁hizmet	-8.71916
▁In	-8.72019
▁Li	-8.72026
▁futbolcudur	-8.72258
▁Co	-8.72383
▁s	-8.72672
▁saha	-8.727
▁sahiptir	-8.72774
▁resmi	-8.72777
▁sadece	-8.72931
▁Ri	-8.72931
▁Ni	-8.72942
fi	-8.72952
ley	-8.72994
ho	-8.73127
▁al	-8.73158
▁Altın	-8.7317
▁bilinen	-8.73243
▁İ	-8.73287
▁asıllı	-8.73329
▁şarkıları	-8.73375
ydi	-8.7343
▁k	-8.73439
▁m	-8.73504
▁1993	-8.73519
nü	-8.7362
▁FIFA	-8.73633
▁alt	-8.7365
▁1996	-8.73714
50	-8.73736
▁inşa	-8.73857
▁Olimpiyat	-8.74092
ması	-8.7412
▁Fakültesi	-8.74333
ja	-8.74403
▁spor	-8.74547
▁hakkında	-8.74721
▁“	-8.74897
▁38	-8.74964
▁ayrıca	-8.75011
land	-8.75147
▁puan	-8.75176
bo	-8.75237
▁Lo	-8.75574
ev	-8.75577
En	-8.75603
cu	-8.75637
▁1994	-8.75874
▁Ba	-8.76044
▁ortaya	-8.76055
▁dört	-8.7612
▁Vi	-8.7613
▁36	-8.76146
▁3:	-8.76309
ydı	-8.76404
▁Bar	-8.76453
▁baş	-8.76856
▁üyesi	-8.76859
ey	-8.76911
▁mezun	-8.76931
Ş	-8.7713
▁genellikle	-8.77137
▁Paris	-8.77151
▁milletvekilleri	-8.77188
▁yıllarında	-8.7725
▁Z	-8.77394
▁Tur	-8.7743
▁sitesi	-8.77473
ad	-8.77742
▁Şehir	-8.77747
ger	-8.78399
Z	-8.78444
▁itibaren	-8.7853
jpg	-8.78842
hi	-8.78985
.000	-8.78989
▁Ödülleri	-8.79309
▁doğru	-8.79356
pe	-8.79812
iye	-8.79933
▁Bakanlığı	-8.79949
▁yerine	-8.80324
▁Son	-8.80356
10	-8.80583
▁açık	-8.80589
▁Te	-8.80653
▁İngiltere	-8.80656
fa	-8.80748
60	-8.80783
▁düzenlenen	-8.80898
▁yol	-8.8093
▁adını	-8.81079
mıştır	-8.81157
-19	-8.81161
ner	-8.8136
▁yerleşim	-8.81501
bu	-8.8169
▁1965	-8.8172
▁Krallık	-8.81743
▁60	-8.82085
25	-8.82108
▁merkezli	-8.82328
ip	-8.82352
â	-8.82806
▁33	-8.82808
ova	-8.82888
▁la	-8.83099
▁Takım	-8.8312
▁yazar	-8.83124
larından	-8.83169
▁45	-8.83221
▁Can	-8.83245
tur	-8.83363
ji	-8.83408
▁üst	-8.83508
▁oğlu	-8.8356
▁tiyatro	-8.83562
▁tekrar	-8.83732
▁Asya	-8.83794
▁Bey	-8.83805
ers	-8.83808
▁bar	-8.83896
40	-8.84112
▁Dr	-8.8412
▁Tarih	-8.84243
ie	-8.84302
▁Azerbaycan	-8.8451
▁döneminde	-8.8469
▁re	-8.84706
▁Za	-8.84759
▁Du	-8.84907
▁Sıra	-8.84911
▁Notlar	-8.85101
▁1928	-8.85103
▁Grup	-8.85324
▁sezonunda	-8.85453
ça	-8.85698
▁ay	-8.85699
id	-8.86004
▁İtalya	-8.86108
▁oluşan	-8.86236
▁ek	-8.86489
▁Go	-8.86947
▁Pe	-8.8715
▁direktörleri	-8.87261
▁alır	-8.87273
▁oynadı	-8.87335
▁grup	-8.87341
▁merkez	-8.87681
▁Ana	-8.87771
▁geldi	-8.87925
X	-8.88138
▁çıkışlı	-8.88214
▁elde	-8.88268
miş	-8.88272
▁dünya	-8.88306
ım	-8.88319
▁1992	-8.884
sını	-8.8842
▁Öz	-8.88436
▁aldığı	-8.88481
▁Pro	-8.88488
larla	-8.88532
▁37	-8.88654
▁çalıştı	-8.8871
kten	-8.88785
ll	-8.88878
14	-8.89069
ts	-8.89079
▁tür	-8.89135
á	-8.89574
▁gol	-8.89706
çı	-8.90464
▁Batı	-8.9052
▁Ülke	-8.90662
mer	-8.90676
sinde	-8.9079
ok	-8.90961
▁Bakanı	-8.90962
Ka	-8.91144
▁mücadele	-8.91158
▁39	-8.91312
siz	-8.91393
▁ma	-8.91426
▁Ro	-8.91483
▁toplam	-8.91534
▁transfer	-8.91612
▁Paşa	-8.91801
dy	-8.92071
dür	-8.92146
sini	-8.92168
▁başkanı	-8.92322
▁Ra	-8.92396
▁milyon	-8.92424
▁temsil	-8.92516
▁X	-8.9264
▁eder	-8.92658
▁başka	-8.92688
▁di	-8.92714
▁St	-8.9277
▁1991	-8.9285
ng	-8.92873
▁ka	-8.92913
lerle	-8.93083
▁şu	-8.93222
▁şehir	-8.93222
▁Or	-8.93286
les	-8.93593
19	-8.93644
▁kayıtlarında	-8.93747
▁sahibi	-8.9379
kar	-8.94073
)''	-8.94129
▁oluşturulan	-8.9416
▁Ke	-8.94196
om	-8.9425
▁Türkçe	-8.94299
ina	-8.94299
▁Mar	-8.94349
lin	-8.94383
ğı	-8.94453
▁42	-8.9446
▁Ta	-8.94472
vo	-8.9451
▁Eurovision	-8.94708
▁Kadın	-8.94778
▁gelir	-8.94839
▁hava	-8.94843
▁şehirler	-8.95011
▁katıldı	-8.95203
▁Adalet	-8.95229
▁Merkez	-8.95253
▁yapı	-8.95268
▁ismi	-8.95325
▁belediye	-8.9535
ür	-8.95386
▁ele	-8.95438
▁He	-8.95479
▁çıkar	-8.95508
▁sırada	-8.95658
▁Köyün	-8.95717
▁1:	-8.95899
sine	-8.95971
lük	-8.96061
▁sonucu	-8.96158
▁Futbol	-8.96216
gu	-8.9644
16	-8.96545
sız	-8.96554
▁8	-8.96632
▁52	-8.96641
leme	-8.9666
▁insan	-8.97186
▁Lu	-8.97187
ör	-8.97217
▁grubu	-8.97433
▁çıkan	-8.97837
▁ön	-8.97838
inin	-8.97893
com	-8.97905
▁Ben	-8.97921
▁4:	-8.97951
▁1984	-8.98056
▁Japonya	-8.98068
▁albümü	-8.98141
▁Aynı	-8.98191
▁yazarları	-8.98264
▁Kar	-8.98346
nün	-8.9836
▁Mehmet	-8.98431
▁for	-8.98723
Ha	-8.98746
▁söz	-8.98748
▁1986	-8.98785
Le	-8.98802
▁rağmen	-8.98822
45	-8.98894
▁bin	-8.99007
▁İzmir	-8.99015
▁verilen	-8.99027
▁Yarışması	-8.99043
▁5	-8.99044
11	-8.99159
▁etmiştir	-8.99236
▁Pi	-8.99449
▁biridir	-8.99452
ru	-8.99502
▁Bot	-8.99771
▁çıktı	-8.9998
▁siyasetçi	-9.00119
▁sonunda	-9.00124
▁sporcular	-9.00188
▁iç	-9.00294
▁Oy	-9.0034
arak	-9.00363
▁arasındaki	-9.00574
mp	-9.00622
▁41	-9.00643
ny	-9.00664
min	-9.00716
po	-9.00759
▁Ti	-9.00786
Ma	-9.00864
15	-9.00881
san	-9.00893
▁var	-9.00894
wa	-9.00926
ker	-9.0123
▁48	-9.01268
ot	-9.01285
▁44	-9.01622
▁1989	-9.02096
▁yanı	-9.02154
▁8.	-9.02292
▁yayın	-9.02339
▁tespit	-9.02418
can	-9.02471
ında	-9.02629
▁51	-9.02691
21	-9.02732
▁geçmektedir	-9.02952
▁dizisi	-9.03007
▁uluslararası	-9.03014
▁yarı	-9.03056
▁kullanılır	-9.03148
70	-9.03183
▁Yüksek	-9.03214
Se	-9.03509
▁Y	-9.03527
▁saat	-9.0361
▁et	-9.03613
▁Gu	-9.03681
▁birkaç	-9.03718
▁as	-9.03836
▁gurbetçiler	-9.03846
▁siyasi	-9.03847
▁55	-9.03945
35	-9.04229
▁oyun	-9.04603
ic	-9.04636
▁maddeleri	-9.04688
miştir	-9.04735
em	-9.04811
▁forma	-9.0487
24	-9.04976
mek	-9.05084
tar	-9.05095
ül	-9.05141
▁Gi	-9.0531
let	-9.05455
▁üçüncü	-9.05485
▁etmek	-9.05578
▁Ya	-9.05586
▁Millî	-9.05662
▁f	-9.05699
▁43	-9.05804
▁Başkanı	-9.05847
▁80	-9.0588
▁Bi	-9.05901
▁anlamına	-9.0603
32	-9.06144
▁1982	-9.06158
▁sağ	-9.06253
▁edilir	-9.0643
▁bilgi	-9.06899
▁As	-9.06968
▁verdi	-9.07182
▁Resmi	-9.07204
▁Kulüp	-9.07211
▁final	-9.07231
▁1988	-9.07315
ku	-9.07446
▁2	-9.07492
▁başlayan	-9.07606
▁sistemi	-9.07629
mon	-9.07744
chi	-9.07791
q	-9.08099
Orta	-9.08102
▁Mustafa	-9.08119
▁alanı	-9.08201
köy	-9.08308
▁plan	-9.08405
pi	-9.08438
▁der	-9.08446
eli	-9.08495
▁Car	-9.08523
▁Sultan	-9.08628
sta	-9.08645
17	-9.0871
▁komedi	-9.08717
per	-9.08769
▁olması	-9.08773
▁Kore	-9.08824
▁Fa	-9.09042
▁Ga	-9.09088
26	-9.09205
▁7	-9.09273
22	-9.09342
ft	-9.09381
▁beş	-9.09533
▁Festivali	-9.09536
▁47	-9.09603
▁karar	-9.09607
▁kalan	-9.09656
▁Tarihi	-9.09749
▁şarkıcı	-9.09774
29	-9.09774
▁53	-9.09945
▁yılına	-9.09956
▁1987	-9.10022
▁beraber	-9.10059
18	-9.10189
▁ne	-9.10267
▁İkinci	-9.10344
▁aday	-9.10347
▁Maç	-9.10389
ang	-9.10395
▁46	-9.10428
şe	-9.10565
▁para	-9.10629
▁Anadolu	-9.10649
▁deniz	-9.10759
▁Diğer	-9.10772
▁dolayı	-9.10809
▁Deniz	-9.10824
90	-9.10857
▁MÖ	-9.10887
36	-9.10916
▁özellikle	-9.10918
▁On	-9.10961
▁City	-9.11122
▁70	-9.11153
▁Spor	-9.1118
▁Final	-9.11252
а	-9.11259
''),	-9.11272
var	-9.11281
▁Ve	-9.1148
▁top	-9.11492
▁1983	-9.11521
▁1975	-9.11601
▁aranan	-9.11606
▁temel	-9.12027
▁isimli	-9.12035
38	-9.12204
▁kariyerine	-9.12269
sının	-9.12322
▁seçildi	-9.12399
ment	-9.12431
▁Grubu	-9.1255
▁Ge	-9.12552
▁dışında	-9.12673
▁Fe	-9.127
▁kaldı	-9.12724
▁(18	-9.12777
mar	-9.12821
",	-9.12982
07	-9.13037
▁Londra	-9.13293
▁genç	-9.13309
sinin	-9.13335
Resim	-9.13358
▁tam	-9.1339
▁Fi	-9.13559
33	-9.13689
▁Ja	-9.13745
▁profesyonel	-9.13775
▁1977	-9.13795
▁geniş	-9.13823
ron	-9.13925
ius	-9.13965
şi	-9.1418
▁from	-9.14241
dar	-9.14316
▁olmayan	-9.14318
▁Hu	-9.14357
▁6	-9.14594
▁ha	-9.14628
▁54	-9.14681
47	-9.14686
sında	-9.14688
che	-9.14771
▁göz	-9.14799
28	-9.14884
▁Olimpiyatları	-9.14927
▁Har	-9.14929
▁ünlü	-9.14942
▁Sal	-9.1498
31	-9.151
▁Sezon	-9.15164
▁Kadınlar	-9.15351
▁57	-9.1537
▁onun	-9.15429
▁madalyalı	-9.15547
je	-9.1556
▁1973	-9.15683
▁Ahmet	-9.15762
▁ses	-9.15805
up	-9.15817
▁şarkılar	-9.15837
▁1981	-9.15848
▁İki	-9.15946
▁49	-9.1605
nd	-9.16069
landı	-9.16078
▁Gol	-9.1609
06	-9.161
▁grupları	-9.16123
▁kız	-9.16157
▁Sovyet	-9.16176
%	-9.16193
bir	-9.16214
▁Erkekler	-9.16227
sk	-9.1623
Me	-9.16255
▁Enstitüsü	-9.16342
▁90	-9.16369
▁iken	-9.164
12	-9.16598
▁İspanya	-9.16607
pik	-9.1673
▁parçası	-9.16828
48	-9.16834
▁You	-9.16842
09	-9.16979
55	-9.16992
▁bulunduğu	-9.17086
▁Sanat	-9.17131
▁sona	-9.17136
tra	-9.17147
▁tarihli	-9.17203
30	-9.17302
ası	-9.17414
01	-9.17471
▁bulundu	-9.17549
:18	-9.17612
▁''(	-9.17662
Sa	-9.17767
37	-9.17814
fe	-9.18001
▁None	-9.18016
▁hareket	-9.18182
▁bölümü	-9.18226
sına	-9.18334
▁Okulu	-9.18345
▁56	-9.18429
▁1976	-9.18588
▁Kan	-9.18637
▁1974	-9.18674
▁tarihleri	-9.1869
ion	-9.18792
80	-9.18918
▁63	-9.19024
▁1980	-9.19068
04	-9.19289
05	-9.19291
▁içeren	-9.19315
▁Merkezi	-9.19336
▁single	-9.19539
▁9.	-9.19562
▁İran	-9.19595
tt	-9.19616
▁girdi	-9.1962
▁Gül	-9.19633
▁futbolcu	-9.19635
▁Cha	-9.19761
he	-9.19773
▁Belediye	-9.19918
▁Süper	-9.19983
gar	-9.20058
▁Ver	-9.20274
▁yıllarda	-9.20364
TV	-9.20509
▁Top	-9.20552
que	-9.2058
▁David	-9.20666
▁Per	-9.2067
▁64	-9.20724
23	-9.20757
▁Yer	-9.2078
ty	-9.20783
▁Kurulu	-9.20816
▁Eski	-9.20885
▁me	-9.20889
dığı	-9.21029
▁World	-9.21085
39	-9.21111
▁2:	-9.21177
44	-9.21197
▁p	-9.212
▁yapmış	-9.21376
Re	-9.21394
lam	-9.21505
luğu	-9.21659
▁Kanada	-9.21783
▁do	-9.21923
27	-9.21935
ian	-9.21995
▁yayınlanan	-9.22165
▁sahne	-9.22173
▁1.0	-9.22273
De	-9.22295
▁se	-9.22316
▁bilinir	-9.22317
▁İtalyan	-9.22357
▁My	-9.22448
▁sanat	-9.22507
▁serbest	-9.22559
▁İl	-9.22631
▁olur	-9.22719
ez	-9.22734
▁burada	-9.22741
13	-9.2276
▁içerisinde	-9.22995
▁taşımaktadır	-9.23049
▁kazanan	-9.23077
▁kişiler	-9.23137
▁babası	-9.23187
ıl	-9.23217
▁şehrin	-9.23334
▁1968	-9.23346
▁ayrı	-9.23429
bar	-9.23439
▁onu	-9.23468
46	-9.23504
▁Ku	-9.23673
57	-9.23795
▁9	-9.23796
▁1970	-9.23813
Bu	-9.2389
▁Yunan	-9.24142
03	-9.24207
ong	-9.24263
▁başlamıştır	-9.24284
▁Avustralya	-9.24351
▁aile	-9.24387
▁ifade	-9.24388
▁Love	-9.24434
▁edilmiş	-9.24487
▁Hayatı	-9.2462
tor	-9.24682
▁200	-9.24685
▁neden	-9.24705
▁konu	-9.2471
▁yerel	-9.24755
Toplam	-9.24799
ven	-9.24829
erek	-9.24988
yo	-9.25085
▁Wa	-9.25112
▁halk	-9.25204
▁1971	-9.25455
taki	-9.25483
▁Albüm	-9.25495
▁web	-9.25553
▁yönettiği	-9.25553
▁Bölgesi	-9.25568
▁Teknik	-9.25569
▁bilim	-9.2557
▁çoğu	-9.2576
▁oyunu	-9.25797
▁10.	-9.25809
Ö	-9.25816
ard	-9.25848
▁Ki	-9.25872
▁At	-9.2588
ff	-9.2592
▁Is	-9.25991
teki	-9.26045
▁günü	-9.26055
▁Mu	-9.26287
▁sayıda	-9.2638
56	-9.26388
▁mi	-9.26422
▁Akademisi	-9.26463
42	-9.26466
▁Michael	-9.26532
Fransa	-9.26558
ō	-9.26587
▁58	-9.26654
▁yayınlandı	-9.26736
▁#	-9.26778
ou	-9.26821
▁pozisyonunda	-9.2688
wi	-9.26886
▁yıllık	-9.26942
har	-9.27005
▁itibarıyla	-9.27119
▁Ara	-9.27198
▁''''''	-9.27245
▁albüm	-9.27248
▁benzer	-9.2725
▁kızı	-9.27274
▁Eğitim	-9.27515
▁75	-9.2758
net	-9.27666
+	-9.27818
▁yönetim	-9.27843
▁Robert	-9.27957
▁Ce	-9.27996
▁Records	-9.28107
▁parti	-9.2833
▁resmî	-9.28335
▁Ci	-9.28461
met	-9.28606
96	-9.2861
shi	-9.28633
▁Chi	-9.28706
▁Tu	-9.28739
az	-9.28783
▁1	-9.28823
▁askeri	-9.2883
▁şirketleri	-9.28878
95	-9.29052
49	-9.29163
FC	-9.2928
▁dönemde	-9.29385
Al	-9.29418
34	-9.29473
▁Başkanlığı	-9.29502
ının	-9.29515
▁parça	-9.29655
▁Ju	-9.29701
▁milletvekili	-9.29708
▁yaşayan	-9.29708
▁65	-9.29716
41	-9.29721
ık	-9.2975
ına	-9.29804
▁Hukuk	-9.29873
▁Jo	-9.2992
▁sezonu	-9.29943
▁Paul	-9.29966
▁62	-9.30087
izm	-9.30173
▁kara	-9.30268
▁Kariyeri	-9.30406
kin	-9.30407
е	-9.30409
tal	-9.30476
▁Var	-9.30599
▁ortak	-9.30602
85	-9.30634
▁yana	-9.30639
▁başında	-9.3065
ung	-9.30667
=	-9.30817
▁müziği	-9.30869
43	-9.30872
ris	-9.30883
▁adet	-9.30897
▁Wi	-9.30987
▁1969	-9.31034
▁cm	-9.31043
Di	-9.31047
▁Van	-9.31055
▁yapılar	-9.31105
▁1979	-9.31113
ent	-9.31177
▁Baş	-9.31191
▁ada	-9.31306
▁idi	-9.31442
▁oy	-9.31482
▁kuruldu	-9.31651
▁alanında	-9.31798
02	-9.31818
▁çift	-9.31848
▁ilçesinde	-9.31887
Ar	-9.31902
▁türü	-9.31928
65	-9.32256
▁Japon	-9.3227
▁1967	-9.32382
▁ara	-9.32405
▁Nehri	-9.32438
▁şirketler	-9.3246
ış	-9.32579
▁ak	-9.32669
ser	-9.32776
bel	-9.32795
▁kardeşi	-9.32891
lak	-9.32947
▁öğretim	-9.32996
Ne	-9.33029
nce	-9.33071
▁United	-9.33094
66	-9.3336
▁yazarı	-9.33426
88	-9.33521
diği	-9.33527
▁Windows	-9.33536
▁Es	-9.33578
▁Belediyesi	-9.33631
▁Kıbrıs	-9.33632
▁Profesyonel	-9.33635
▁59	-9.3364
▁We	-9.33641
▁altın	-9.337
▁Kuvvetleri	-9.33714
▁kentinde	-9.33748
oz	-9.33787
▁Mü	-9.33861
68	-9.33869
▁Berlin	-9.33929
eti	-9.33958
▁oranı	-9.33971
so	-9.33977
59	-9.34015
▁kurulmuştur	-9.34107
▁kat	-9.3428
58	-9.34283
54	-9.34319
▁1960	-9.34541
▁Am	-9.34577
53	-9.34578
▁yasa	-9.34614
▁yanında	-9.34712
lek	-9.34763
▁güç	-9.34787
▁Yu	-9.34807
▁Park	-9.34874
▁İslam	-9.3496
ation	-9.35015
▁1978	-9.35022
we	-9.3505
▁11.	-9.35208
▁tur	-9.3522
64	-9.35334
▁ulusal	-9.35338
76	-9.35352
▁Bas	-9.35432
▁ülke	-9.35433
ä	-9.35439
▁Meclisi	-9.35454
▁İsveç	-9.3547
şa	-9.35546
▁çizgi	-9.35561
▁ama	-9.3567
lat	-9.35674
93	-9.35729
▁ayında	-9.35752
▁iddia	-9.35829
▁1.1	-9.35896
▁68	-9.35902
67	-9.35991
▁Yunanistan	-9.36049
86	-9.3605
▁Va	-9.36068
▁Con	-9.36138
▁no	-9.36216
▁(),	-9.36221
▁61	-9.3634
▁geçti	-9.36355
▁Liga	-9.36431
▁Ö	-9.3651
ham	-9.3653
▁Mısır	-9.36631
Ra	-9.36862
fer	-9.36874
▁UEFA	-9.36921
sch	-9.37002
▁Hollanda	-9.37005
▁ISBN	-9.37031
84	-9.37046
maktadır	-9.37179
▁sa	-9.37267
▁1966	-9.37309
by	-9.37313
▁Cor	-9.37392
oloji	-9.37402
▁başkenti	-9.37411
ret	-9.37463
uk	-9.37511
▁ettiği	-9.37526
▁dil	-9.37535
tü	-9.37601
▁şarkıcıları	-9.37805
mesi	-9.37842
▁yaygın	-9.37871
▁Özel	-9.37875
▁ilan	-9.37909
▁oyuncusu	-9.37915
▁yazdığı	-9.37971
ici	-9.38008
▁Sinema	-9.38008
▁Sch	-9.38018
▁Polonya	-9.38028
▁1972	-9.38123
▁1961	-9.3815
▁etmektedir	-9.38173
▁Kat	-9.38234
res	-9.38272
▁idari	-9.38491
▁Beyaz	-9.38502
▁İç	-9.38548
Güney	-9.38655
?	-9.38676
▁sonraki	-9.38684
ud	-9.38737
94	-9.389
▁seçimleri	-9.3897
▁Tiyatrosu	-9.39019
din	-9.39114
▁du	-9.39158
▁Ber	-9.39177
esi	-9.39271
▁destek	-9.39272
▁ko	-9.3939
▁veren	-9.39427
99	-9.39433
▁bas	-9.39442
▁bölge	-9.39444
52	-9.39513
74	-9.39567
▁Ru	-9.39616
▁çalışan	-9.3963
▁Tek	-9.39772
▁yine	-9.39789
▁arası	-9.39937
▁Star	-9.39979
▁din	-9.40018
kal	-9.40041
▁amacıyla	-9.4009
▁ki	-9.40133
tin	-9.40295
▁72	-9.40307
▁pek	-9.40317
▁İmparatorluğu	-9.40329
▁doğu	-9.40392
▁gerçek	-9.40448
ap	-9.40473
ss	-9.40585
ks	-9.40586
▁takımında	-9.40591
08	-9.40695
▁Bay	-9.40778
▁başarılı	-9.40787
ban	-9.40875
▁yazarlar	-9.4094
zo	-9.40991
ab	-9.41053
Ta	-9.41055
▁Sonuçlar	-9.41073
Ç	-9.41095
hangi	-9.41096
▁lig	-9.41227
▁(19	-9.41356
▁III	-9.41356
▁James	-9.4136
lenen	-9.41369
kı	-9.41383
▁döndü	-9.41418
unu	-9.41649
▁66	-9.41685
77	-9.41769
▁'''1'''	-9.41775
▁Bölge	-9.41788
▁Arap	-9.42071
nes	-9.42103
87	-9.42132
▁Müzesi	-9.42183
▁olabilir	-9.4221
▁önceleri	-9.42214
▁by	-9.42221
▁Hava	-9.42307
▁şarkısı	-9.42494
▁(1	-9.42499
▁yan	-9.426
▁bölgesinde	-9.42748
▁Bursa	-9.42781
▁Bal	-9.42807
▁19.	-9.42822
▁dili	-9.42827
op	-9.4289
val	-9.42922
▁SK	-9.43003
▁şarkıcılar	-9.43007
▁kitabı	-9.4317
▁Hi	-9.4321
▁Stadyumu	-9.43255
▁Angeles	-9.43261
í	-9.43291
▁fakat	-9.43293
▁Kemal	-9.43469
▁tanı	-9.43497
▁haline	-9.43602
и	-9.43637
▁Mer	-9.43685
▁Erkek	-9.43694
ice	-9.43707
yon	-9.43752
▁gitar	-9.4382
ney	-9.43826
▁Kültür	-9.43854
zan	-9.43911
▁Bel	-9.43934
š	-9.4398
An	-9.4405
Avrupa	-9.44074
▁seçim	-9.44083
▁Sun	-9.44114
▁oluşumlar	-9.44115
92	-9.44129
51	-9.44132
2012	-9.44326
▁13.	-9.44353
▁Lisesi	-9.44368
▁eşi	-9.44447
ec	-9.4458
▁kurulmuş	-9.44625
▁67	-9.4465
▁Ol	-9.44724
▁2023	-9.44792
lanmış	-9.44892
▁Ham	-9.44926
▁olmuş	-9.44947
▁Ad	-9.44994
yen	-9.45001
eri	-9.4502
▁sanatçıları	-9.45056
lay	-9.45071
75	-9.45109
▁dış	-9.45132
▁yönünde	-9.45215
▁Akdeniz	-9.45247
▁ülkenin	-9.45334
▁Derneği	-9.45343
hu	-9.45396
63	-9.45398
▁Dönem	-9.45421
▁Rol	-9.45516
▁1964	-9.45518
▁Kalkınma	-9.45648
yum	-9.45789
-1	-9.45806
▁eğitimi	-9.45864
▁Tra	-9.45883
▁internet	-9.45904
▁Tan	-9.45989
▁c	-9.46077
▁bağımsız	-9.46261
off	-9.46266
▁Ek	-9.46327
▁tamamladı	-9.46463
▁tarih	-9.46693
▁sol	-9.46695
Na	-9.46804
89	-9.46833
▁piyasay	-9.4687
▁1963	-9.46937
▁'''3'''	-9.46964
▁Sonuç	-9.47051
New	-9.47053
▁bütün	-9.47081
–19	-9.47111
io	-9.47127
▁Pu	-9.47211
lanan	-9.47213
▁basketbolcuları	-9.47225
62	-9.47262
ac	-9.47322
▁Ev	-9.4733
▁çalışma	-9.47409
▁durumu	-9.47461
▁çalışmaları	-9.47479
▁so	-9.4751
▁Tom	-9.47511
▁roman	-9.47512
▁beyaz	-9.47602
ling	-9.47663
▁fa	-9.47686
▁e	-9.47718
▁alarak	-9.47732
▁Av	-9.47888
▁76	-9.47965
▁Bazı	-9.47996
▁Kal	-9.48015
▁with	-9.48053
ep	-9.48095
tion	-9.48126
▁1.2	-9.48175
▁yayımlanan	-9.48277
▁Peter	-9.48278
▁birinci	-9.48313
▁kan	-9.48374
69	-9.48529
▁Osman	-9.48547
una	-9.48555
▁oluştuğu	-9.48693
▁Avusturya	-9.48739
▁yıldız	-9.48748
mu	-9.48748
79	-9.48816
▁Yol	-9.48851
▁şirketi	-9.48867
▁Sol	-9.48869
▁William	-9.48981
▁Ye	-9.48984
Alman	-9.49095
▁Birinci	-9.49144
nik	-9.49205
if	-9.49225
▁Gar	-9.49304
▁kurdu	-9.49371
▁Bur	-9.49374
▁stüdyo	-9.49375
▁Bölümü	-9.49482
▁metal	-9.49541
▁olma	-9.49561
Pa	-9.49599
Q	-9.4977
dü	-9.49798
rak	-9.49873
▁Televizyon	-9.499
tif	-9.49971
uz	-9.4999
▁kuzey	-9.50109
78	-9.50154
▁74	-9.50165
91	-9.50216
▁Ter	-9.50263
▁kısmı	-9.50294
tic	-9.50517
0'''	-9.5052
▁vardı	-9.50551
▁derece	-9.50557
ami	-9.50563
▁kazanmıştır	-9.50718
97	-9.50756
ant	-9.50786
▁1962	-9.50816
▁yabancı	-9.50821
▁Sam	-9.50897
71	-9.50904
▁Sovyetler	-9.50939
▁çocuğu	-9.51017
ral	-9.51044
▁hemen	-9.51109
▁Gürcistan	-9.51117
▁Bunun	-9.51194
▁George	-9.51227
98	-9.51242
est	-9.51253
▁sırasıyla	-9.51312
▁şeklinde	-9.51316
▁haber	-9.51322
▁maçta	-9.51396
▁sosyal	-9.51414
▁Los	-9.515
ecek	-9.5162
▁Ordu	-9.51642
▁oluşur	-9.51736
▁Hindistan	-9.51776
aceae	-9.51793
▁Zaman	-9.51872
▁annesi	-9.51917
▁etki	-9.51924
El	-9.51971
Ba	-9.51974
muş	-9.52013
▁kültür	-9.52037
Bo	-9.5207
▁Hot	-9.52092
▁yapmaktadır	-9.52121
aj	-9.52213
kları	-9.52217
73	-9.52259
▁69	-9.5235
▁2020'	-9.52577
▁text	-9.52592
▁Ser	-9.52594
▁Jean	-9.52626
jo	-9.52676
▁Savaş	-9.52846
▁Ab	-9.52865
▁kökenli	-9.52898
▁Aydın	-9.52913
▁batı	-9.5297
lendi	-9.53
▁Listesi	-9.53012
lanır	-9.53032
▁Sha	-9.53152
▁şehrinde	-9.53183
▁kitap	-9.53191
▁2,	-9.53195
!	-9.53309
▁Yönetmen	-9.53354
▁Mac	-9.53383
▁sayı	-9.53435
▁Dil	-9.53441
▁Millet	-9.53522
lanma	-9.53561
ary	-9.536
▁yazı	-9.53728
▁sonrasında	-9.53807
▁Mon	-9.53814
▁Martin	-9.53865
▁Demokrat	-9.53878
▁maçı	-9.53898
▁NGC	-9.53924
Dünya	-9.53968
83	-9.53998
Mi	-9.54013
▁siyaset	-9.54051
▁popüler	-9.5413
▁Kupa	-9.54133
▁yılındaki	-9.54134
▁sonucunda	-9.54147
▁arka	-9.5415
▁Mal	-9.54293
▁dünyaya	-9.54323
berg	-9.54347
▁sınırları	-9.54371
▁yapılmıştır	-9.54424
▁güney	-9.54595
▁bağ	-9.54629
▁üzerinden	-9.54703
▁Yönetim	-9.54723
▁Müdürlüğü	-9.54759
qui	-9.54781
▁hafta	-9.54809
ó	-9.54809
Ro	-9.54809
ağı	-9.54885
mektedir	-9.54924
▁satın	-9.54965
▁statüsü	-9.55022
▁Pan	-9.55065
▁1959	-9.55079
▁Küçük	-9.55375
acak	-9.55513
▁Komisyonu	-9.55549
▁Yayın	-9.55588
ara	-9.55626
▁Suriye	-9.55654
▁değil	-9.55681
▁Konu	-9.55683
tz	-9.5569
▁12.	-9.55713
▁yeri	-9.55745
▁bölgesi	-9.55757
▁Sosyal	-9.55847
üm	-9.55855
▁Genç	-9.55898
rat	-9.55931
▁göç	-9.55947
▁Kur	-9.56013
başı	-9.56093
▁Sta	-9.5616
nt	-9.56355
tür	-9.56359
▁araştırma	-9.56465
▁verildi	-9.56474
▁Fo	-9.56543
▁başına	-9.56557
▁mu	-9.56604
▁etme	-9.56617
▁Roman	-9.56645
▁yüzyılın	-9.56697
▁kalma	-9.56719
▁Oyun	-9.56742
▁Mor	-9.56954
▁Sitesi	-9.57078
▁Evli	-9.57087
one	-9.57135
▁71	-9.57136
▁kurulu	-9.57149
▁rock	-9.57235
▁77	-9.57291
61	-9.57468
Konusu	-9.57559
las	-9.57565
lüğü	-9.57596
Ya	-9.57609
▁ölmüştür	-9.57621
rken	-9.57783
▁içerir	-9.57805
▁Sen	-9.57838
▁Moskova	-9.5785
▁kulübünde	-9.57852
lis	-9.57867
vin	-9.58002
▁yardımcı	-9.58056
▁sınıf	-9.58097
hal	-9.58194
pp	-9.58197
ub	-9.58264
▁Burada	-9.58271
▁Fenerbahçe	-9.58343
abilir	-9.58365
▁oldukça	-9.58384
lanması	-9.58462
▁İsrail	-9.58488
▁16.	-9.58497
maya	-9.58498
▁taş	-9.58501
▁öncesi	-9.58526
▁bile	-9.58531
ses	-9.58542
▁direktörler	-9.58659
▁Yarı	-9.58716
▁görevini	-9.58781
▁Ş	-9.58846
▁dramatik	-9.59013
▁yara	-9.59037
▁Hasan	-9.59078
▁*'''	-9.59121
▁sistem	-9.59254
ble	-9.59268
▁maç	-9.59344
▁radyo	-9.5941
▁Video	-9.59498
leriyle	-9.59532
▁sonrası	-9.59699
ladı	-9.59781
▁Dışişleri	-9.59822
uş	-9.59838
▁başlar	-9.59926
hr	-9.59926
rin	-9.60008
▁0	-9.60012
▁anda	-9.60087
▁ad	-9.60091
▁Kısa	-9.60179
▁14.	-9.60192
tis	-9.6023
▁İsim	-9.60252
taş	-9.60279
▁isim	-9.60303
▁Tour	-9.60314
▁programı	-9.60369
▁suç	-9.60388
č	-9.60404
▁Mc	-9.60437
▁yok	-9.60447
▁Don	-9.60536
▁Tiyatro	-9.60573
▁görüntü	-9.60617
▁bitki	-9.6067
▁ar	-9.6076
▁1958	-9.60784
▁konusunda	-9.60839
bey	-9.60881
Be	-9.6091
▁siyah	-9.60943
lon	-9.61002
▁sık	-9.61013
▁atandı	-9.6105
▁İsviçre	-9.61116
▁anime	-9.61126
▁Adam	-9.61201
▁canlı	-9.6125
▁ülkeler	-9.61251
▁Fer	-9.61288
▁takımları	-9.61308
▁Şehrin	-9.61353
▁73	-9.61371
▁Demokratik	-9.61448
▁b	-9.61505
▁All	-9.61507
▁Saint	-9.61532
Rus	-9.61584
▁güçlü	-9.61624
ther	-9.61696
▁Şi	-9.61738
▁arkadaşı	-9.61742
о	-9.61766
82	-9.61792
▁köyü	-9.61895
▁Dar	-9.61929
▁Men	-9.61937
▁Kilisesi	-9.62019
her	-9.62056
rit	-9.62069
gü	-9.62076
▁85	-9.62221
Altın	-9.62227
▁Erzurum	-9.62235
▁Cup	-9.62246
larıyla	-9.6225
-6	-9.62252
Billboard	-9.623
▁site	-9.62404
▁uzay	-9.62517
▁Oyuncular	-9.6265
▁Belçika	-9.62681
▁uygun	-9.62692
▁önceki	-9.62814
Bir	-9.62823
cü	-9.62943
▁TBMM	-9.62964
▁bilgisayar	-9.63037
▁Bağımsız	-9.63084
liğe	-9.63093
▁faaliyet	-9.63152
&	-9.63156
▁1.3	-9.63164
tes	-9.63199
lardır	-9.63202
▁İspanyol	-9.6321
72	-9.63225
▁yarış	-9.63409
▁birimleri	-9.63463
İngilizce	-9.63468
tch	-9.63549
▁meydana	-9.63571
dor	-9.63589
▁Uzun	-9.63635
▁yönetmen	-9.63748
▁Galatasaray	-9.63808
▁hayatı	-9.63844
Mo	-9.63889
▁Konya	-9.64056
▁20.	-9.64065
▁İş	-9.64067
▁yüz	-9.641
▁mensubu	-9.64129
▁yaşam	-9.64284
port	-9.64294
▁Music	-9.6437
lanmıştır	-9.64419
▁78	-9.64429
▁lisans	-9.64478
ville	-9.64494
81	-9.64495
▁Mark	-9.64514
tro	-9.64623
▁Ç	-9.64662
▁ederek	-9.64663
ino	-9.64713
▁yapıldı	-9.64744
▁şehri	-9.64823
▁yardım	-9.64833
Li	-9.64851
▁kar	-9.64863
Te	-9.64883
▁günümüzde	-9.64951
▁Q	-9.64993
▁1955	-9.64995
mann	-9.65
▁150	-9.65005
▁Puan	-9.65074
ıp	-9.65092
у	-9.65118
▁+	-9.653
To	-9.65315
ğe	-9.65322
▁doğal	-9.65338
▁Vol	-9.65374
▁ilçesi	-9.65421
▁vi	-9.65429
ana	-9.65454
▁Fakültesinde	-9.6549
▁sınır	-9.65665
▁ilişkileri	-9.65693
▁şirket	-9.65794
ə	-9.65828
▁kal	-9.65844
▁tak	-9.65915
ef	-9.6594
▁del	-9.65951
▁Muhammed	-9.65981
▁be	-9.66047
▁görevi	-9.6609
▁Kaliforniya	-9.66105
▁sayılı	-9.66128
▁Grand	-9.66129
▁sanatçı	-9.66166
Türkçe	-9.66214
cha	-9.66276
▁değildir	-9.6628
▁yolu	-9.66473
▁Ata	-9.66473
▁Yapım	-9.66517
ski	-9.66588
▁verdiği	-9.66593
▁durum	-9.66604
▁hiçbir	-9.6668
▁Kim	-9.667
▁DF	-9.66701
▁sayımın	-9.66703
▁Güzel	-9.66716
▁model	-9.66732
▁başkanları	-9.66749
▁sonuçları	-9.668
▁Kızıl	-9.66852
bin	-9.6689
ros	-9.66891
▁şair	-9.66919
▁Par	-9.66922
Defans	-9.67007
,000	-9.67069
-2	-9.67072
tre	-9.67216
▁kes	-9.67257
▁Je	-9.67294
▁Nazi	-9.67337
zu	-9.67389
▁CD	-9.67406
▁von	-9.6747
don	-9.67475
▁asker	-9.67483
▁University	-9.67487
inden	-9.67532
▁'''''	-9.67626
▁Federasyonu	-9.6767
ünü	-9.67709
Do	-9.67737
▁kitapları	-9.67746
▁türleri	-9.67807
▁eyaletinde	-9.6781
▁nüfusunun	-9.6788
▁bil	-9.67902
asyon	-9.67931
▁Bra	-9.67936
▁82	-9.67938
▁Gün	-9.67956
kov	-9.67956
▁'''2'''	-9.67966
lim	-9.68005
layan	-9.68024
▁gösteren	-9.68076
▁Söz	-9.68092
▁kontrol	-9.68106
unun	-9.68143
In	-9.68218
Japon	-9.6825
▁Charles	-9.68321
▁Ermeni	-9.68374
ebilir	-9.6845
▁Boy	-9.68482
▁Güreş	-9.68491
▁Der	-9.68625
Forvet	-9.68682
▁'''3	-9.6871
▁kazananlar	-9.68814
Ü	-9.68819
▁Val	-9.68901
▁Nu	-9.68997
▁Şu	-9.69033
▁modern	-9.69072
▁pop	-9.69116
▁79	-9.69117
▁adında	-9.69153
idir	-9.69162
▁kulüpleri	-9.6921
leşmiş	-9.6928
▁mü	-9.69286
▁programları	-9.69332
▁Dan	-9.6935
av	-9.69383
▁Mezarlığı	-9.69408
▁Pri	-9.69421
suz	-9.69509
▁insanları	-9.69542
▁Liste	-9.69639
hane	-9.69693
▁Lee	-9.69713
zar	-9.69728
▁ödül	-9.69778
▁Yahudi	-9.69831
▁adına	-9.69889
▁Cu	-9.69933
rd	-9.70122
▁yazılan	-9.70149
▁Uluslar	-9.70165
▁Havalimanı	-9.70178
unda	-9.7019
▁dünyanın	-9.70249
lenmiş	-9.70299
evi	-9.70429
▁Yıldız	-9.70498
▁Tar	-9.70498
▁ona	-9.70648
age	-9.70659
▁geç	-9.70772
▁yönetimi	-9.70786
▁Trabzon	-9.70855
▁Ukrayna	-9.70873
▁Web	-9.70883
▁1946	-9.70946
▁er	-9.70952
▁Başkan	-9.71003
▁or	-9.71029
▁ilgi	-9.71033
▁direktör	-9.71107
▁seçimlerinde	-9.71113
▁şehirdir	-9.71172
▁taşıyan	-9.71177
▁av	-9.71188
▁çalışmalar	-9.71194
sin	-9.71228
▁Adası	-9.71231
maz	-9.7124
▁eş	-9.71278
ından	-9.71357
▁ağır	-9.71371
▁Yardımcı	-9.71396
▁hak	-9.71413
▁tip	-9.71448
▁üniversite	-9.71464
Ca	-9.71501
▁eserleri	-9.71619
▁üretilen	-9.71707
▁Dizi	-9.71755
▁1954	-9.71788
Ankara	-9.71797
▁Madalya	-9.71819
▁des	-9.71847
▁mm	-9.71873
▁Kom	-9.71909
▁Zi	-9.71939
▁Bre	-9.71958
cy	-9.71982
ish	-9.71986
▁özellikleri	-9.72014
▁81	-9.72039
-5	-9.72057
▁takımyıldızı	-9.7208
kon	-9.72106
tepe	-9.7217
lem	-9.72195
▁ince	-9.72216
т	-9.72231
▁pro	-9.72254
▁giriş	-9.72261
▁hızlı	-9.72263
-4	-9.7235
▁Çağ	-9.72386
-3	-9.72405
▁yoğun	-9.72421
▁Yayınları	-9.72439
▁izin	-9.72452
▁İn	-9.72547
lenir	-9.72557
sar	-9.72573
▁yapısı	-9.7265
▁Kor	-9.7265
▁karakterler	-9.72711
▁Red	-9.72752
şı	-9.72762
ps	-9.72812
▁Adana	-9.72829
▁yaşamı	-9.72894
▁Şa	-9.73017
▁Bor	-9.73067
▁Fu	-9.73089
tus	-9.73123
*	-9.73125
lus	-9.73133
▁kon	-9.73162
▁çevre	-9.73225
▁93	-9.73253
yar	-9.73279
▁Sivas	-9.73328
rt	-9.73373
▁Rock	-9.73378
▁babasıdır	-9.73378
▁Demir	-9.73402
▁mo	-9.73445
▁96	-9.73465
▁emekli	-9.73503
imi	-9.73562
▁şampiyonu	-9.73579
▁yapım	-9.73693
▁yalnızca	-9.73697
yor	-9.73723
▁Sar	-9.73732
▁Krallığı	-9.73737
▁hükûmet	-9.73864
ıcı	-9.73897
▁88	-9.73958
▁Kaya	-9.74008
ju	-9.74018
▁For	-9.74044
ama	-9.74081
-18	-9.74118
▁turnuva	-9.74136
▁kullanımı	-9.74138
▁Richard	-9.74138
mez	-9.74154
▁aşağıdaki	-9.74199
▁It	-9.74229
ا	-9.74271
▁İbrahim	-9.74294
ier	-9.74302
▁Güneş	-9.74314
ction	-9.74351
▁Britanya	-9.7438
He	-9.74402
▁edilmektedir	-9.74429
ig	-9.74445
▁84	-9.74545
▁Murat	-9.74549
''':	-9.74578
▁kırmızı	-9.74609
▁2019'	-9.74651
▁nedenle	-9.74684
▁bayrağı	-9.74696
▁halinde	-9.74717
▁bunun	-9.74749
▁Football	-9.74759
rı	-9.74773
▁kır	-9.74821
▁Ama	-9.74827
▁War	-9.74891
▁Meclis	-9.7491
▁Che	-9.74957
▁ailesi	-9.74974
▁Seri	-9.75043
▁çekilmiş	-9.75045
ket	-9.75066
▁Devleti	-9.75082
▁adamı	-9.75119
par	-9.75147
▁Yılmaz	-9.75194
▁...	-9.75267
▁Kral	-9.75317
▁Hüseyin	-9.75379
▁1.5	-9.75391
▁Tri	-9.75414
▁imza	-9.75443
▁çıkmıştır	-9.75601
ram	-9.75648
▁Konseyi	-9.75673
▁Art	-9.75754
▁kaynak	-9.7586
▁yapımcısı	-9.75948
▁tamamen	-9.75965
▁zor	-9.76034
▁gazete	-9.7609
mber	-9.7612
▁orijinal	-9.76142
▁üye	-9.76146
▁saldırı	-9.7621
▁Ordusu	-9.76307
▁Alan	-9.76361
▁Kendisi	-9.7645
▁defa	-9.76739
▁Louis	-9.76802
mba	-9.76812
▁Ze	-9.7687
tti	-9.76918
▁Şirket	-9.76994
▁dağ	-9.77016
▁şey	-9.77029
▁geleneksel	-9.7711
▁Alt	-9.77123
û	-9.77145
▁97	-9.77183
bor	-9.77259
▁verir	-9.77275
ıdır	-9.77367
▁Akademi	-9.77393
rek	-9.77409
▁alma	-9.77419
▁Antalya	-9.77425
▁eseri	-9.77431
iyet	-9.77434
▁dördüncü	-9.77452
mel	-9.77455
▁1950	-9.77457
Su	-9.77529
▁Irak	-9.77592
ow	-9.77619
▁uç	-9.77658
bra	-9.77664
▁17.	-9.77702
▁Sel	-9.77738
▁Far	-9.77862
▁İnsan	-9.77984
▁Şen	-9.78061
▁bitirdi	-9.78205
▁gelmektedir	-9.78243
ilen	-9.78271
▁Bizans	-9.78423
▁Bulgaristan	-9.78439
▁Brezilya	-9.7844
▁iz	-9.78479
▁95	-9.78486
▁yerini	-9.78665
▁gördü	-9.78731
liğini	-9.7875
▁noktası	-9.78774
▁enerji	-9.78774
kü	-9.78779
istan	-9.78841
▁Katolik	-9.7886
▁oynanan	-9.78902
Ayrıca	-9.78924
▁ziyaret	-9.78977
▁Üniversite	-9.78978
▁Beşiktaş	-9.79031
söz	-9.79049
▁versiyonu	-9.7906
ph	-9.79075
▁edilmesi	-9.79081
ica	-9.79137
▁Günümüzde	-9.79201
▁Black	-9.79208
gel	-9.79256
ire	-9.79275
ağa	-9.79324
▁bulunmuştur	-9.79364
od	-9.79371
▁kişilik	-9.7939
üs	-9.79401
▁Çok	-9.79403
▁Kay	-9.79452
▁3,	-9.79453
iyle	-9.79504
▁+1	-9.79553
0.0	-9.79562
▁92	-9.79584
100	-9.79679
bb	-9.79766
▁Gürcü	-9.79819
▁Best	-9.79825
Po	-9.79897
▁Gölü	-9.79939
▁National	-9.79991
▁Thomas	-9.79998
▁Yerli	-9.80065
the	-9.80177
▁Macaristan	-9.80218
▁am	-9.80336
gin	-9.80375
bur	-9.80399
▁madde	-9.80612
▁nokta	-9.80669
ria	-9.80677
▁Un	-9.80719
▁eser	-9.80739
▁Araştırma	-9.80806
ika	-9.80874
▁Basketbol	-9.81008
▁evlendi	-9.81039
▁Yılın	-9.81039
▁listesinde	-9.81057
▁doğum	-9.81114
▁Norveç	-9.81114
▁Adaları	-9.81197
▁Eyaleti	-9.81244
▁Hristiyan	-9.81315
▁yaz	-9.8135
▁olmasına	-9.81369
▁1953	-9.81425
▁uygulama	-9.81442
lediği	-9.81491
▁2.0	-9.81519
▁gaz	-9.81557
▁hayvan	-9.81569
5)	-9.81651
▁lise	-9.81711
▁Filmografi	-9.81716
▁basketbolcular	-9.81791
▁Taş	-9.81843
▁Ön	-9.81848
▁2017'	-9.81862
ight	-9.82012
▁(1)	-9.82062
II	-9.82079
cılık	-9.82142
▁1.4	-9.82148
▁ila	-9.82232
▁sene	-9.82248
▁yoluyla	-9.82298
▁olsa	-9.82323
▁kötü	-9.82394
▁değer	-9.82408
▁üzerindeki	-9.82449
▁veri	-9.82525
▁yapılır	-9.8253
▁87	-9.82629
▁Hal	-9.82646
▁One	-9.82698
▁Ger	-9.82722
▁West	-9.82723
▁İrlanda	-9.82808
▁vokal	-9.82821
▁katı	-9.82862
▁'''2	-9.82899
▁aktif	-9.82963
▁Milli	-9.82985
▁Show	-9.8299
zer	-9.83018
▁86	-9.8302
–20	-9.83034
kat	-9.83048
▁Efendi	-9.83056
▁hayatını	-9.83131
▁g	-9.83147
gon	-9.83148
▁yıllar	-9.8323
▁Portekiz	-9.83259
▁83	-9.83276
▁kralı	-9.83279
Fa	-9.83304
▁Geç	-9.83322
Mar	-9.83331
Yeni	-9.83332
▁kullanılmıştır	-9.83359
▁Maria	-9.83367
▁15.	-9.83369
▁yapılmış	-9.83402
▁Ah	-9.83423
▁Büyükşehir	-9.83439
▁ulaşım	-9.83453
▁COVID	-9.8347
▁sözleşme	-9.83513
д	-9.83575
▁Tor	-9.83584
▁Üç	-9.83597
▁Press	-9.83627
▁ışık	-9.83638
eb	-9.83653
▁yazdı	-9.8367
ben	-9.83709
rma	-9.83713
sıyla	-9.8372
AS	-9.83731
▁Pat	-9.83733
▁Play	-9.83733
Vi	-9.83841
▁2018'	-9.83913
▁kişinin	-9.83935
SC	-9.83958
▁ateş	-9.83968
▁Tüm	-9.83976
isi	-9.84013
▁Koreli	-9.84061
▁Sosyalist	-9.84067
ıyor	-9.84101
▁ödülü	-9.84171
▁serisi	-9.84315
▁Club	-9.84393
▁ayrıldı	-9.84418
au	-9.8448
▁Camii	-9.84503
▁t	-9.84504
▁Tro	-9.84522
▁profili	-9.84576
gg	-9.84637
sü	-9.84676
▁alındı	-9.84719
▁yani	-9.84784
mik	-9.84792
▁120	-9.84853
▁basketbol	-9.84861
dia	-9.84867
▁Baba	-9.84946
▁Madrid	-9.85023
ğu	-9.85024
▁hale	-9.8505
▁korku	-9.85064
aç	-9.85078
▁Min	-9.85112
▁Vo	-9.85135
tel	-9.85217
▁verilmiştir	-9.8538
tr	-9.85394
rik	-9.85408
Kuzey	-9.85447
▁1948	-9.85516
lığa	-9.85528
▁gelmiştir	-9.85541
▁yönelik	-9.85547
▁91	-9.85558
▁proje	-9.85577
▁Şampiyonlar	-9.85577
leyen	-9.85594
▁kulüplerinde	-9.85639
ilmiş	-9.85682
stan	-9.857
▁hukuk	-9.85753
▁yayınlar	-9.85766
ılmış	-9.85831
▁Tam	-9.85832
ano	-9.85834
▁giydi	-9.85851
▁konser	-9.85856
▁markaları	-9.8589
▁dikkat	-9.85904
▁mevcut	-9.85964
▁dağılımı	-9.85968
cia	-9.85995
▁Kitap	-9.86017
▁1952	-9.86024
án	-9.86026
▁Az	-9.86036
▁çapında	-9.86073
▁po	-9.86111
cılar	-9.86115
▁doğrudan	-9.86159
▁Din	-9.86191
▁1949	-9.86193
▁Kent	-9.86198
▁Yaşamı	-9.86208
ura	-9.86224
▁Et	-9.86239
500	-9.86272
era	-9.86278
▁ekibi	-9.86293
cık	-9.86319
ılan	-9.8633
yn	-9.86351
▁karakter	-9.86374
▁İsmail	-9.86436
▁güneyinde	-9.86457
▁düzenleme	-9.86479
▁Super	-9.86482
▁Kurt	-9.86518
▁yedi	-9.86523
ydu	-9.86534
▁sahipliği	-9.86554
▁OS	-9.8661
▁dönemi	-9.86615
▁düşük	-9.86624
▁1945	-9.8665
▁başkan	-9.86685
baş	-9.86751
▁hastalığı	-9.86906
▁Pre	-9.87005
▁devre	-9.87141
▁'''1	-9.87261
▁filmidir	-9.87303
▁Th	-9.8733
▁tamamlanan	-9.87361
nca	-9.87371
▁Bilimler	-9.87409
ünün	-9.87425
▁Para	-9.87456
▁Pop	-9.87492
gun	-9.87509
5.0	-9.87539
ag	-9.87546
▁County	-9.8759
▁kendisi	-9.87592
▁gitti	-9.87607
leşme	-9.87669
▁geçer	-9.87782
▁Şah	-9.87829
▁Gür	-9.88089
▁yönetmenliğini	-9.88125
ves	-9.88136
lly	-9.88139
ska	-9.88141
▁98	-9.88148
▁89	-9.88187
▁güreş	-9.88342
▁(;	-9.88377
ılması	-9.88458
Co	-9.8846
sinden	-9.88471
lli	-9.88504
▁üretim	-9.88568
Ni	-9.88604
▁seçilmiştir	-9.88614
▁l	-9.88673
▁Meksika	-9.88739
▁bakanları	-9.88878
▁Komünist	-9.88912
ize	-9.88993
▁"''	-9.89007
▁Müslüman	-9.89073
▁boş	-9.89095
lla	-9.89105
▁oynadığı	-9.89115
▁insanı	-9.8915
So	-9.89172
▁Kız	-9.89174
▁yılının	-9.89192
Si	-9.89225
▁Entertainment	-9.89226
▁sorumlu	-9.89284
▁Rum	-9.89285
▁ke	-9.89341
▁başkanlığı	-9.89349
▁bölümleri	-9.89377
▁geçirdi	-9.89382
▁Kulübü	-9.89383
▁sefer	-9.89398
ón	-9.8943
▁Resim	-9.89566
▁romanı	-9.89602
ens	-9.89621
▁dilleri	-9.89624
▁ekran	-9.89634
▁bölgede	-9.89716
▁konusu	-9.89729
▁başarı	-9.8973
▁lideri	-9.89763
▁ekonomik	-9.89775
sis	-9.89778
▁Atletizm	-9.89783
▁Aday	-9.89812
▁sergi	-9.89838
▁99	-9.89859
rum	-9.89862
bat	-9.89885
▁gösterir	-9.899
▁rolü	-9.89901
▁1940	-9.89954
▁takip	-9.89955
▁kulübü	-9.90038
▁Çocuk	-9.90067
tas	-9.90071
▁oluşmaktadır	-9.90097
▁le	-9.90184
▁hakları	-9.90186
▁kaynağı	-9.90253
▁kadınlar	-9.90271
▁Milletler	-9.90286
los	-9.90321
kaya	-9.90376
▁Sin	-9.90442
▁bi	-9.90477
▁Çek	-9.90494
▁koruma	-9.90528
▁Bilim	-9.90557
▁almış	-9.90606
▁sanatçısı	-9.90639
▁kendisine	-9.90668
▁tipi	-9.90679
▁köyün	-9.9069
▁ürünleri	-9.90699
ora	-9.90712
▁yoktur	-9.90851
▁etmiş	-9.90868
▁eleme	-9.90888
▁Görev	-9.90908
▁İlçe	-9.9092
:2020	-9.90943
ildi	-9.90948
2)	-9.91045
ting	-9.91086
▁ölüm	-9.91093
pan	-9.91134
▁örnek	-9.91179
▁110	-9.91233
▁'''4'''	-9.91241
▁::	-9.91245
▁Yarışma	-9.91316
AN	-9.91371
▁Atatürk	-9.9139
▁rekoru	-9.91422
▁bronz	-9.91451
idae	-9.91457
▁ordusu	-9.91496
low	-9.91524
▁finalde	-9.91526
dağ	-9.91557
▁Jackson	-9.91637
sidir	-9.91672
▁Ken	-9.9168
▁belirli	-9.91702
tay	-9.91707
▁tahmin	-9.9175
▁Yo	-9.91761
▁kilise	-9.91827
2021	-9.9186
nis	-9.91875
my	-9.91917
ach	-9.91942
'''''	-9.91942
▁Ada	-9.91943
▁liste	-9.91949
▁seri	-9.91988
▁1.6	-9.92016
▁1951	-9.92068
mat	-9.92107
tim	-9.92116
San	-9.92138
Er	-9.92156
▁1957	-9.92169
zen	-9.92176
▁Tıp	-9.92261
ë	-9.92339
mb	-9.92344
▁amacı	-9.92428
▁till	-9.92431
к	-9.92449
▁listeleri	-9.92454
▁yayımlandı	-9.92537
▁is	-9.92557
▁maçları	-9.92561
▁2012'	-9.92561
▁fi	-9.92595
▁Frank	-9.92634
")	-9.92674
▁Hanedanı	-9.9269
▁Ex	-9.9274
▁rolünde	-9.92907
▁1935	-9.92939
▁Komitesi	-9.93023
▁Life	-9.93047
Pro	-9.93091
▁gemi	-9.93092
▁eserler	-9.93113
▁etkisi	-9.93151
▁Sağlık	-9.93218
▁1947	-9.93287
▁bölgeler	-9.93295
▁Fin	-9.93323
▁Yeşil	-9.93358
way	-9.93362
Resmî	-9.93399
▁kanalı	-9.93468
kleri	-9.93509
▁1956	-9.93559
▁'''4	-9.93591
stra	-9.93591
eg	-9.93654
▁gece	-9.93677
şan	-9.93689
dere	-9.93709
gün	-9.93719
▁gümüş	-9.93727
til	-9.93807
▁Yüzölçümü	-9.93809
▁yardımcısı	-9.93821
▁Mel	-9.93878
▁yapımcı	-9.93988
▁Angel	-9.94065
▁Fakat	-9.94069
ella	-9.94097
▁2016'	-9.94104
▁Ram	-9.94133
▁mesafe	-9.94164
▁cami	-9.94229
▁yaşadığı	-9.9423
▁w	-9.94247
dal	-9.94321
▁toplum	-9.94358
▁baskı	-9.94377
▁18.	-9.94594
▁okul	-9.94614
▁defnedilenler	-9.94635
▁dalında	-9.94696
lerdir	-9.94734
lt	-9.94762
α	-9.94881
▁Sev	-9.94909
ms	-9.94939
▁Nişanı	-9.94976
rü	-9.95111
▁görülür	-9.95137
Ko	-9.95166
▁sayfası	-9.95204
▁Mah	-9.95288
-10	-9.95292
▁etmesi	-9.95306
▁va	-9.95322
▁kullanan	-9.95455
▁kilometre	-9.95468
▁işaret	-9.95517
yev	-9.95615
▁erken	-9.95624
▁geliştirilen	-9.95637
▁Fransızca	-9.95649
▁Yan	-9.95672
FK	-9.95694
▁mevcuttur	-9.95735
▁hattı	-9.95738
▁sayesinde	-9.95803
▁1942	-9.95848
▁sürümü	-9.9587
▁animasyon	-9.95887
▁Vakfı	-9.95887
▁Air	-9.9591
Ja	-9.95927
▁modeli	-9.95944
▁Diyarbakır	-9.95971
Kara	-9.95988
pınar	-9.96005
▁Bol	-9.96011
▁kas	-9.96049
og	-9.96131
▁karşısında	-9.96165
▁Zelanda	-9.96179
▁bölümünde	-9.96181
▁yönetmeni	-9.96183
▁ba	-9.96203
-0	-9.96207
vel	-9.96208
hl	-9.96249
▁polis	-9.96256
▁Day	-9.96268
emi	-9.96271
▁(15	-9.96279
yer	-9.96306
▁Kastamonu	-9.96308
Yaşamı	-9.96316
▁romanları	-9.96336
▁Mag	-9.9634
▁Başlık	-9.96407
▁Ed	-9.96463
vis	-9.96468
tör	-9.96475
ign	-9.96599
cker	-9.96707
▁istifa	-9.96731
▁renk	-9.968
▁Finlandiya	-9.96815
▁("	-9.96832
▁sistemleri	-9.96834
cer	-9.9685
dil	-9.96851
lor	-9.96851
5'''	-9.96858
▁Microsoft	-9.969
ix	-9.96909
▁94	-9.96968
illa	-9.97054
mal	-9.97059
▁Açık	-9.97093
▁Aşk	-9.97095
▁Jan	-9.97131
Or	-9.97161
ell	-9.97177
mir	-9.97186
ktadır	-9.97224
Süper	-9.97224
▁yapmak	-9.97228
▁filmin	-9.97244
No	-9.97278
▁silah	-9.97285
▁Night	-9.97299
▁Tepe	-9.97301
muştur	-9.97339
▁....	-9.97356
▁maçında	-9.97383
▁Not	-9.97434
▁askerî	-9.97435
▁medya	-9.97499
▁im	-9.97527
rus	-9.9759
▁Kanal	-9.97599
OS	-9.97599
yken	-9.97623
▁denir	-9.97637
°	-9.97651
▁Gök	-9.97749
car	-9.9775
▁Parkı	-9.97775
mus	-9.97827
ence	-9.97861
▁yarışması	-9.97891
▁performans	-9.97972
▁Shi	-9.98033
ilir	-9.98157
St	-9.98169
▁kuvvetleri	-9.9817
▁kulüp	-9.98186
▁4,	-9.98205
▁normal	-9.98235
▁Kon	-9.98246
▁Amerikalılar	-9.98267
▁dini	-9.98301
ford	-9.9832
fu	-9.98327
ön	-9.98411
lia	-9.98431
▁giren	-9.98436
▁Live	-9.98481
ola	-9.98491
▁bilinmektedir	-9.98526
sco	-9.98565
▁zengin	-9.98612
▁şiir	-9.98652
▁Hol	-9.98661
▁müzisyen	-9.98703
▁yük	-9.98776
▁klasik	-9.98784
▁yarışı	-9.98812
▁konum	-9.98827
▁pe	-9.98844
▁mutfağı	-9.98914
▁dakika	-9.98926
rs	-9.98941
▁Danimarka	-9.98957
▁hedef	-9.98969
▁ileri	-9.99115
cilik	-9.99116
▁binası	-9.9918
▁bina	-9.99195
ılır	-9.992
▁2011'	-9.99227
▁kuzeyinde	-9.99254
row	-9.99261
▁Mak	-9.99289
▁ordu	-9.99298
▁işgal	-9.99358
▁Filmin	-9.99401
lenmiştir	-9.99429
▁ortalama	-9.9946
▁Hint	-9.99504
▁aracı	-9.99532
▁Dağı	-9.99606
▁sağlar	-9.99639
▁Daniel	-9.99648
lenme	-9.99672
▁öne	-9.99697
▁van	-9.99707
▁takımının	-9.99718
▁yükseldi	-9.99722
gh	-9.99749
▁kararı	-9.99788
ledi	-9.99788
▁kaybetti	-9.99814
▁-	-9.99815
syon	-9.9983
▁grubun	-9.99901
▁dışı	-9.99914
lenmesi	-9.99914
sto	-9.99942
▁bazen	-9.9995
▁günlük	-9.99973
▁kale	-10.0002
con	-10.0004
▁:*	-10.0011
▁macera	-10.0011
ys	-10.0013
▁numara	-10.0019
▁Romanya	-10.0021
è	-10.0021
▁File	-10.0025
mit	-10.0027
▁Derece	-10.0029
▁Mersin	-10.0036
▁araç	-10.0037
▁180	-10.0038
▁tasarım	-10.0045
▁kayıt	-10.0045
laşma	-10.0046
▁Babası	-10.0048
▁Savunma	-10.0053
▁batısında	-10.0062
ans	-10.0065
aş	-10.0066
▁Sur	-10.0069
▁Washington	-10.007
▁Nur	-10.0077
ر	-10.0078
Pi	-10.0079
▁Of	-10.0084
▁yapma	-10.0087
▁astronom	-10.0094
▁mimar	-10.0095
▁si	-10.0097
▁(2)	-10.0098
▁tane	-10.0102
▁sporcu	-10.0115
▁Kış	-10.0118
▁Kır	-10.0127
▁(2005)	-10.0135
▁bo	-10.014
▁yayınladı	-10.0141
▁oluşturur	-10.0144
lığını	-10.0145
▁Sırp	-10.015
▁ülkede	-10.0152
▁hazır	-10.0152
▁uçak	-10.0153
▁albümler	-10.0154
▁Denizi	-10.0154
▁5:	-10.0157
ssa	-10.0157
▁birimi	-10.0159
▁Alp	-10.0161
▁vermiştir	-10.0161
Man	-10.0165
bek	-10.0165
bet	-10.017
▁1944	-10.0172
▁Samsun	-10.0175
▁attı	-10.019
bre	-10.0191
bas	-10.0195
gor	-10.0195
▁1936	-10.0195
ıyla	-10.0198
xi	-10.02
7.5	-10.0202
▁olay	-10.0204
des	-10.0204
ilmesi	-10.0206
▁Bak	-10.0212
field	-10.0213
▁turu	-10.0215
с	-10.022
و	-10.0221
vekilliği	-10.0233
▁(2008)	-10.0233
▁Sanatçı	-10.0236
ds	-10.0237
sha	-10.0241
▁süren	-10.0248
▁savunma	-10.0251
▁sarı	-10.0251
dra	-10.0252
acağı	-10.0253
▁Ça	-10.0255
log	-10.0255
▁Çevre	-10.0259
▁Edebiyat	-10.0264
▁oluşturan	-10.0265
CA	-10.0268
nar	-10.0268
▁Will	-10.0269
▁Fatih	-10.0274
day	-10.0283
▁International	-10.0284
▁partiler	-10.0288
▁Gre	-10.029
▁çalışması	-10.0292
▁1980'	-10.0293
kel	-10.0298
ré	-10.0302
tta	-10.0304
▁olmadığı	-10.031
▁ağ	-10.0313
▁Au	-10.0315
▁doğa	-10.0317
▁anlaşma	-10.0321
▁diye	-10.0321
▁300	-10.0323
▁(2006)	-10.0324
▁Hall	-10.0325
▁İnternet	-10.0329
▁resim	-10.033
▁Sayımı	-10.033
af	-10.0336
▁(17	-10.0336
▁itibarı	-10.0343
▁alınan	-10.0345
▁Ala	-10.0355
▁sağlayan	-10.0358
▁Has	-10.036
▁MF	-10.0363
▁IV	-10.0363
▁2021'	-10.0365
▁öğrenci	-10.0368
▁Doğan	-10.0374
▁zorunda	-10.0375
▁Cho	-10.0377
cho	-10.0379
▁(2004)	-10.0379
▁teknoloji	-10.0381
▁Henry	-10.0384
▁konuşma	-10.0387
ile	-10.0389
top	-10.0391
▁und	-10.0391
▁güreşçi	-10.0391
kla	-10.0392
del	-10.0393
▁400	-10.0393
▁Anne	-10.0396
▁1925	-10.0398
hir	-10.04
▁meclis	-10.0416
▁Real	-10.0418
gı	-10.0423
bil	-10.0426
▁Adı	-10.0427
▁yerli	-10.0428
2'	-10.0432
ich	-10.0434
▁doğan	-10.0436
▁CF	-10.044
р	-10.0441
▁Pla	-10.0442
▁özelliği	-10.0445
▁'''6'''	-10.0448
▁Sim	-10.0449
▁buz	-10.0451
▁bilgiler	-10.0452
▁Galeri	-10.0456
ali	-10.0457
leyici	-10.0457
▁Siyasi	-10.046
mm	-10.0463
▁beste	-10.0464
▁Orhan	-10.0466
▁Smith	-10.0466
Da	-10.047
▁Cumhurbaşkanı	-10.0475
▁130	-10.0476
▁tarihte	-10.0478
▁500	-10.0479
▁senaryosunu	-10.0479
▁işçi	-10.048
lıdır	-10.0485
▁sekiz	-10.0493
▁Ticaret	-10.0503
▁kamera	-10.0503
▁Bosna	-10.0504
iç	-10.051
▁sürekli	-10.0512
avi	-10.0515
▁Örneğin	-10.0517
▁motor	-10.0517
ciler	-10.0521
▁Sarı	-10.0524
ise	-10.053
▁bit	-10.0531
▁fark	-10.0533
ი	-10.0535
▁Tanrı	-10.0536
▁gazeteci	-10.0543
▁ticaret	-10.0546
▁sınıfı	-10.0547
▁(16	-10.0553
▁başta	-10.0553
▁Hel	-10.0554
tma	-10.0555
lılar	-10.0559
ras	-10.0561
▁bak	-10.0564
ú	-10.0567
▁taraf	-10.0569
ray	-10.0579
▁gösterildi	-10.058
''"	-10.0582
ıldı	-10.0582
▁Jack	-10.0584
▁1990'	-10.0586
▁Yapı	-10.0587
▁ressam	-10.0587
▁düzen	-10.0588
▁antik	-10.0588
mut	-10.0589
▁dans	-10.0593
▁(2009)	-10.0596
▁yaşındayken	-10.0597
ric	-10.0598
▁em	-10.0599
ori	-10.0603
gue	-10.0608
:2016	-10.061
-7	-10.0618
▁numaralı	-10.0618
▁Kra	-10.0618
ā	-10.0618
▁(2007)	-10.0619
▁Company	-10.0623
▁çoğunlukla	-10.0623
cus	-10.0625
▁Hacı	-10.0627
▁adam	-10.0629
dis	-10.0629
▁gen	-10.0629
▁pa	-10.0634
▁klip	-10.0634
1'''	-10.0637
▁dik	-10.0638
ies	-10.0639
▁Dal	-10.064
▁General	-10.0643
▁boy	-10.0644
:1.	-10.0655
▁kullanım	-10.0655
▁Seçim	-10.0656
hin	-10.0657
▁başlamış	-10.066
▁otomobil	-10.0666
çu	-10.0666
rem	-10.067
▁kazan	-10.0675
▁1933	-10.0676
▁Antik	-10.0678
▁Yazar	-10.068
▁hikâye	-10.0681
▁eğitimini	-10.069
▁1.8	-10.0696
▁doğusunda	-10.0698
of	-10.0704
ince	-10.0707
▁taşındı	-10.0708
▁Doğru	-10.0712
▁Gra	-10.0715
▁(2	-10.0716
▁Os	-10.0716
▁aksiyon	-10.0718
▁süresi	-10.0719
▁Yaş	-10.0724
▁Ch	-10.0731
ari	-10.0732
siyle	-10.0732
▁müze	-10.0735
▁May	-10.0736
▁Ömer	-10.0738
ero	-10.0747
▁kol	-10.0751
ي	-10.0754
▁kap	-10.0754
▁Bununla	-10.0755
▁altına	-10.0756
zı	-10.0757
bon	-10.0757
▁art	-10.0758
ls	-10.0758
set	-10.0766
Ke	-10.0767
▁kasaba	-10.077
▁'''12	-10.0772
kor	-10.0777
1991	-10.0782
▁sivil	-10.0784
▁FK	-10.0789
▁Em	-10.0791
▁Pazar	-10.0792
film	-10.0794
ani	-10.08
▁Bankası	-10.0803
▁She	-10.0805
Kar	-10.0808
▁üretimi	-10.0821
▁Arapça	-10.0822
▁2008'	-10.0823
:17	-10.0826
▁Birlik	-10.0831
▁gücü	-10.0834
▁çıkış	-10.084
AR	-10.0841
bay	-10.0843
▁kelime	-10.0844
burg	-10.0847
▁kıyısında	-10.0847
▁hafif	-10.0849
▁forvet	-10.0851
tle	-10.0852
▁Mari	-10.0859
▁Mil	-10.0867
▁dair	-10.0873
▁çalışmaya	-10.0876
▁Hay	-10.0876
▁Kralı	-10.0881
öl	-10.0885
fo	-10.0888
rim	-10.0893
sey	-10.0893
▁İstasyon	-10.0896
▁yeşil	-10.0897
-15	-10.0902
▁başladığı	-10.0905
▁Yusuf	-10.0907
▁kapsamında	-10.091
▁kent	-10.0914
▁gerilim	-10.092
ite	-10.0921
▁hücre	-10.0922
▁katılan	-10.0924
-8	-10.0927
▁toplamda	-10.0928
vet	-10.0931
TA	-10.0932
▁bilimsel	-10.0933
rie	-10.0933
▁program	-10.0934
▁Kariyer	-10.0934
▁1.7	-10.0943
▁kendini	-10.0944
hat	-10.0954
▁sürdürdü	-10.0954
layıcı	-10.0954
▁kurucusu	-10.0955
▁Ji	-10.0958
▁Mus	-10.096
Un	-10.0965
sun	-10.0966
▁Mahalle	-10.0968
)"	-10.0972
Gümüş	-10.0978
▁(3	-10.0982
▁Eserleri	-10.0983
▁Aziz	-10.0985
▁kuruluşu	-10.0986
▁tarım	-10.0992
▁oynayan	-10.0993
▁Pen	-10.0993
▁üyesidir	-10.0994
▁göl	-10.0995
▁NBA	-10.0995
▁Bil	-10.0999
2'''	-10.0999
▁ligi	-10.1001
▁Göl	-10.1005
▁Kas	-10.1007
▁Anna	-10.1008
well	-10.1012
Ölümü	-10.1013
▁ekiplerinden	-10.1014
▁co	-10.1016
▁hasta	-10.1016
sson	-10.1017
ring	-10.1024
▁Sırbistan	-10.1027
▁ruh	-10.1033
▁kurucu	-10.104
tter	-10.1063
▁tren	-10.1068
▁şa	-10.1069
AC	-10.107
▁köyünde	-10.1071
▁kullanarak	-10.1072
▁125	-10.1074
Ho	-10.1076
▁Barış	-10.1078
▁ölümü	-10.1079
0.000	-10.108
▁par	-10.1081
▁kur	-10.1081
▁dönemin	-10.1085
▁çeviri	-10.1085
▁kuş	-10.1086
▁sınırı	-10.1088
▁filminde	-10.1092
▁Tokyo	-10.1098
▁kullanıcı	-10.1101
▁hakkı	-10.1103
▁Bri	-10.1106
▁yayınlanmıştır	-10.1113
▁türüdür	-10.1114
ita	-10.1119
▁Tre	-10.112
ić	-10.112
▁1934	-10.1124
ning	-10.1125
Lo	-10.1125
elli	-10.1127
▁Ahmed	-10.1131
▁2007'	-10.1133
▁Prof	-10.114
for	-10.1143
▁yüzey	-10.1147
▁park	-10.1148
▁bayrak	-10.1149
▁taşı	-10.1153
olog	-10.1157
▁başlarında	-10.1159
ışı	-10.1163
▁Ker	-10.1165
gur	-10.1168
aklı	-10.117
landığı	-10.1173
▁Ac	-10.1176
▁ulaş	-10.1187
sından	-10.1188
▁Williams	-10.1189
sse	-10.1194
▁göstermektedir	-10.1199
▁Simon	-10.1199
▁gruplar	-10.12
▁Gazi	-10.1201
kte	-10.1208
▁dalga	-10.1211
▁Yerelnet	-10.1219
▁satış	-10.1219
▁ölümünden	-10.1224
▁Hareket	-10.1225
▁kanun	-10.1226
jan	-10.1227
▁Kürt	-10.1227
▁Del	-10.1228
lip	-10.1228
bal	-10.1243
▁Üçüncü	-10.1245
▁halka	-10.1246
ب	-10.1248
▁işletme	-10.1248
▁görülen	-10.1251
ل	-10.1257
ê	-10.1258
▁Voleybol	-10.1258
▁ismini	-10.1267
▁Balıkesir	-10.1268
▁Eli	-10.1269
sky	-10.127
▁(2003)	-10.1279
▁2014'	-10.128
▁1937	-10.1281
▁kuruluşlar	-10.1283
▁ulaştı	-10.1284
▁'''14	-10.1291
▁mahallesi	-10.1292
Pe	-10.1295
▁Young	-10.1295
▁AFC	-10.1296
▁tepe	-10.1297
▁getirildi	-10.13
▁Altı	-10.13
▁Karl	-10.1302
▁Max	-10.1303
▁Onur	-10.1303
mı	-10.1307
▁şekli	-10.1311
-12	-10.1313
▁test	-10.1313
▁Bulgar	-10.1313
▁bek	-10.1315
gal	-10.1315
tri	-10.1316
cht	-10.1318
▁2013'	-10.1318
▁2015'	-10.1319
▁hükûmeti	-10.1322
▁etkili	-10.1326
▁çatışmalar	-10.1326
▁artık	-10.1327
▁aileden	-10.1328
likler	-10.1329
▁Lar	-10.133
▁düz	-10.1332
▁Bilgiler	-10.1333
alı	-10.1334
▁İdari	-10.1338
▁mavi	-10.1338
▁Karadeniz	-10.1338
▁Joseph	-10.135
▁adayı	-10.1353
▁verilir	-10.1358
▁takımına	-10.1359
▁okudu	-10.1368
▁Dam	-10.1374
'''),	-10.138
ა	-10.1382
▁edebiyat	-10.1385
▁1970'	-10.1387
▁dizisinde	-10.1388
▁Time	-10.1398
Fi	-10.14
mes	-10.1401
▁'''5'''	-10.1402
▁Bunlar	-10.1405
▁105	-10.1405
▁iline	-10.141
▁Ir	-10.1414
▁Zo	-10.1416
▁tercih	-10.1418
▁Brown	-10.1418
▁vermektedir	-10.1418
tiği	-10.142
▁terk	-10.1421
Her	-10.1422
▁Big	-10.1424
▁Bill	-10.1424
cik	-10.1425
müş	-10.1428
▁kendisini	-10.1429
ins	-10.1435
▁kültürel	-10.1436
▁bünyesinde	-10.1436
▁araya	-10.1437
▁Nor	-10.1438
▁King	-10.1441
▁Ren	-10.1445
yat	-10.1446
ity	-10.1449
sp	-10.1452
▁Radyo	-10.1457
form	-10.1457
yl	-10.1459
AL	-10.1461
▁1-0	-10.1464
▁vb	-10.1465
▁atletleri	-10.1467
inci	-10.1468
▁mal	-10.1469
м	-10.1471
tek	-10.1472
▁yaka	-10.148
▁etnik	-10.1481
▁Kurumu	-10.1482
bol	-10.1483
▁Cami	-10.1487
▁yazılım	-10.149
▁ca	-10.1495
▁Kayseri	-10.1497
▁hi	-10.1499
ılma	-10.15
Özel	-10.1502
▁Plan	-10.1502
▁karakterleri	-10.1503
ure	-10.1503
▁Çanakkale	-10.1505
▁maddesi	-10.1517
▁seviye	-10.1522
▁Arabistan	-10.1529
▁Bro	-10.1531
tme	-10.1532
▁imzaladı	-10.1534
meye	-10.1537
Ay	-10.1539
▁açıklama	-10.1542
▁ölçüde	-10.155
▁şampiyon	-10.155
▁Mary	-10.155
nie	-10.1554
▁Süleyman	-10.1558
sti	-10.156
▁çiçek	-10.156
▁Çe	-10.1561
▁Viyana	-10.1568
▁etmeye	-10.1573
▁Gençlik	-10.1574
▁Ur	-10.1578
bert	-10.1583
▁karakteri	-10.1585
▁ilişki	-10.1586
▁tarzı	-10.1589
▁Kalesi	-10.159
stein	-10.1591
▁birlikleri	-10.1594
▁sitesinde	-10.1599
▁Prix	-10.1599
▁inç	-10.1599
▁Genellikle	-10.1603
▁Bon	-10.1604
cre	-10.1607
▁1-1	-10.1608
arı	-10.161
▁uzaklıkta	-10.1612
▁civarında	-10.1615
▁1941	-10.1616
▁Sc	-10.1619
▁Ag	-10.162
▁İli	-10.162
▁ticari	-10.1622
zel	-10.1622
▁2009'	-10.1622
▁aittir	-10.1624
▁içindeki	-10.1626
▁Sho	-10.1626
▁1921	-10.1626
л	-10.1632
▁Üst	-10.1635
▁Latin	-10.164
▁dergisi	-10.1641
Ri	-10.1641
SS	-10.1643
▁uçağı	-10.1643
!''	-10.1651
▁Çift	-10.1654
▁Green	-10.1656
2.5	-10.1657
▁Ses	-10.1658
▁Pir	-10.166
▁takımlar	-10.1662
▁Topluluğu	-10.1663
:15	-10.1665
▁Göz	-10.1675
▁kesin	-10.1675
▁açısından	-10.1675
▁pazar	-10.1677
şehir	-10.1682
▁Kap	-10.1682
ril	-10.1683
▁girmiştir	-10.1686
liğin	-10.1686
tık	-10.1687
▁TRT	-10.169
▁güzel	-10.1696
▁kaynakları	-10.1699
▁şampiyonluğu	-10.1701
▁bölgeleri	-10.1703
▁büyü	-10.1708
▁Makedonya	-10.171
▁aracılığıyla	-10.1715
▁Başarıları	-10.1719
в	-10.172
▁ra	-10.1721
yr	-10.1725
▁voleybol	-10.1733
▁Başbakan	-10.1736
Final	-10.1744
▁demiryolu	-10.1746
▁zarar	-10.1746
▁geçiş	-10.1751
gil	-10.1754
▁Town	-10.1756
▁Koç	-10.1758
▁1943	-10.1759
-16	-10.176
iyor	-10.176
sion	-10.1763
NA	-10.1763
▁Hü	-10.1763
▁tamamı	-10.1763
▁Ulu	-10.1767
▁(2002)	-10.1767
▁kamu	-10.1768
▁edildiği	-10.1768
▁Modern	-10.1769
▁geliştirme	-10.1772
▁mezunudur	-10.1778
cc	-10.1779
▁Chris	-10.1783
win	-10.1783
▁seçmen	-10.1784
hor	-10.1785
lum	-10.179
▁MS	-10.1793
ih	-10.1794
▁5,	-10.1798
▁Ok	-10.1799
▁sezonunun	-10.1803
▁SC	-10.1805
▁tutul	-10.1813
▁ter	-10.1816
1990	-10.1817
▁İşçi	-10.1817
sıdır	-10.1824
▁yılın	-10.1829
▁dönüş	-10.1832
▁değişikliğinde	-10.1832
▁Belediyespor	-10.1835
kh	-10.1839
▁kişiden	-10.184
SA	-10.1842
▁serileri	-10.1843
▁Gor	-10.1845
Son	-10.1845
▁(2011)	-10.1845
ib	-10.1847
▁uçuş	-10.1848
▁Eskişehir	-10.186
▁iletişim	-10.1861
▁toprak	-10.1863
▁görevine	-10.1867
eng	-10.1868
wer	-10.1889
:0	-10.1891
▁köşe	-10.1892
▁sebep	-10.1892
▁Teknoloji	-10.1893
▁oynamıştır	-10.1894
▁birisi	-10.1896
lidir	-10.1896
▁1926	-10.1897
sak	-10.1897
▁olaylar	-10.1898
▁değiştir	-10.1899
▁Ekonomi	-10.19
▁onay	-10.1902
▁kıl	-10.1904
tem	-10.1905
▁takımın	-10.1909
▁bazıları	-10.1917
▁kalmıştır	-10.1918
Star	-10.1921
▁Bank	-10.1922
▁arazi	-10.1924
▁dram	-10.1926
▁kullanıldı	-10.1932
▁kay	-10.1938
▁sal	-10.1938
Ju	-10.1946
▁(2010)	-10.1946
dem	-10.1947
ture	-10.1949
günümüz	-10.1952
1989	-10.1955
▁Çar	-10.1956
Du	-10.1959
▁tablosu	-10.1959
▁ayak	-10.1965
ER	-10.1968
▁elinde	-10.1968
▁elektrik	-10.1969
Jo	-10.1973
ili	-10.1974
▁1927	-10.1976
▁Almanca	-10.1976
▁yazılmış	-10.1976
▁filmde	-10.1981
ucu	-10.1982
▁1.9	-10.1983
▁%1	-10.1984
▁Pictures	-10.1985
ınca	-10.1987
▁Arka	-10.1988
▁Ban	-10.1988
▁Joe	-10.199
▁ni	-10.1991
▁Premier	-10.1999
miz	-10.2002
▁Ven	-10.2002
▁asit	-10.2005
▁besteci	-10.2008
▁Pra	-10.2008
sam	-10.2015
ы	-10.2015
▁Süre	-10.203
▁Kö	-10.2031
▁tedavi	-10.2033
▁Şampiyon	-10.2036
AT	-10.2038
wood	-10.2038
Der	-10.204
My	-10.2042
▁Kir	-10.2044
AP	-10.2046
teri	-10.2053
hen	-10.2059
▁Alex	-10.2065
▁'''5	-10.2065
cak	-10.2066
▁Mahkemesi	-10.2068
à	-10.2074
ding	-10.2075
lanarak	-10.2078
▁yarışmacıları	-10.2082
▁gözlem	-10.2083
3'''	-10.2083
▁kart	-10.209
▁Sarayı	-10.209
▁Doktor	-10.2092
▁Saat	-10.2094
▁öz	-10.2101
▁edilme	-10.2104
▁meyve	-10.2107
▁Macar	-10.2108
▁sar	-10.2111
▁Reg	-10.2114
Bronz	-10.2115
▁Ağ	-10.2117
▁ikili	-10.2121
▁yurt	-10.2122
▁Manisa	-10.2124
▁hala	-10.2126
▁1939	-10.2128
Türkiye	-10.2133
Söz	-10.2134
paşa	-10.2134
▁(2001)	-10.2139
▁içi	-10.2145
▁Milletvekili	-10.215
▁can	-10.2153
▁kalp	-10.2157
elle	-10.2157
▁División	-10.2161
▁dijital	-10.2172
▁Eleme	-10.2173
▁sebebiyle	-10.2174
▁Kale	-10.2176
:19.	-10.2182
ük	-10.2184
ette	-10.2185
meyen	-10.2191
▁bağlıdır	-10.2193
▁sanayi	-10.2194
▁1922	-10.2203
MÖ	-10.2203
▁American	-10.2204
▁Mehmed	-10.2204
▁sağlık	-10.2205
▁Muharebesi	-10.2211
▁Nar	-10.2213
▁1929	-10.2216
▁Asyalı	-10.2217
▁Up	-10.222
▁yerde	-10.2225
▁varlığı	-10.2233
mur	-10.2234
▁'''6	-10.2236
nos	-10.2237
▁Dağları	-10.2238
▁ga	-10.2247
▁alanda	-10.2248
▁yönetmenleri	-10.2258
and	-10.226
▁açıkladı	-10.2261
-17	-10.2263
ımı	-10.2267
3)	-10.2268
▁250	-10.2271
▁öykü	-10.2276
▁tahta	-10.2279
▁Chicago	-10.2281
1980	-10.2282
▁ilişkiler	-10.2287
▁hız	-10.2288
▁Tak	-10.2292
:2019	-10.2292
mini	-10.2293
▁belir	-10.2296
CD	-10.2299
▁kadrosu	-10.2303
▁BBC	-10.2304
▁Konusu	-10.2305
kes	-10.2306
-9	-10.2306
▁takımlarından	-10.231
cher	-10.2311
▁gir	-10.2319
▁yemek	-10.2324
▁Sir	-10.2324
ی	-10.2325
▁bunu	-10.2326
tha	-10.2326
▁Ödül	-10.2331
▁Rey	-10.2334
▁Port	-10.2342
pt	-10.2345
▁Papa	-10.2347
▁Ermenistan	-10.2348
▁ho	-10.2355
▁esas	-10.2357
▁Ardından	-10.2358
kil	-10.236
▁College	-10.2369
▁sağlamak	-10.2371
mor	-10.2371
▁projesi	-10.2374
▁Google	-10.2374
▁yapmaya	-10.2374
eş	-10.2378
▁'''19	-10.2379
▁san	-10.238
▁Cem	-10.2382
▁taşıtlar	-10.2384
▁"'''	-10.2389
▁2.1	-10.2394
▁Yunanca	-10.2394
▁araçları	-10.2394
nan	-10.2394
dik	-10.2394
▁sonuçlar	-10.2395
▁Özellikle	-10.2396
dol	-10.2397
▁Copa	-10.2402
▁ku	-10.2403
▁Arnavutluk	-10.2404
▁North	-10.2404
▁1924	-10.2407
Ku	-10.241
▁biriydi	-10.2414
Ben	-10.2414
▁Kum	-10.2415
▁Selim	-10.2416
▁Diskografi	-10.242
org	-10.2426
б	-10.2428
▁kanalları	-10.2428
lle	-10.243
▁yaşadı	-10.2433
yol	-10.2434
qua	-10.2435
▁oynamaktadır	-10.2436
▁(1998)	-10.2436
▁süreci	-10.2437
▁Carl	-10.2439
▁sp	-10.2441
н	-10.2441
▁Sinan	-10.2443
▁Sor	-10.2443
▁Buna	-10.2449
▁temsilcisi	-10.2459
▁sarmal	-10.2466
sol	-10.2468
▁Atina	-10.2469
▁es	-10.2481
▁Sp	-10.2482
▁Üyeliği	-10.2486
▁2010'	-10.2486
▁tablo	-10.2488
▁düzey	-10.2489
▁Erken	-10.2491
▁İçişleri	-10.2492
▁oyunlar	-10.2494
ilmiştir	-10.2495
▁Hy	-10.2496
▁yorum	-10.2496
▁başrol	-10.2501
▁kış	-10.2502
▁1912	-10.2502
▁Mir	-10.251
▁Koleji	-10.2512
▁asıl	-10.2516
uri	-10.2517
▁siyasetçileri	-10.2518
▁104	-10.2524
▁reklam	-10.2526
:2008	-10.2534
▁Gaziantep	-10.2535
gy	-10.2539
▁oyunculuk	-10.2547
▁EP	-10.2547
▁Demografi	-10.2548
▁(1999)	-10.2549
kol	-10.2551
say	-10.2555
tos	-10.2557
▁Kurtuluş	-10.256
▁erkekler	-10.256
▁Mad	-10.2561
▁Jones	-10.2565
▁kaç	-10.2569
kle	-10.257
ço	-10.2573
▁engel	-10.2575
▁erdi	-10.2575
▁Des	-10.2578
▁boz	-10.2582
▁Siyasal	-10.2582
▁yılda	-10.2585
lma	-10.2586
▁Mahallesi	-10.2586
:2018	-10.2588
▁Beş	-10.2588
qu	-10.2594
▁belgesel	-10.2597
▁Mat	-10.2597
▁albümüdür	-10.2599
bro	-10.26
▁1938	-10.2601
▁Tel	-10.2604
▁Sey	-10.2606
▁Kraliyet	-10.2607
ata	-10.2613
▁185	-10.2619
▁Cal	-10.2619
▁128	-10.2622
1971	-10.2622
▁not	-10.2623
▁sonuç	-10.2624
▁kuşlar	-10.2628
▁yazılmıştır	-10.2642
▁gizli	-10.2644
▁1932	-10.2647
▁Ste	-10.2649
▁seç	-10.265
▁(10	-10.265
▁gerekli	-10.265
key	-10.2659
▁Ege	-10.2659
rio	-10.2661
lov	-10.2665
▁Rose	-10.2668
Per	-10.2669
▁adım	-10.2671
▁Küre	-10.2673
▁ge	-10.2675
▁geçmiştir	-10.2678
▁Wo	-10.2682
▁Antlaşması	-10.2683
▁Gel	-10.2684
▁Euro	-10.2686
▁Villa	-10.2692
▁hakem	-10.2692
▁askerleri	-10.2693
MA	-10.2695
▁Uğur	-10.2696
ž	-10.2696
▁Program	-10.2698
▁Santa	-10.2698
▁Luc	-10.2699
▁Güvenlik	-10.2703
▁Out	-10.2704
Bar	-10.2706
▁verme	-10.2707
▁klibi	-10.2708
▁(12	-10.2709
▁2006'	-10.2712
я	-10.2716
▁Arjantin	-10.2718
▁tanıtılan	-10.2719
▁School	-10.2721
▁çalışır	-10.2723
Gi	-10.2726
▁sonlarında	-10.2727
▁6,	-10.2728
▁ölümüne	-10.2731
▁üyeliği	-10.2733
lendirme	-10.2735
▁bölümler	-10.274
▁Çalışma	-10.2742
▁neredeyse	-10.2742
▁Nobel	-10.2743
▁değeri	-10.2743
▁sabit	-10.2743
▁kariyerini	-10.2744
▁derecesi	-10.2745
▁Kardeş	-10.2747
▁yönü	-10.2748
Ti	-10.2749
tığı	-10.2751
uf	-10.2752
bit	-10.2763
▁hüküm	-10.2763
▁House	-10.2766
▁Etap	-10.2773
▁Pas	-10.2776
▁Anavatan	-10.2777
▁Sonra	-10.278
Ak	-10.2781
▁Orman	-10.2782
▁ağırlığı	-10.2783
▁ders	-10.2783
mos	-10.2786
▁(2000)	-10.2789
▁Dor	-10.279
ello	-10.2793
▁almak	-10.2798
▁Sanayi	-10.28
eceği	-10.2801
▁sert	-10.2802
On	-10.2807
▁2-1	-10.2815
▁1960'	-10.2817
▁Cre	-10.2819
▁'''7'''	-10.2822
▁América	-10.2823
▁özellikler	-10.2824
▁Gold	-10.2827
▁önde	-10.2827
▁***	-10.283
Eski	-10.2834
▁seyahat	-10.2835
▁Erdoğan	-10.2836
▁Dev	-10.2838
▁okuma	-10.2839
▁ceza	-10.2842
▁seslendirme	-10.2843
ES	-10.2845
▁Die	-10.2845
▁profesör	-10.2847
▁Hayat	-10.2848
▁Ödüller	-10.285
▁1923	-10.2858
▁Ran	-10.2858
-11	-10.2859
▁Komutanlığı	-10.2862
tive	-10.2862
▁Kol	-10.2865
zade	-10.2866
▁çekildi	-10.2869
▁kanıt	-10.2871
gre	-10.2872
▁eşit	-10.2877
▁hayat	-10.2877
▁Den	-10.2885
▁Aile	-10.2889
▁2022'	-10.2893
▁Abdullah	-10.2893
▁uzman	-10.2895
▁uzak	-10.2897
▁terimi	-10.29
▁müzisyenler	-10.2901
iya	-10.2902
▁kullanır	-10.2902
▁Dört	-10.2903
altı	-10.2904
▁sayfa	-10.2906
▁yapar	-10.2909
▁Tür	-10.291
▁geldiği	-10.2912
mas	-10.2912
▁Önce	-10.2913
▁şirketin	-10.2914
▁Turu	-10.2917
▁kişidir	-10.2917
▁Tru	-10.292
asyonu	-10.2921
fon	-10.2922
▁yakınlarında	-10.2923
ness	-10.293
▁müsabakaları	-10.293
▁Edirne	-10.2935
▁103	-10.2936
▁hareketi	-10.2937
▁plak	-10.2942
▁yaparak	-10.2943
▁kutusu	-10.2944
▁romantik	-10.2944
eddin	-10.2949
Tu	-10.2952
▁kaya	-10.2958
▁Maçlar	-10.296
abilen	-10.2963
▁man	-10.2966
▁pat	-10.2967
▁cinsel	-10.2968
1972	-10.2969
▁Tab	-10.2969
lot	-10.2973
▁üstlendi	-10.2976
▁102	-10.2979
▁giymektedir	-10.2987
sat	-10.2992
▁edin	-10.2997
▁boya	-10.3003
▁Bakü	-10.3003
▁hat	-10.3004
▁Tokat	-10.3007
▁hiç	-10.3008
nci	-10.3011
▁Kazakistan	-10.3011
▁Kel	-10.3013
Go	-10.3019
▁alanları	-10.3021
▁Yardımcısı	-10.3022
▁Francisco	-10.3024
▁tarihlerinde	-10.303
▁durumda	-10.3031
▁Emir	-10.3031
▁Çorum	-10.3032
ن	-10.3033
▁hisse	-10.3034
▁katılmıştır	-10.3036
▁1920	-10.3038
▁115	-10.3042
▁ikisi	-10.3043
▁Hat	-10.3046
▁Group	-10.3047
▁cilt	-10.3047
▁(2012)	-10.3048
tte	-10.3048
▁bey	-10.3049
▁101	-10.305
▁con	-10.3051
▁Wil	-10.3055
▁Elazığ	-10.3058
▁beşinci	-10.306
▁White	-10.3064
▁Scott	-10.3066
▁kadro	-10.3071
ksiyon	-10.3074
▁günümüze	-10.3079
▁Giresun	-10.3082
▁Land	-10.3083
▁Bla	-10.3086
▁stil	-10.3092
cil	-10.3092
▁Tat	-10.3093
▁bilimkurgu	-10.3094
ktedir	-10.3095
▁piyasa	-10.3095
▁müziğini	-10.3098
▁kuru	-10.3099
▁güvenlik	-10.31
ula	-10.3101
▁atan	-10.3102
▁FA	-10.311
1978	-10.311
▁France	-10.311
size	-10.3111
line	-10.3113
▁Haber	-10.3117
▁Model	-10.3119
sko	-10.312
▁edebiyatı	-10.3122
▁bıraktı	-10.3125
▁2''	-10.3126
▁Sil	-10.3127
ous	-10.3129
▁Poli	-10.313
å	-10.313
▁And	-10.3133
As	-10.3135
▁Dur	-10.3136
alan	-10.3139
▁Sh	-10.3141
▁140	-10.3144
▁kurulması	-10.3148
▁gökada	-10.3148
▁pi	-10.315
▁sanatçılar	-10.3151
▁Şiir	-10.3151
larak	-10.3151
▁Kütahya	-10.3154
▁ödülünü	-10.3155
▁Milliyetçi	-10.3156
▁Yok	-10.3157
▁Polis	-10.3157
▁marka	-10.3162
ū	-10.3168
Can	-10.3171
▁1916	-10.3175
▁çek	-10.3175
▁maçına	-10.3176
likleri	-10.3176
▁Ortodoks	-10.3178
▁belli	-10.318
▁birliği	-10.3184
▁dek	-10.3187
▁gemisi	-10.3189
▁meslek	-10.3191
▁Win	-10.3192
▁ayı	-10.3194
▁Fen	-10.3194
▁orman	-10.3195
▁giden	-10.3202
▁platform	-10.3203
▁Böylece	-10.3204
▁Bağ	-10.3207
ille	-10.3209
▁tasarımı	-10.3212
▁almaya	-10.3212
▁sev	-10.3214
▁Bilgi	-10.3215
▁yolcu	-10.3215
uç	-10.3218
▁Metro	-10.3223
▁Müze	-10.3224
ale	-10.3226
▁milyar	-10.3226
süz	-10.3227
▁eren	-10.323
▁he	-10.3235
▁renkli	-10.3237
»	-10.3238
▁mezar	-10.3239
▁Ü	-10.3241
▁1917	-10.3241
örü	-10.3244
oo	-10.3245
▁olacak	-10.3248
▁ton	-10.3253
▁Fan	-10.3256
▁Kaynak	-10.3259
fan	-10.3262
▁hayatına	-10.3262
▁tut	-10.3263
▁1914	-10.3271
▁Madalyası	-10.3271
▁Sıralama	-10.3272
liler	-10.3273
▁bomba	-10.3275
cle	-10.3278
▁Sy	-10.3283
▁açtı	-10.3293
▁Il	-10.3295
▁bulunmayan	-10.3301
cular	-10.3301
▁Edward	-10.3302
▁Sanatlar	-10.3305
▁CHP	-10.3305
▁Sav	-10.3305
oy	-10.3306
eh	-10.3306
▁yarışma	-10.3307
▁çiz	-10.3309
▁Brezilyalı	-10.331
▁kaybeden	-10.3311
ár	-10.3312
▁ekonomi	-10.3316
▁sahipti	-10.3316
▁yöre	-10.3323
▁Hastanesi	-10.3323
▁1930	-10.3323
sus	-10.3327
▁Bat	-10.3333
ky	-10.3336
Har	-10.3337
gra	-10.3338
▁Rad	-10.3339
▁Afrikan	-10.334
▁metin	-10.3341
▁dönüştü	-10.3342
:2010	-10.3343
▁adlandırılan	-10.3348
▁koyu	-10.335
);	-10.335
cal	-10.3356
Tek	-10.3358
▁süper	-10.336
mbo	-10.3367
▁yüzden	-10.3369
▁teslim	-10.3372
pu	-10.3375
▁#"	-10.3375
▁ailenin	-10.3378
▁belge	-10.338
▁Birçok	-10.3384
▁tasvir	-10.3384
▁yazma	-10.3386
▁gönder	-10.3389
▁Anton	-10.3392
▁fotoğraf	-10.3392
▁ot	-10.3395
ala	-10.3401
▁halkı	-10.3403
ato	-10.3407
▁Serbest	-10.3409
▁görüş	-10.3414
▁Ağa	-10.3416
bul	-10.3417
▁Gen	-10.342
▁mahkeme	-10.3421
▁Girl	-10.3422
▁sürü	-10.3424
▁2.2	-10.3425
▁evli	-10.3438
▁1915	-10.3438
▁kod	-10.3439
▁etkinliği	-10.3441
▁finans	-10.3446
▁kolu	-10.3447
mil	-10.3447
▁isimler	-10.3449
▁kolay	-10.3449
на	-10.3458
▁Wal	-10.3458
▁banka	-10.3461
▁zamanlar	-10.3467
▁shift	-10.3471
▁Chart	-10.3472
▁Hor	-10.3473
▁tatlı	-10.3473
▁arkadaşları	-10.3478
▁Mur	-10.348
▁yay	-10.3481
lamıştır	-10.3481
▁düşman	-10.3483
duğu	-10.3483
▁ağaç	-10.3483
▁Cam	-10.3484
▁Official	-10.3484
İtalya	-10.3485
kçe	-10.3486
ović	-10.3488
soy	-10.3489
pen	-10.3492
ics	-10.3493
kut	-10.3494
▁Yozgat	-10.3496
▁per	-10.3496
ona	-10.3499
lâ	-10.3499
▁imparator	-10.3501
▁Us	-10.3502
▁Bell	-10.3503
▁ölen	-10.3504
kara	-10.3506
pin	-10.3507
▁History	-10.3509
Sta	-10.3511
▁derin	-10.3514
▁amaçlı	-10.3514
▁.4	-10.3515
▁font	-10.3521
▁Kamu	-10.3522
▁Alexander	-10.3523
▁website	-10.3526
▁grubunun	-10.3527
▁dergi	-10.3529
gli	-10.3533
▁160	-10.3534
▁(4	-10.3538
▁önünde	-10.3539
ira	-10.3541
▁Mahallenin	-10.3542
ν	-10.3545
▁tıp	-10.3547
▁idam	-10.355
▁suyu	-10.3557
▁katıldığı	-10.3558
▁çünkü	-10.3558
س	-10.3558
▁Oğuz	-10.3558
sy	-10.3558
▁Edi	-10.3558
▁açı	-10.3561
▁yazılı	-10.3564
▁tarafında	-10.3565
▁Gal	-10.357
▁pilot	-10.3571
yordu	-10.3573
▁bal	-10.3574
▁Kars	-10.3576
ín	-10.3578
▁desteği	-10.3583
▁Manchester	-10.3583
▁kapı	-10.3583
vers	-10.3583
▁Pol	-10.3588
▁Fre	-10.3592
▁henüz	-10.3595
▁Hen	-10.3597
▁3-0	-10.3598
zin	-10.3602
ium	-10.3605
6'''	-10.3608
Wa	-10.361
▁Royal	-10.3611
▁Say	-10.3613
lığın	-10.3616
giller	-10.3616
▁dev	-10.3617
pre	-10.3617
▁(1997)	-10.3621
▁Cla	-10.3621
▁Metin	-10.3627
art	-10.3627
▁kapan	-10.3629
fre	-10.3631
▁Kırım	-10.3632
▁Tatar	-10.3634
▁olduktan	-10.3636
▁forması	-10.3639
rey	-10.364
amp	-10.3642
▁örgüt	-10.3645
▁karısı	-10.3646
▁kültürü	-10.3651
▁aktör	-10.3652
▁barış	-10.3659
abı	-10.367
▁Litvanya	-10.3671
▁Başrol	-10.3671
▁Kuş	-10.3672
Bilgi	-10.3677
red	-10.3679
▁basit	-10.3682
▁geçerli	-10.3684
siyon	-10.3685
chen	-10.3687
▁bugün	-10.3687
▁saf	-10.3691
▁kişisel	-10.3691
aba	-10.3693
▁Home	-10.3695
▁Yerel	-10.3699
dri	-10.3701
ges	-10.3703
▁albümün	-10.3706
▁Şahin	-10.3706
▁Hanım	-10.3707
▁(2013)	-10.3709
▁güreşçiler	-10.3709
All	-10.3716
ğında	-10.3716
▁mağara	-10.3721
Büyük	-10.3721
▁Miss	-10.3722
▁dolar	-10.3723
▁tanınan	-10.3723
▁bakış	-10.3725
tsu	-10.3726
cio	-10.3727
▁anne	-10.3732
▁kanser	-10.3733
kta	-10.3736
▁felsefe	-10.3738
Ga	-10.3738
rap	-10.3744
▁sözleri	-10.3749
▁Len	-10.375
▁geçmiş	-10.375
üsü	-10.3751
م	-10.3752
▁orada	-10.3754
▁hizmeti	-10.3755
▁yargı	-10.3756
jin	-10.3757
ე	-10.3759
▁yaşamaktadır	-10.3761
▁Hem	-10.3761
▁Çi	-10.3763
▁başı	-10.3765
▁anıt	-10.3766
▁insanların	-10.3769
▁yayım	-10.3771
▁Inter	-10.3772
▁operasyon	-10.3773
Em	-10.3775
▁Kri	-10.3779
▁Street	-10.378
itz	-10.3787
▁yavaş	-10.3787
▁Emre	-10.3787
▁ürün	-10.3791
▁oluştur	-10.3791
▁Sky	-10.3798
▁numaraya	-10.3799
▁çevresi	-10.38
▁arada	-10.3801
▁'''8'''	-10.3803
1)	-10.3804
▁yerler	-10.3809
▁Ölümü	-10.3811
Mon	-10.3812
▁hane	-10.3814
▁den	-10.3817
▁Barcelona	-10.382
▁babasının	-10.3821
▁kitaplar	-10.3821
▁gerçekleşen	-10.3824
▁alınmıştır	-10.3826
türk	-10.383
lav	-10.3836
masına	-10.3839
?''	-10.3839
▁ailesinin	-10.3839
▁girişi	-10.3841
▁yönetilen	-10.3853
▁Bad	-10.3857
▁'''9'''	-10.3857
▁yöntemi	-10.3861
▁yörünge	-10.3862
▁Aslan	-10.3862
▁olduğundan	-10.3865
▁işletim	-10.3866
▁AS	-10.387
▁geçme	-10.387
▁İz	-10.3872
cor	-10.3891
▁hızı	-10.3891
▁sanatı	-10.3894
▁oda	-10.3896
sing	-10.3897
▁avukat	-10.3897
▁keşfedilmiştir	-10.3901
Fe	-10.3901
▁çatışma	-10.3902
▁Your	-10.3903
▁Zu	-10.3903
▁2010-11	-10.3909
▁merkezinde	-10.3913
▁açıldı	-10.3914
▁seçilen	-10.3914
▁konumu	-10.3915
ıyordu	-10.3915
▁çıkardı	-10.3915
г	-10.3923
DE	-10.3925
'''"	-10.393
▁sözcüğü	-10.3934
▁bağlandı	-10.3937
star	-10.3937
▁saray	-10.3938
200	-10.3941
We	-10.3945
▁yüksekliği	-10.3952
▁nasıl	-10.3953
fen	-10.3954
JPG	-10.3956
ł	-10.3956
▁1931	-10.3957
▁çıkma	-10.3958
▁gösterim	-10.3962
▁İsa	-10.3966
▁Kanadalı	-10.3967
:2017	-10.3969
▁135	-10.3969
pel	-10.3971
▁kanal	-10.3972
ıldığı	-10.3984
▁Col	-10.3987
şık	-10.3987
▁kullandığı	-10.3987
▁başbakan	-10.3989
▁çıktığı	-10.399
▁Fas	-10.3994
▁diş	-10.3997
▁Nokia	-10.3997
▁Cezayir	-10.3999
▁kuruluşları	-10.3999
з	-10.4
▁yerleri	-10.4003
:2004	-10.4004
▁alması	-10.4008
▁çık	-10.4009
▁Mike	-10.401
iti	-10.4014
Ligue	-10.4015
▁1950'	-10.4015
▁Altay	-10.4016
▁yönetici	-10.4017
▁TCDD	-10.4018
▁Şanlıurfa	-10.4018
▁benzeri	-10.4019
▁1,	-10.4021
▁cins	-10.4023
veya	-10.4025
▁doktora	-10.4025
Ser	-10.4025
▁araba	-10.4027
Ulusal	-10.4028
dro	-10.4031
kul	-10.4032
▁Okyanusu	-10.4032
ız	-10.4036
ğü	-10.4044
▁lo	-10.4044
▁kimyasal	-10.4045
lit	-10.4046
▁bulun	-10.4051
İstanbul	-10.4054
çü	-10.4054
Va	-10.4058
▁unvanı	-10.4059
▁inceleme	-10.4063
Ça	-10.4064
olo	-10.407
▁gi	-10.407
▁Kong	-10.4072
▁Drama	-10.4079
▁(1996)	-10.408
▁nedeni	-10.408
▁Bugün	-10.4081
▁Boz	-10.4083
ă	-10.4083
▁sürüldü	-10.4084
▁Biyografi	-10.4086
▁maddeler	-10.4093
▁standart	-10.4094
▁ediyor	-10.4094
▁aşama	-10.4098
▁ortasında	-10.4098
▁elektronik	-10.4099
Liga	-10.4103
▁ayrılmıştır	-10.4111
▁Özerk	-10.4112
▁('''	-10.4113
ug	-10.4118
▁Gro	-10.412
▁%0,1	-10.412
Love	-10.4124
ğını	-10.4128
▁ser	-10.4129
pri	-10.4132
mıştı	-10.4133
▁stadyum	-10.4135
▁gelebilir	-10.4137
nus	-10.4137
▁karakterini	-10.4137
▁dilinde	-10.4146
د	-10.4149
▁sonu	-10.4153
▁finalist	-10.4154
▁River	-10.4156
2010	-10.4161
▁Cat	-10.4163
Rusça	-10.4164
Kadın	-10.4165
▁175	-10.4165
▁kalın	-10.4167
▁isimleri	-10.4168
▁özgü	-10.4171
▁Who	-10.4178
gül	-10.4189
kir	-10.419
▁Sü	-10.419
▁opera	-10.4191
▁FW	-10.4191
▁bunlar	-10.4192
vik	-10.4192
▁Yerleşim	-10.4194
▁Center	-10.4195
▁Hükûmeti	-10.4198
LA	-10.4199
▁Şam	-10.42
öz	-10.42
▁ülkesi	-10.4201
▁siyasetçidir	-10.4202
▁dayanan	-10.4203
▁gerek	-10.4206
▁sıcak	-10.4206
▁hakim	-10.4208
▁Bob	-10.421
▁unvanını	-10.4211
▁2011-12	-10.4211
▁Albert	-10.4213
▁God	-10.4214
hard	-10.4214
▁yukarı	-10.4216
▁Holding	-10.4217
▁parçaları	-10.4218
▁ed	-10.4219
zy	-10.4221
▁2-0	-10.4222
Hersek	-10.4224
▁eyalet	-10.4225
Serie	-10.4228
John	-10.4228
▁Hırvatistan	-10.423
▁görülmektedir	-10.423
▁telefon	-10.423
▁şekil	-10.4232
mis	-10.4232
▁güçleri	-10.4232
▁Song	-10.4233
▁Devrimi	-10.4238
▁kral	-10.4238
EC	-10.4243
▁Beşinci	-10.4243
▁Profili	-10.4243
▁geçici	-10.4244
"''	-10.4245
▁parlak	-10.4249
▁romanlar	-10.4252
▁Harp	-10.4256
▁'''10'''	-10.4259
▁kuruluş	-10.4262
▁Motor	-10.4266
bot	-10.4267
▁Şe	-10.4267
Sovyet	-10.4269
▁yaşanan	-10.427
list	-10.427
BA	-10.4271
ex	-10.4271
▁ti	-10.4271
▁Yugoslavya	-10.4275
▁Steve	-10.4276
▁LGBT	-10.4277
▁1919	-10.4277
▁işlem	-10.428
Çin	-10.4281
▁sürdü	-10.4281
:2022	-10.4282
ces	-10.4282
▁uyarlanan	-10.4283
br	-10.4285
▁Artvin	-10.4286
▁108	-10.4288
▁hayvanlar	-10.4288
oma	-10.4289
▁vur	-10.4294
▁müzikal	-10.4295
For	-10.4297
▁José	-10.4299
▁arama	-10.4305
▁Long	-10.4305
ulu	-10.4309
▁Parça	-10.431
ğa	-10.431
üz	-10.4311
▁Bru	-10.4311
▁Kam	-10.4312
▁play	-10.4313
▁1913	-10.4314
▁Sand	-10.432
pro	-10.4323
▁Polonyalı	-10.4325
▁istasyonu	-10.4328
▁Are	-10.433
▁belediyeleri	-10.4334
▁düzenli	-10.4334
▁Comp	-10.4338
▁Federal	-10.4339
▁Yılı	-10.4344
ebe	-10.4346
7'''	-10.4355
▁yakınında	-10.4355
▁dayalı	-10.4356
▁bölgenin	-10.4358
▁Sto	-10.4359
udur	-10.4359
▁vermek	-10.436
▁uydu	-10.4363
▁Erzincan	-10.4364
▁yerleşti	-10.4367
inger	-10.4374
▁geçirdiği	-10.4376
▁Ant	-10.4376
▁Tren	-10.4378
▁rengi	-10.4379
lendiği	-10.438
▁güneş	-10.4381
▁baba	-10.4388
▁Mai	-10.4389
1975	-10.439
▁kendine	-10.4391
Ye	-10.4392
▁uzunluğu	-10.4392
▁küme	-10.4394
▁aksine	-10.4395
▁Mes	-10.4398
stik	-10.4403
▁kontrolü	-10.4403
:2015	-10.4405
▁anti	-10.4408
▁pas	-10.4408
▁tanım	-10.4408
▁Mont	-10.4413
▁gider	-10.4416
▁Balkan	-10.4419
▁giyen	-10.4419
▁''"	-10.442
▁böylece	-10.4422
▁sorunları	-10.4422
▁solo	-10.4424
▁fe	-10.4424
▁köprü	-10.4425
▁harita	-10.4427
▁kıyı	-10.4436
0)	-10.4437
▁hizmetleri	-10.4439
Car	-10.4442
▁Jersey	-10.4446
▁Award	-10.4448
▁yasak	-10.4452
▁Gümüş	-10.4452
▁2.5	-10.4456
cent	-10.4459
▁Op	-10.446
▁ci	-10.4463
▁Dream	-10.4465
wan	-10.4467
dim	-10.4468
▁ülkelerde	-10.4469
▁tanınır	-10.4473
▁109	-10.4473
rip	-10.4482
ome	-10.4482
▁Society	-10.4486
▁Pakistan	-10.4487
:2014	-10.4496
▁Championship	-10.45
▁Parlamentosu	-10.4505
▁savaşı	-10.4506
ctor	-10.4511
▁yumurta	-10.4514
Qu	-10.4514
▁Yarış	-10.4514
▁Christian	-10.4515
▁Stra	-10.4515
▁Güven	-10.452
pon	-10.452
Aşk	-10.4521
▁Af	-10.4522
oc	-10.4522
▁davranış	-10.4526
▁kısmında	-10.4527
Şampiyon	-10.4529
masını	-10.4531
▁otomobiller	-10.4532
IS	-10.4533
▁Eric	-10.4534
▁tabanlı	-10.4535
▁Örgütü	-10.4535
▁145	-10.4538
▁Bundesliga	-10.4541
▁boyu	-10.4546
▁Takımı	-10.4551
▁Askeri	-10.4552
▁yaşamış	-10.4554
Ge	-10.4554
▁Opera	-10.4557
▁söyledi	-10.4557
▁Trans	-10.4566
▁sürgün	-10.4569
▁makam	-10.4575
vit	-10.4576
oni	-10.4577
pus	-10.4583
▁doğmuştur	-10.4583
▁ölçü	-10.4584
▁tepki	-10.4584
▁biçimde	-10.4589
leş	-10.459
▁taşıma	-10.4593
▁servis	-10.4594
▁altındaki	-10.46
lamak	-10.46
▁görünümü	-10.4601
▁v	-10.4603
▁US	-10.4604
OR	-10.4604
şu	-10.4606
▁parçasıdır	-10.4606
▁(13	-10.4611
▁Mira	-10.4612
▁bilgileri	-10.4616
geç	-10.4617
▁yağ	-10.4618
▁dünyada	-10.462
1961	-10.4621
▁«	-10.4625
▁04	-10.4626
▁vergi	-10.4626
▁senarist	-10.4632
▁askerler	-10.4634
▁Rize	-10.4637
▁Türkler	-10.4638
▁başardı	-10.4639
▁politikacı	-10.464
mond	-10.4646
▁çocukları	-10.4647
▁formasını	-10.4653
Sen	-10.4654
▁önem	-10.4666
▁2005'	-10.4667
▁Gece	-10.4668
▁sunucu	-10.4672
▁eylem	-10.4672
▁kaza	-10.4672
▁%2	-10.4674
▁179	-10.4677
▁Venedik	-10.4677
▁Çelik	-10.4678
▁sıvı	-10.468
▁1908	-10.4681
▁grafik	-10.4681
▁cinsi	-10.4681
▁Boston	-10.4682
▁Eu	-10.4683
mont	-10.4684
▁topluluğu	-10.4689
bus	-10.4691
mız	-10.4692
▁içine	-10.4693
not	-10.4693
▁sayılabilir	-10.4695
Ru	-10.4696
▁rapor	-10.4697
▁Ang	-10.4698
▁makale	-10.4699
▁Tah	-10.4701
▁London	-10.4702
▁drama	-10.471
▁Meslek	-10.471
pur	-10.471
▁Atlet	-10.4713
▁Yar	-10.4716
eme	-10.4717
▁kullan	-10.4722
sz	-10.4722
2009	-10.4722
▁(14	-10.4725
eva	-10.4727
▁tarafta	-10.4729
fet	-10.4731
▁Tü	-10.4731
▁Köyü	-10.4732
far	-10.4732
▁sağladı	-10.4733
▁kardeş	-10.4735
▁şehirde	-10.4735
ι	-10.4736
▁şiddet	-10.4742
▁aşırı	-10.4743
▁öğrencisi	-10.4748
▁defans	-10.4753
old	-10.4753
US	-10.4753
▁gerekir	-10.4754
wo	-10.4755
▁107	-10.4757
▁Sonraki	-10.4762
▁Pers	-10.4763
:2000	-10.4764
-20	-10.4766
▁178	-10.4766
tum	-10.4767
▁(11	-10.4767
▁Tunus	-10.4768
▁Bolu	-10.4772
▁.3	-10.4772
Ki	-10.4773
▁yazılımları	-10.4773
▁kurgusal	-10.478
mayı	-10.478
acı	-10.4784
dos	-10.4785
▁devri	-10.4785
Rusya	-10.4786
▁Res	-10.4786
heim	-10.4789
▁dile	-10.4789
▁High	-10.479
ive	-10.4791
Yunan	-10.4792
▁deneyim	-10.4793
▁firması	-10.4803
▁gövde	-10.4806
▁Lewis	-10.4807
▁başlat	-10.4808
▁Yedi	-10.4809
▁170	-10.481
▁Good	-10.481
▁(1995)	-10.4815
▁köyde	-10.4816
makta	-10.4818
▁mimari	-10.4823
▁Yaşam	-10.4826
:2006	-10.4826
▁Eser	-10.4831
RA	-10.4832
hara	-10.4834
via	-10.4836
▁2.3	-10.4837
▁Yine	-10.4838
▁sap	-10.4839
▁Günü	-10.4841
▁halklardan	-10.4841
istik	-10.4842
▁sayfalar	-10.4844
▁Tarım	-10.4844
▁toplama	-10.4845
vil	-10.4849
lıyor	-10.485
▁gösterdi	-10.4852
▁galaksidir	-10.4853
▁çö	-10.4857
▁Aşağı	-10.4858
die	-10.4858
lic	-10.486
▁+2	-10.486
▁Halil	-10.4861
▁finaller	-10.4863
ico	-10.4865
▁Wood	-10.4866
lemiştir	-10.4871
▁aşağı	-10.4871
▁Kendi	-10.4874
▁duvar	-10.4876
Hu	-10.4877
▁hatta	-10.4879
mü	-10.488
less	-10.4881
▁ilişkin	-10.4882
▁buna	-10.4882
▁hastane	-10.4882
ted	-10.4883
▁süt	-10.4884
▁çekti	-10.4887
ord	-10.4888
▁gezegen	-10.4889
▁Com	-10.489
MC	-10.4892
▁(2015)	-10.4893
▁albümde	-10.4893
▁Yüksel	-10.4893
▁kanat	-10.4893
▁motoru	-10.4896
▁Prens	-10.4898
vas	-10.4898
▁liman	-10.4899
▁Gaz	-10.4903
amadı	-10.4906
psi	-10.4914
ladığı	-10.4914
▁görünüm	-10.4916
Doğu	-10.4917
kas	-10.4919
more	-10.4919
Don	-10.4923
▁çevresinde	-10.4925
▁göreve	-10.4926
▁şarkının	-10.4929
▁kullanılarak	-10.4935
▁YouTube	-10.4935
▁rakibi	-10.4935
▁(%	-10.4936
▁Hollandalı	-10.4937
nek	-10.4937
▁arttı	-10.4938
▁Cel	-10.4938
▁dağı	-10.4947
▁Yıldırım	-10.4949
▁zamanında	-10.4949
▁kullanılabilir	-10.4949
▁hal	-10.4955
▁kaynaklar	-10.4957
▁Dağ	-10.4958
▁varlık	-10.496
▁darbe	-10.4962
▁Şili	-10.4963
yal	-10.4965
▁mer	-10.4966
▁Çiçek	-10.4967
▁çıkardığı	-10.4968
▁cep	-10.4969
#	-10.497
▁South	-10.4971
ürü	-10.4972
▁serisinin	-10.4974
-13	-10.4975
▁istasyonları	-10.4975
▁muhtemelen	-10.4975
▁Taylor	-10.4978
▁Kilise	-10.498
▁seçimi	-10.4982
uğu	-10.4982
▁görme	-10.4983
▁dersleri	-10.4988
▁diller	-10.4993
▁7,	-10.4993
1969	-10.4996
▁turizm	-10.5
▁onları	-10.5002
▁Listeler	-10.5003
Baş	-10.5004
▁ısı	-10.5004
▁3-1	-10.5011
▁doku	-10.5011
▁Yazı	-10.5013
▁değişik	-10.5014
▁birisidir	-10.5015
▁Island	-10.5016
▁çıkması	-10.5018
Super	-10.5019
▁sonradan	-10.5021
▁başkanlık	-10.5021
▁Sakarya	-10.5021
▁Arena	-10.5022
Con	-10.5026
▁Dia	-10.5026
▁Hong	-10.5028
▁duyu	-10.5029
Roma	-10.503
ado	-10.5031
▁1918	-10.5035
▁Bülent	-10.5038
▁anlamlara	-10.5039
▁Uzay	-10.5041
tak	-10.5044
▁Carlos	-10.5047
bah	-10.5051
▁tanımlanan	-10.5051
sim	-10.5052
▁İçin	-10.5055
▁kaydı	-10.5056
Die	-10.5058
ore	-10.5058
kül	-10.5058
stro	-10.5059
▁112	-10.506
▁Blue	-10.506
▁Bou	-10.506
Genel	-10.5063
▁manastır	-10.5065
▁finale	-10.5068
1964	-10.5074
▁106	-10.5074
Teknik	-10.5075
▁işi	-10.508
▁Android	-10.5081
▁3.0	-10.5082
:1992	-10.5084
tura	-10.5087
▁Lau	-10.5089
sur	-10.509
'';	-10.5092
our	-10.5092
ρ	-10.5093
ullah	-10.5095
▁Silahlı	-10.5102
▁Thi	-10.5103
▁İşletme	-10.5108
▁Afganistan	-10.5109
▁Gö	-10.5112
▁182	-10.5114
dio	-10.5115
sil	-10.5119
▁yen	-10.512
laması	-10.5123
–2	-10.5131
▁Part	-10.5134
▁Maz	-10.5136
▁anlaşıl	-10.5138
▁(5	-10.5139
Tur	-10.5139
▁İmparator	-10.5141
▁ün	-10.5142
▁184	-10.5142
▁AK	-10.5144
▁2.4	-10.5144
▁çaplı	-10.5145
ılmıştır	-10.5152
▁°	-10.5155
ünde	-10.5157
SV	-10.5158
pha	-10.5158
-14	-10.516
▁görevinden	-10.5161
▁belediyesi	-10.5162
▁yapılması	-10.5164
▁dal	-10.517
▁114	-10.5173
▁kurma	-10.5174
▁Heart	-10.5177
▁bitkiler	-10.5179
▁indirme	-10.5185
▁Okul	-10.5187
▁İlçesi	-10.5189
Film	-10.5193
ij	-10.5196
▁(2014)	-10.5199
▁Tony	-10.5203
▁Team	-10.5204
hem	-10.5207
EN	-10.5209
▁saç	-10.5212
▁Hakan	-10.5213
stri	-10.5214
pol	-10.5215
▁albümünde	-10.5216
▁çekilen	-10.5216
▁kopya	-10.5217
▁kaydetti	-10.5219
▁Inc	-10.5223
▁vatandaşları	-10.5224
▁Senaryo	-10.5226
mekte	-10.5229
▁Disney	-10.523
▁sonuna	-10.5234
▁August	-10.5237
▁116	-10.5237
iği	-10.5241
▁Juan	-10.5242
▁biraz	-10.5242
▁soru	-10.5246
bank	-10.5247
▁Tha	-10.5248
▁senesinde	-10.5253
▁Çeşitli	-10.5255
▁Nas	-10.5259
8'''	-10.5261
4)	-10.5261
▁Ailesi	-10.5262
▁kor	-10.5264
▁pul	-10.5265
▁işgali	-10.5265
▁kav	-10.5265
IN	-10.5266
▁Fotoğraf	-10.5267
▁Körfezi	-10.5268
▁başkent	-10.5271
▁kapat	-10.5273
▁it	-10.5279
▁tuz	-10.5279
nen	-10.5296
▁hesap	-10.5297
▁Kılıç	-10.53
▁Andrew	-10.5302
sunu	-10.5306
RC	-10.5306
▁bugünkü	-10.5306
act	-10.5306
▁geçir	-10.5307
▁Hill	-10.5309
▁karşılık	-10.5313
▁tarafı	-10.5313
▁Nes	-10.5315
▁Antonio	-10.5316
time	-10.5316
nç	-10.5317
▁haritası	-10.532
▁istatistikleri	-10.5329
▁Cephesi	-10.533
umu	-10.5332
▁sayımında	-10.5335
▁Nik	-10.5338
▁(3)	-10.5339
▁Ten	-10.534
Ev	-10.534
▁karşın	-10.5342
ED	-10.5344
▁aslında	-10.5345
▁başarısız	-10.5345
▁Stefan	-10.5345
▁Mühendisliği	-10.5347
▁cam	-10.535
▁Story	-10.5351
▁Pal	-10.5352
▁idaresi	-10.5354
sso	-10.5355
AD	-10.5356
▁Türkmen	-10.5357
▁Game	-10.5358
ast	-10.5359
▁teorisi	-10.5361
▁Pierre	-10.5363
Gu	-10.5372
▁elemeleri	-10.5373
▁Monte	-10.5374
his	-10.5375
▁CONCACAF	-10.5382
▁Single	-10.5384
▁2009-10	-10.5387
▁Sayısı	-10.5388
▁Demokrasi	-10.539
▁protein	-10.539
▁kapalı	-10.5391
▁sıcaklık	-10.5392
ere	-10.5392
▁kurum	-10.5395
▁idare	-10.5395
▁ben	-10.5402
▁ayrılır	-10.5406
nel	-10.5406
▁Yolu	-10.5407
▁seçme	-10.5408
▁117	-10.5409
▁listesine	-10.5412
▁8,	-10.5413
gro	-10.5418
▁Fox	-10.5419
▁cinayet	-10.542
▁layık	-10.542
1945	-10.542
Video	-10.5421
▁State	-10.5423
▁inşaat	-10.5424
▁salonu	-10.5427
▁yaşamını	-10.5428
▁katılma	-10.5429
medi	-10.5434
▁pan	-10.5434
▁aralarında	-10.5435
▁Ateş	-10.5436
sor	-10.5437
▁fiziksel	-10.5437
Wi	-10.5439
▁kenti	-10.5442
▁au	-10.5442
▁Koca	-10.5442
mekteydi	-10.5444
▁gösteri	-10.5449
▁‘	-10.5452
▁aşaması	-10.5453
▁ödülleri	-10.5455
rov	-10.5455
▁ال	-10.5455
▁cihaz	-10.5458
▁toplantı	-10.5461
▁111	-10.5461
▁Turnuva	-10.5461
▁maça	-10.5461
▁Münih	-10.5465
▁Caddesi	-10.5465
▁yirmi	-10.5465
▁oluşuyordu	-10.5466
▁Tim	-10.5468
▁esir	-10.5472
▁Turizm	-10.5472
▁arkeolojik	-10.5474
▁Masa	-10.5479
▁af	-10.5479
▁Sk	-10.5479
▁nehir	-10.5482
▁anayasa	-10.5485
▁Ray	-10.5486
▁Yukarı	-10.549
end	-10.5494
▁Rio	-10.5494
gos	-10.5496
uch	-10.5498
▁türler	-10.5498
▁getir	-10.5498
light	-10.55
▁olayları	-10.5503
▁sokak	-10.5506
nova	-10.5512
▁altyapısı	-10.5514
▁üstlendiği	-10.5515
▁dava	-10.5518
▁ilinde	-10.5518
▁kalıntıları	-10.5519
▁132	-10.5519
▁modeller	-10.5519
▁Eğitimi	-10.552
▁görevlisi	-10.5522
▁röportaj	-10.5526
▁Slav	-10.553
▁yere	-10.5534
▁Tal	-10.5535
cin	-10.5535
▁davet	-10.5539
▁Yavuz	-10.554
▁taksonlar	-10.5543
PS	-10.5546
▁Amatör	-10.5546
ough	-10.555
▁İs	-10.5552
▁Yaşar	-10.5553
▁deprem	-10.5553
▁Blo	-10.5553
▁Kırmızı	-10.5554
▁İskender	-10.5554
▁zayıf	-10.5556
landırma	-10.5556
out	-10.5558
▁Free	-10.5565
▁Ruh	-10.5565
Sha	-10.5569
ğinde	-10.5573
▁sezonun	-10.5574
çin	-10.5574
tom	-10.5576
ost	-10.5579
Antik	-10.558
▁birbirine	-10.5583
Par	-10.5584
▁Kit	-10.5585
ε	-10.5587
▁üstlenmiştir	-10.559
▁manga	-10.5591
▁hızla	-10.5592
▁bölgesinin	-10.5592
▁sınırlı	-10.5596
▁Br	-10.5596
▁119	-10.5597
▁Temel	-10.5598
▁Sem	-10.5602
▁1910	-10.5606
▁otur	-10.5606
▁Mardin	-10.5607
▁heykel	-10.5607
▁Ağrı	-10.5608
▁mekan	-10.5612
▁kurumları	-10.5613
war	-10.5617
▁yapıldığı	-10.5617
▁Erdem	-10.5619
▁kümesi	-10.5619
▁yaşlı	-10.562
▁trans	-10.5621
▁disk	-10.5623
▁tanrı	-10.563
▁HD	-10.5632
▁demir	-10.5633
▁ihtiyaç	-10.5633
▁tank	-10.5634
▁gıda	-10.5634
▁nesne	-10.5634
ings	-10.5635
▁say	-10.564
▁Özgür	-10.5642
▁'''7	-10.5643
Los	-10.5643
▁Pasifik	-10.5648
▁florası	-10.5648
âr	-10.5651
▁gelmiş	-10.5654
▁Kazan	-10.5654
acaktır	-10.5658
▁evinde	-10.566
▁komşu	-10.566
▁işlemci	-10.5661
▁GK	-10.5662
▁İskoçya	-10.5663
:1988	-10.5663
▁Bö	-10.5665
▁Vokal	-10.5665
▁Çetin	-10.5665
▁dolayısıyla	-10.5666
1936	-10.5669
▁hayatta	-10.567
▁Muh	-10.5672
▁bölgesel	-10.5673
▁Latince	-10.5674
▁turda	-10.5676
▁zamanlarda	-10.5679
nov	-10.5681
▁Hans	-10.5682
etik	-10.5682
▁1907	-10.5683
▁tra	-10.5683
▁Apple	-10.5685
▁Özet	-10.5686
▁bölgeye	-10.5689
ра	-10.5693
Lu	-10.5694
▁başlıca	-10.5694
▁fonksiyon	-10.5697
yet	-10.5697
▁360	-10.57
ional	-10.5701
▁Light	-10.5702
PA	-10.5702
▁Malatya	-10.5708
▁coğrafi	-10.571
▁bürokrat	-10.571
▁satışa	-10.5711
▁Maliye	-10.5712
oli	-10.5714
▁açılan	-10.5718
mmer	-10.5719
iller	-10.5719
DR	-10.5721
▁Saray	-10.5722
▁Vladimir	-10.5723
▁118	-10.5724
▁tartışma	-10.5724
τ	-10.5725
▁adlandırılır	-10.5725
▁Hav	-10.5727
1966	-10.5731
oid	-10.5733
▁Sekreteri	-10.5733
▁Roger	-10.5734
Paris	-10.5737
EL	-10.5738
:2002	-10.5738
:1996	-10.5741
▁içermektedir	-10.5741
beyaz	-10.5747
▁kalır	-10.5749
▁tamam	-10.575
şar	-10.5752
▁DVD	-10.5753
Je	-10.5755
hit	-10.5757
▁diz	-10.5757
▁Way	-10.5758
PG	-10.5761
Kan	-10.5762
çak	-10.5763
▁'''0'''	-10.5765
▁ekip	-10.5771
▁atom	-10.5771
hur	-10.5772
▁Belarus	-10.5772
▁oyunun	-10.5774
▁kaldır	-10.5774
▁atlama	-10.5777
▁124	-10.5778
ual	-10.578
▁kazandığı	-10.5781
▁Kadro	-10.5785
1965	-10.5787
▁(2016)	-10.5788
▁155	-10.5792
▁hasar	-10.5798
▁doktor	-10.5799
▁Kongresi	-10.5802
▁Marmara	-10.5804
▁kare	-10.5806
▁Matt	-10.5807
▁Johnson	-10.5807
▁anlam	-10.5807
malı	-10.5808
▁galaksiler	-10.5808
▁süreç	-10.581
▁MP	-10.581
▁tarz	-10.5811
▁aç	-10.5814
▁getirdi	-10.5816
▁(1994)	-10.5816
▁Kişisel	-10.5818
Ana	-10.5818
▁öldürüldü	-10.5818
▁Vietnam	-10.5819
iyeti	-10.582
▁yüzünden	-10.582
eğ	-10.5823
Za	-10.5828
▁UNESCO	-10.5829
▁Š	-10.5829
kay	-10.5831
▁çalışmıştır	-10.5837
▁Power	-10.5837
▁başlandı	-10.5838
▁tarihsel	-10.5843
▁sürüm	-10.5846
▁küçükresim	-10.585
üstü	-10.585
▁bilgisi	-10.585
▁gördüğü	-10.5851
▁başarısı	-10.5855
▁terim	-10.5857
▁harf	-10.5857
▁Nick	-10.5859
▁komutanı	-10.5866
▁klavye	-10.5866
▁Kutsal	-10.5867
▁800	-10.5869
▁113	-10.587
▁akademisyen	-10.5872
▁mitolojisi	-10.5872
▁güven	-10.5873
ense	-10.5873
med	-10.5875
:2013	-10.5876
▁görevinde	-10.5876
▁vefat	-10.5878
▁Gazete	-10.5878
▁Suudi	-10.588
▁Beni	-10.5882
▁men	-10.5882
▁Bern	-10.5882
▁tel	-10.5882
▁malzeme	-10.5888
şen	-10.5889
İs	-10.589
▁İsveçli	-10.5892
▁'''1.	-10.5892
▁Sağ	-10.5895
▁Estonya	-10.5898
rick	-10.5899
▁Ul	-10.59
Mal	-10.59
▁Karaca	-10.5902
iv	-10.5907
Doctor	-10.5907
Han	-10.5907
▁Ey	-10.5908
aka	-10.5909
▁kule	-10.591
vir	-10.591
▁183	-10.5913
▁ağırlık	-10.5914
▁hazırlanan	-10.5915
▁duyurdu	-10.5915
▁uyar	-10.592
Mu	-10.5921
gram	-10.5925
▁Band	-10.5925
çam	-10.5929
▁Lev	-10.5931
:2011	-10.5936
▁Mas	-10.594
▁yak	-10.5944
lardaki	-10.5945
ø	-10.5948
RI	-10.5948
▁eşlik	-10.5948
▁Oxford	-10.5949
ology	-10.595
▁olduğuna	-10.595
▁maçlar	-10.595
▁Çam	-10.5953
him	-10.5954
▁isyan	-10.5957
ston	-10.5957
its	-10.5959
▁uçakları	-10.5959
▁122	-10.5964
▁Sara	-10.5966
▁Musa	-10.5969
jen	-10.5969
▁Ceza	-10.5969
▁Kut	-10.5971
▁hastalık	-10.5971
idi	-10.5972
▁165	-10.5973
▁Sayı	-10.5974
▁Sak	-10.5975
▁kahverengi	-10.5977
▁Galaxy	-10.5977
ett	-10.5978
▁edilebilir	-10.5978
▁Fire	-10.598
2023	-10.5981
▁É	-10.5982
▁Belde	-10.5983
▁söyle	-10.5985
▁odak	-10.5986
iki	-10.5986
▁2004'	-10.5986
▁123	-10.5988
dom	-10.5995
▁$	-10.5997
lması	-10.6
▁138	-10.6001
kale	-10.6003
▁Lin	-10.6003
▁sur	-10.6008
▁Down	-10.6008
layarak	-10.6009
hra	-10.6013
▁Mario	-10.6019
▁Adaylık	-10.6022
▁şeker	-10.6023
uğra	-10.6023
▁Kosova	-10.6024
ão	-10.6024
▁alternatif	-10.6024
ktaydı	-10.6028
▁Eş	-10.6028
▁1992'	-10.6028
▁Ap	-10.603
over	-10.6031
▁Lise	-10.6031
Kaleci	-10.6036
onia	-10.6037
▁1'	-10.6038
ß	-10.604
х	-10.604
▁kapsayan	-10.604
uru	-10.604
▁Vadisi	-10.6041
▁Kurul	-10.6042
▁politika	-10.6044
awa	-10.6047
▁uzanan	-10.6048
▁gönderildi	-10.6051
▁Dön	-10.6054
2000	-10.6055
▁mikro	-10.6056
▁Mis	-10.6056
▁(1993)	-10.6057
▁köpek	-10.6057
▁Cer	-10.6059
şim	-10.6063
▁Little	-10.6066
▁Cy	-10.6068
▁Shin	-10.6071
▁karmaşık	-10.6073
▁kullanma	-10.6078
▁Got	-10.6079
▁Stone	-10.608
SP	-10.608
▁AC	-10.6082
▁Bölgesel	-10.6082
▁akademik	-10.6083
▁kupa	-10.6083
▁öğretmen	-10.6084
▁Kul	-10.6084
mun	-10.6084
▁gereken	-10.6084
▁terimleri	-10.6085
▁ciddi	-10.6089
▁Cur	-10.609
ort	-10.6092
9)	-10.6093
▁Format	-10.6096
▁Bisiklet	-10.6101
▁Samsung	-10.6101
rdı	-10.6103
▁dar	-10.6105
▁etkileşim	-10.6105
▁Cambridge	-10.6105
▁giderek	-10.6107
tiv	-10.6107
▁aşk	-10.6107
▁parçalar	-10.6107
▁Cri	-10.6111
▁Linux	-10.6113
▁Les	-10.6114
▁Yakın	-10.6116
▁Rusça	-10.6118
–3	-10.6118
▁'''11'''	-10.6119
zh	-10.6121
leyerek	-10.6124
▁Engin	-10.6126
▁yılların	-10.6126
▁gerçekleşti	-10.6127
▁kahraman	-10.6127
▁familyasından	-10.6131
▁Michel	-10.6132
name	-10.6132
▁değiştirildi	-10.6135
▁Platform	-10.6137
▁ekonomisi	-10.6138
▁Yönetimi	-10.614
▁yazmıştır	-10.6141
▁yöneticisi	-10.6142
ér	-10.6142
iyordu	-10.6143
▁Jim	-10.6144
▁Ivan	-10.6147
▁aşı	-10.6148
▁altıncı	-10.6149
▁Özellikleri	-10.6153
ī	-10.6153
▁erişim	-10.6153
▁Pek	-10.6154
▁başlangıçta	-10.6155
▁Brian	-10.6164
▁uygulan	-10.6166
▁121	-10.6172
▁Master	-10.6173
sia	-10.6174
▁Dance	-10.6178
ğini	-10.6179
ht	-10.6179
▁sahil	-10.618
:1998	-10.6181
▁iklim	-10.6181
▁С	-10.6183
▁orkestra	-10.6186
▁örgütü	-10.6187
▁tarihçi	-10.619
▁Mavi	-10.6193
▁anlamı	-10.6194
meli	-10.6194
▁içeriği	-10.6196
▁Marie	-10.6197
▁Palm	-10.6198
▁sezonları	-10.6201
▁(2017)	-10.6202
▁arkasında	-10.6205
▁petrol	-10.6206
▁gelişimi	-10.6208
▁tanındı	-10.6208
▁çıkmış	-10.6209
boy	-10.6209
▁durumunda	-10.6211
▁gri	-10.6212
▁kimya	-10.6212
▁düzenlendi	-10.6212
▁yasal	-10.6214
▁Şarkının	-10.6215
▁VI	-10.6215
▁kısaca	-10.6217
—	-10.6218
▁Zonguldak	-10.6218
▁merkezleri	-10.622
▁Awards	-10.6222
▁okulu	-10.6223
▁Sporcu	-10.6223
▁ap	-10.6223
▁oldukları	-10.6224
▁ab	-10.6224
''')	-10.6225
cz	-10.6225
MS	-10.6226
▁Fra	-10.6226
▁isteme	-10.6226
▁Camp	-10.6227
ions	-10.6228
▁devletin	-10.6228
▁muharebe	-10.6229
▁düşünce	-10.6232
▁ob	-10.6232
▁Osmanlılar	-10.6234
▁:''	-10.6234
ه	-10.6234
▁şunlardır	-10.6237
▁kullanılması	-10.6239
▁hata	-10.6241
"),	-10.6244
▁Gri	-10.6245
▁177	-10.6249
▁valisi	-10.6249
▁Cengiz	-10.6251
▁mensup	-10.6251
Ali	-10.6253
8)	-10.6253
▁fiyat	-10.6254
▁Selçuklu	-10.6257
Ze	-10.6263
back	-10.6263
▁atma	-10.6267
▁Dol	-10.6268
TS	-10.6271
▁saniye	-10.6271
RS	-10.6273
▁Gemi	-10.6276
▁eğlence	-10.6284
uncu	-10.6291
▁Yel	-10.6294
:1981	-10.6296
▁bırakıldı	-10.6296
▁Florida	-10.63
▁CB	-10.63
▁Ford	-10.6301
lenerek	-10.6302
▁Aksu	-10.6303
▁1-	-10.6304
▁bağlantı	-10.6304
▁halde	-10.6306
2015	-10.631
▁05	-10.631
▁hapis	-10.6312
▁değişim	-10.6314
▁Muğla	-10.6315
tia	-10.6316
:1986	-10.6316
▁Image	-10.6317
▁Anayasa	-10.6318
▁genelde	-10.6319
▁kaleme	-10.6319
▁halkın	-10.6323
▁Hizmet	-10.6323
Sp	-10.6325
rop	-10.6327
▁caz	-10.6329
▁Yapımcı	-10.6331
▁kurul	-10.6332
▁içerik	-10.6332
▁Kocaeli	-10.6332
▁vücut	-10.6333
▁milli	-10.6335
▁Saf	-10.6337
▁Leon	-10.634
:1984	-10.6342
▁Fizik	-10.6342
▁Karaman	-10.6347
▁Fred	-10.6349
▁Düş	-10.635
▁nesil	-10.6353
▁dişi	-10.6361
▁deneme	-10.6362
▁ru	-10.6364
▁Recep	-10.6366
▁koloni	-10.6366
▁'''10	-10.6368
▁katkıda	-10.6368
▁uygulamaları	-10.6368
:12	-10.6378
▁Albümün	-10.6379
▁mimarisi	-10.6379
▁Uygulama	-10.6383
▁isteyen	-10.6383
▁ücretsiz	-10.6384
lmuş	-10.6387
ilerek	-10.6387
ance	-10.6389
▁oynan	-10.6389
liğine	-10.639
▁ödüller	-10.6392
▁01	-10.6394
▁adları	-10.6398
▁esnasında	-10.6399
▁Cemiyeti	-10.6399
▁göçmenler	-10.6402
▁sezonda	-10.6402
▁Andre	-10.6405
adi	-10.6408
▁Lübnan	-10.6413
▁aş	-10.6414
▁bireysel	-10.6416
▁fosil	-10.6416
▁mobil	-10.6417
▁xxx	-10.6418
1951	-10.6419
▁Hareketi	-10.6421
▁üstünde	-10.6422
▁1000	-10.6423
▁araştırmalar	-10.6424
▁Ölüm	-10.6425
▁işleri	-10.6431
▁mümkün	-10.6431
▁Dinamo	-10.6432
ensis	-10.6433
iro	-10.6434
▁Çağı	-10.6435
▁181	-10.6439
▁Dijital	-10.6439
▁126	-10.6439
dığını	-10.6439
▁Britanyalı	-10.6441
▁127	-10.6446
▁teşvik	-10.6449
.10	-10.645
Les	-10.6451
▁1902	-10.6451
baba	-10.6451
▁terfi	-10.6452
▁partisi	-10.6454
▁176	-10.6455
▁Stan	-10.6456
▁Karşı	-10.6462
▁Soy	-10.6466
▁Dergisi	-10.6466
▁Filmi	-10.6467
▁performansı	-10.6468
▁günümüz	-10.6473
▁dokuz	-10.6473
kur	-10.6473
▁üniversiteler	-10.6476
▁liderleri	-10.6479
▁kısım	-10.6482
▁Endonezya	-10.6482
▁Refah	-10.6483
▁saygı	-10.6484
uzu	-10.6484
▁meydan	-10.6485
enberg	-10.6486
▁kemer	-10.6487
▁1909	-10.6489
ons	-10.6489
▁yapımcıları	-10.6489
Pop	-10.649
▁sinir	-10.6492
rich	-10.6493
▁Bin	-10.6493
▁Tele	-10.6494
▁biçimi	-10.6494
▁Mix	-10.6497
▁oluşturduğu	-10.6498
üp	-10.6498
üt	-10.6498
▁gök	-10.65
▁atlet	-10.6501
▁karşılaşma	-10.6503
▁sıkı	-10.6503
▁Mini	-10.6503
▁un	-10.6503
▁Fri	-10.6505
▁Evi	-10.6506
▁basın	-10.6508
▁çağrı	-10.6509
king	-10.651
▁Gör	-10.6511
▁Anti	-10.6513
▁Turgut	-10.6516
▁2008-09	-10.6516
▁Filmografisi	-10.6517
hisar	-10.6519
▁Kartal	-10.6521
▁işlemi	-10.6521
▁Media	-10.6524
▁168	-10.6524
▁Last	-10.6525
▁kaleci	-10.6529
rif	-10.653
▁Yama	-10.6531
▁PlayStation	-10.6533
▁Filistin	-10.6533
▁klasmanı	-10.6534
▁Open	-10.6534
▁şehrinin	-10.6535
▁Şeyh	-10.6538
ST	-10.6538
▁Pin	-10.6544
▁uygulaması	-10.6544
:2001	-10.6545
ington	-10.6546
ο	-10.6549
▁Museum	-10.655
▁işbirliği	-10.655
tip	-10.6551
▁İnan	-10.6551
özü	-10.6553
▁133	-10.6553
▁Kurucu	-10.6556
▁yüzü	-10.6556
▁Aşağıdaki	-10.6556
▁çağ	-10.6558
▁Lan	-10.6558
▁Arthur	-10.6559
▁önceden	-10.6564
▁tanınmış	-10.6565
▁araştırmacı	-10.6568
▁bez	-10.6571
▁Almanyası	-10.6571
▁komünist	-10.6574
▁1911	-10.6576
▁2.6	-10.658
▁çay	-10.6581
▁Mut	-10.6582
ت	-10.6583
iri	-10.6584
▁açılmıştır	-10.6585
▁gören	-10.6587
▁Wilson	-10.6588
▁More	-10.659
olojik	-10.6592
ON	-10.6593
▁Rıza	-10.66
▁SSCB	-10.6602
▁Bilimleri	-10.6603
▁Hil	-10.6604
▁Gun	-10.6605
▁kaldığı	-10.6606
▁fizik	-10.6606
▁Cap	-10.6608
▁yansıt	-10.6609
▁1900	-10.6613
▁buldu	-10.6615
▁anlatı	-10.6617
▁Şirketi	-10.6618
▁Klasik	-10.6619
▁coğrafyası	-10.6621
▁örneği	-10.6622
▁ro	-10.6625
▁senaryo	-10.663
▁girme	-10.6631
▁Rub	-10.6634
ela	-10.6634
▁kanalında	-10.6634
▁Stephen	-10.6634
▁çalışmalarına	-10.6637
▁Amasya	-10.6637
▁yarar	-10.6637
▁çeşit	-10.6639
şir	-10.6641
▁vol	-10.6641
▁sözü	-10.6642
abil	-10.6642
ios	-10.6645
▁Henri	-10.6645
▁komuta	-10.6646
▁hastalıkları	-10.6646
▁Chan	-10.6647
▁efsane	-10.6649
trop	-10.6651
▁gör	-10.6651
rid	-10.6651
▁Oblastı	-10.6652
Ver	-10.6652
▁yapımlar	-10.6654
eau	-10.6655
▁Kanun	-10.6655
bü	-10.666
▁kişileri	-10.6665
▁Salonu	-10.6668
vu	-10.6668
▁mağlup	-10.6668
▁Kab	-10.6669
▁(2019)	-10.6669
▁Lisesinde	-10.6669
▁politik	-10.667
▁bakım	-10.6671
ан	-10.6672
▁2013-14	-10.6676
▁Old	-10.6679
▁ürünü	-10.6681
▁soyadı	-10.6685
Mor	-10.6686
▁olmadan	-10.6688
1963	-10.6694
▁Kü	-10.6698
▁açıdan	-10.6701
pl	-10.6702
▁Yabancı	-10.6702
▁aktris	-10.6702
▁Tuna	-10.6706
▁markası	-10.671
▁Hatay	-10.6711
vey	-10.6712
▁etrafında	-10.6712
▁Walter	-10.6716
ets	-10.6718
▁dayanmaktadır	-10.672
▁yapılmaktadır	-10.6721
4'''	-10.6727
▁Steven	-10.6728
▁kavramı	-10.6731
▁Krist	-10.6731
▁Arnavut	-10.6731
▁gelişme	-10.6733
ese	-10.6734
▁146	-10.6735
▁parlamento	-10.6735
ettin	-10.6736
▁katkı	-10.6737
üş	-10.6739
▁İşleri	-10.6743
▁Orijinal	-10.6744
▁general	-10.6745
▁America	-10.6747
Bal	-10.6747
gio	-10.6748
▁gezi	-10.6749
laştı	-10.675
nal	-10.6752
▁talep	-10.6754
▁bakımından	-10.6756
▁CM	-10.6759
▁kapısı	-10.6764
ère	-10.6765
▁Bernard	-10.6766
Mil	-10.6768
▁Tunç	-10.677
▁galibiyet	-10.6771
▁söyler	-10.6772
▁kamp	-10.6775
▁Deli	-10.6776
▁Avustralyalı	-10.6777
▁alıyor	-10.6777
▁Uni	-10.6778
▁nişan	-10.678
▁Elizabeth	-10.6781
▁tah	-10.6783
all	-10.6783
rian	-10.6786
▁gazetesi	-10.6787
uma	-10.679
tica	-10.679
▁amatör	-10.6791
▁Boks	-10.6796
ân	-10.6797
▁kapasitesi	-10.6797
▁yaşama	-10.6797
▁bunların	-10.6797
Mer	-10.6798
tina	-10.6801
▁mar	-10.6802
▁tarihine	-10.6803
1931	-10.6805
▁İletişim	-10.6806
▁görüldü	-10.6806
▁konuş	-10.6813
▁kurduğu	-10.6813
TR	-10.6816
▁kütle	-10.6818
▁Um	-10.682
▁(2018)	-10.6823
▁lider	-10.6824
▁152	-10.6825
▁Karadağ	-10.6828
rac	-10.6829
▁Yak	-10.6833
▁Festival	-10.6835
hid	-10.6841
São	-10.6844
▁Post	-10.6844
Yarı	-10.6848
sever	-10.6848
▁Hakkında	-10.6849
▁Luis	-10.6849
leştirme	-10.6852
▁3.5	-10.6852
▁söylen	-10.6852
▁Sistem	-10.6855
▁1886	-10.6858
▁Pet	-10.6858
▁ederken	-10.686
cısı	-10.6861
▁kelimesi	-10.6868
▁Ayşe	-10.6869
▁First	-10.6871
▁Ly	-10.6871
▁Konuk	-10.6871
▁Sad	-10.6872
zz	-10.6872
cro	-10.6873
▁ayrılarak	-10.6876
▁147	-10.6877
▁Salih	-10.6878
▁balık	-10.688
▁1991'	-10.6881
▁alın	-10.6882
▁bahçe	-10.6886
ien	-10.6889
▁yöntem	-10.6892
Bay	-10.6895
▁Zafer	-10.6898
▁Gitar	-10.6899
400	-10.6901
▁Songs	-10.6901
▁Qua	-10.6903
▁çoğunluğu	-10.6903
▁Sony	-10.6903
▁Wei	-10.6903
hri	-10.6905
▁takımda	-10.6907
tasyon	-10.6909
▁bölümünü	-10.691
▁East	-10.691
▁yüzde	-10.691
▁ideal	-10.6912
▁İlişkiler	-10.6919
AF	-10.692
▁kitle	-10.692
▁Hikâye	-10.692
zak	-10.6921
▁Times	-10.6923
▁Mou	-10.6924
▁2002'	-10.6924
oku	-10.6925
▁protesto	-10.6927
▁Vali	-10.6928
▁Üyesi	-10.6931
.30	-10.6933
▁geçerek	-10.6934
▁tekli	-10.6936
house	-10.6938
AM	-10.6939
▁kazanma	-10.6941
One	-10.6942
öğretim	-10.6945
▁Uşak	-10.6945
300	-10.6947
▁157	-10.6947
▁Trabzonspor	-10.695
▁(6	-10.6951
ibe	-10.6952
You	-10.6953
-21	-10.6953
ო	-10.6962
▁System	-10.6962
▁(1992)	-10.6963
▁Koruma	-10.6963
▁yetişkin	-10.6963
▁Türkçeye	-10.6966
ech	-10.6967
▁anı	-10.6968
▁Goller	-10.6969
▁Işık	-10.6969
▁za	-10.6971
▁çar	-10.6971
▁ürünler	-10.6973
2013	-10.6973
▁üret	-10.6975
▁Helen	-10.6975
▁ağı	-10.6977
Maç	-10.698
iyo	-10.698
▁Karakter	-10.6984
Not	-10.6985
▁131	-10.6986
ava	-10.699
▁Ele	-10.6994
▁dosya	-10.6995
▁Adıyaman	-10.6998
▁ağacı	-10.6998
▁şampiyonluk	-10.7001
▁Petr	-10.7001
▁Davis	-10.7003
▁biçiminde	-10.7003
▁ex	-10.7004
▁öncesinde	-10.7005
▁Annesi	-10.7006
▁taslakları	-10.7008
iano	-10.7008
cks	-10.7014
▁soğuk	-10.7015
roz	-10.7018
Arapça	-10.7018
zon	-10.702
▁Albümde	-10.7026
▁Selçuk	-10.7028
▁136	-10.7029
ole	-10.7032
▁uzunluğunda	-10.7032
▁çevrimiçi	-10.7033
▁etkin	-10.7034
üdür	-10.7034
▁tamamlamıştır	-10.7034
▁dövüş	-10.7034
▁Patrick	-10.7036
▁Ros	-10.704
▁ister	-10.704
▁Dun	-10.7045
▁Jen	-10.7047
▁çocuklar	-10.7048
▁çalış	-10.7048
▁Cumhuriyetçi	-10.705
λ	-10.7051
▁teknolojisi	-10.7051
İkinci	-10.7054
▁134	-10.7057
▁Rolü	-10.7057
lme	-10.7058
▁Phil	-10.7059
▁kazı	-10.7061
ime	-10.7062
▁Bull	-10.7063
▁şairleri	-10.7064
ias	-10.7064
Ve	-10.7065
düğü	-10.7066
çiler	-10.7066
▁Hırvat	-10.7068
:1994	-10.7068
uza	-10.707
▁Rap	-10.707
▁alfabesi	-10.707
▁anlamda	-10.7073
▁gelme	-10.7074
Am	-10.7075
▁Kütüphanesi	-10.7076
▁seçimler	-10.7077
2002	-10.7078
eira	-10.7083
▁paylaş	-10.7083
▁şimdi	-10.7085
1956	-10.7086
▁yayımlanmıştır	-10.7088
▁1930'	-10.7089
raz	-10.709
km	-10.7091
are	-10.7092
▁bakan	-10.7092
▁Gine	-10.7094
▁görevlerinde	-10.7094
▁yoğunluğu	-10.7094
▁köyünün	-10.7095
▁ölü	-10.7097
▁yüksel	-10.7099
▁otel	-10.7101
▁Television	-10.7104
hol	-10.7105
▁Yunus	-10.7105
▁yarışmada	-10.7106
▁Def	-10.7107
▁Mimar	-10.7115
onya	-10.7117
▁Önceki	-10.7118
vor	-10.7118
▁Ret	-10.7119
▁İhsan	-10.7122
bahar	-10.7122
▁Meydanı	-10.7125
▁Araç	-10.7129
hel	-10.7129
▁Çeyrek	-10.7131
▁1999'	-10.7131
▁Laz	-10.7131
−	-10.7135
▁Kimya	-10.7138
▁yapılma	-10.7138
▁Yaklaşık	-10.714
▁1-2	-10.7142
▁Gam	-10.7143
▁mil	-10.7143
▁220	-10.7146
dikleri	-10.7148
▁aktar	-10.715
▁başbakanları	-10.715
raf	-10.7153
▁antrenör	-10.7154
ruk	-10.7157
ш	-10.7157
fik	-10.7159
▁154	-10.7159
▁semtinde	-10.716
▁Billboard	-10.7161
▁SA	-10.7162
▁(4)	-10.7164
▁Brand	-10.7164
▁İlçenin	-10.7164
▁Azeri	-10.7167
och	-10.7171
▁Hafta	-10.7172
▁Hak	-10.7175
▁çekme	-10.7177
lé	-10.7178
▁tehlike	-10.7179
▁mutfağında	-10.7184
İller	-10.7187
▁Karabağ	-10.7195
▁Rob	-10.7195
▁Muş	-10.7198
▁kariyerinde	-10.7198
▁tu	-10.7199
:2.	-10.72
lio	-10.72
▁İdare	-10.72
▁arması	-10.7207
▁onların	-10.7207
▁anlamında	-10.7208
ô	-10.7211
▁Katalog	-10.7211
▁hariç	-10.7211
▁sandık	-10.7213
▁AB	-10.7215
luğunu	-10.7216
▁kira	-10.7216
kent	-10.7217
ст	-10.7217
anne	-10.7219
rah	-10.7222
Ah	-10.7225
▁kategorisinde	-10.7225
▁seçilmiş	-10.7227
ysa	-10.7229
▁tehdit	-10.7229
▁çizim	-10.723
▁Yardımcılığı	-10.723
▁Bitlis	-10.723
pper	-10.7232
▁Kevin	-10.7234
yonu	-10.7235
Ad	-10.7235
▁Jr	-10.7236
▁Hattı	-10.7236
çay	-10.7237
▁çalma	-10.7242
vre	-10.7244
▁kadrosunda	-10.7245
IM	-10.7248
▁etkinlik	-10.7249
▁kullanıldığı	-10.7253
eğin	-10.7254
kra	-10.7255
▁yandan	-10.7255
sten	-10.7256
demir	-10.7257
▁210	-10.7257
▁unvan	-10.7257
▁firma	-10.7258
omi	-10.7259
▁Radio	-10.726
▁Kitabı	-10.7264
GC	-10.7265
Yıl	-10.7265
▁olumlu	-10.7265
▁birbirleri	-10.7266
▁İnşaat	-10.7267
▁aziz	-10.7269
ical	-10.7269
▁'''8	-10.7269
▁Sistemi	-10.727
▁143	-10.727
▁ülkelerin	-10.7274
daş	-10.7278
▁Şirketin	-10.7278
▁çalıştığı	-10.728
uyor	-10.7281
ism	-10.7281
▁tekniği	-10.7284
▁137	-10.7284
▁canlandırdığı	-10.7285
▁olmaya	-10.7286
▁gemileri	-10.7287
▁2.7	-10.7294
▁analiz	-10.7296
▁tanesi	-10.7296
▁Kafkasya	-10.7296
▁toplu	-10.7297
▁Dom	-10.7298
▁Katar	-10.7299
kova	-10.73
▁olmakla	-10.7301
Real	-10.7305
▁algı	-10.7306
Yahudi	-10.7308
▁Mars	-10.7318
▁teleskopla	-10.7318
▁go	-10.7328
▁159	-10.7328
▁bölgelerinde	-10.733
ries	-10.7337
▁Grammy	-10.7338
mark	-10.7338
▁şarap	-10.7339
▁Abbas	-10.7341
▁Harry	-10.7341
▁Mol	-10.7347
▁Studios	-10.7347
▁UK	-10.7348
hy	-10.7351
jer	-10.7352
▁daire	-10.7353
▁tören	-10.7355
▁rolünü	-10.7355
▁bilimi	-10.7355
μ	-10.7356
▁Çankırı	-10.7356
▁Friedrich	-10.7356
▁yeterli	-10.7357
▁piskopos	-10.7357
eaturing	-10.7358
▁zemin	-10.7359
▁ortalarında	-10.736
▁+3	-10.7361
anlar	-10.7361
▁x	-10.7363
:30	-10.7367
lardı	-10.7367
ert	-10.7369
▁alanlarda	-10.7371
▁0.0	-10.7371
▁Dairesi	-10.7372
▁üreticileri	-10.7373
▁Grubun	-10.7374
▁konferans	-10.7375
▁Öykü	-10.7375
ations	-10.7379
mine	-10.7379
▁şöyle	-10.738
.12	-10.738
uka	-10.7382
pek	-10.7387
▁bölgesine	-10.7387
lıkları	-10.7388
▁Eyalet	-10.7388
gas	-10.7389
▁etkinlikleri	-10.7391
1941	-10.7391
▁kabine	-10.7393
▁halen	-10.7393
▁9,	-10.7397
lenebilir	-10.7399
GA	-10.7403
▁Porto	-10.7404
▁teklif	-10.7406
rol	-10.7407
▁pozisyon	-10.7411
▁özerk	-10.7411
▁Sab	-10.7413
▁Mos	-10.7417
:13	-10.7417
▁çalışmalarını	-10.742
▁yanlış	-10.742
DA	-10.7423
mbe	-10.7426
▁türlü	-10.7427
▁alanlar	-10.7429
▁Fon	-10.7431
▁yapımcılığını	-10.7431
▁Özdemir	-10.7431
uca	-10.7432
▁küresel	-10.7432
▁yoluna	-10.7432
▁Ob	-10.7433
▁boyut	-10.7436
Kıbrıs	-10.7437
UEFA	-10.7437
:2007	-10.744
900	-10.7441
amaz	-10.7442
▁girişimi	-10.7442
▁Spa	-10.7444
▁Mirası	-10.7451
▁166	-10.7453
▁1920'	-10.7453
madı	-10.746
▁Ark	-10.746
▁sıralaması	-10.7462
▁Kazak	-10.7463
▁antlaşma	-10.7463
madan	-10.7466
▁familyasın	-10.7469
▁Şehri	-10.7471
mesine	-10.7473
▁06	-10.7474
▁2012-13	-10.7475
▁03	-10.7478
▁Clark	-10.7479
▁katman	-10.7479
Sal	-10.7482
▁ajan	-10.7483
Hi	-10.7484
▁azalt	-10.7487
▁Games	-10.749
▁Denizli	-10.749
▁Ebu	-10.7493
té	-10.7495
AK	-10.7495
▁Plak	-10.7499
▁142	-10.7502
▁Facebook	-10.7504
▁Atlas	-10.7505
-25	-10.7505
▁Marc	-10.7506
▁Hitler	-10.7509
▁Dead	-10.7513
▁148	-10.7516
gazi	-10.7519
▁memeliler	-10.7521
▁İm	-10.7522
▁düştü	-10.7522
▁Legend	-10.7523
▁dışarı	-10.7524
▁mevkiinde	-10.7524
Black	-10.7531
▁Ever	-10.7534
▁tutar	-10.7536
▁Bul	-10.7538
Th	-10.7539
lmesi	-10.754
ecektir	-10.754
▁Formula	-10.7541
▁kitabında	-10.7541
▁miktarda	-10.7542
Kaynaklar	-10.7543
▁Ross	-10.7544
▁öldüğü	-10.7544
ildiği	-10.7545
▁kilisesi	-10.7548
matik	-10.7551
▁tipik	-10.7555
▁156	-10.7555
▁%4	-10.7556
▁müdürü	-10.7558
▁hekim	-10.7558
▁Division	-10.7561
▁ft	-10.7563
▁Milano	-10.7567
▁kesim	-10.7576
▁avcı	-10.7576
▁yolları	-10.7576
▁Tem	-10.7577
▁DJ	-10.7577
▁konuk	-10.7577
▁repesaj	-10.7578
▁çekirdek	-10.7578
▁İzlanda	-10.7578
diğini	-10.7579
▁Mahmut	-10.7579
Yu	-10.7584
▁Kes	-10.7584
âl	-10.7586
▁Toprak	-10.7587
▁Teksas	-10.7588
▁End	-10.759
▁vs	-10.759
ар	-10.759
İlk	-10.7591
▁yazıları	-10.7591
▁kum	-10.7591
Bilinmiyor	-10.7597
▁Cra	-10.7598
lanabilir	-10.76
▁Dizisi	-10.7603
▁futbolu	-10.7606
vy	-10.7606
▁rolüyle	-10.7607
▁Katılım	-10.7609
▁sebebi	-10.7611
▁pre	-10.7614
▁Char	-10.7615
▁Cemal	-10.7615
▁yeteneği	-10.7615
▁hazırlık	-10.7617
▁Sea	-10.7618
▁2000'	-10.762
▁Serdar	-10.762
▁direktörü	-10.7622
▁Wild	-10.7623
▁141	-10.7624
▁%5	-10.7625
▁akıllı	-10.7625
–0	-10.7626
▁Aleksandr	-10.7627
▁Çinli	-10.7628
▁Bulut	-10.7628
fin	-10.763
▁platformu	-10.7632
▁yarım	-10.7634
▁(1988)	-10.7634
▁görülmüştür	-10.7634
masıyla	-10.7635
▁şehridir	-10.7635
▁Peru	-10.7637
kür	-10.7639
▁Nuri	-10.764
ving	-10.764
▁Fab	-10.7643
▁Road	-10.7645
▁politikası	-10.7646
▁organ	-10.7647
Flag	-10.7647
▁Avusturyalı	-10.7648
6)	-10.7649
▁Dark	-10.7653
SB	-10.7654
▁1998'	-10.7658
ь	-10.7659
▁190	-10.7664
rır	-10.7666
▁1945'	-10.7668
Chi	-10.7671
▁Victoria	-10.7671
1947	-10.7672
ğan	-10.7684
▁3.2	-10.7684
▁alınması	-10.7685
▁Tasarım	-10.7688
▁Mora	-10.7688
:10	-10.7688
====	-10.769
gay	-10.769
▁keşfedilen	-10.7692
▁yenerek	-10.7692
▁Fall	-10.7693
▁151	-10.7695
▁form	-10.7701
▁öğrenimini	-10.7704
llo	-10.7704
▁Zeynep	-10.7704
▁144	-10.7705
▁Bina	-10.7708
▁ilaç	-10.7709
▁Sefer	-10.7711
▁Vas	-10.7711
▁semt	-10.7711
▁karbon	-10.7711
▁terör	-10.7712
▁ortam	-10.7712
cur	-10.7714
▁baskısı	-10.7714
▁kırsal	-10.7715
1954	-10.7716
▁kullandı	-10.7716
▁saldırısı	-10.7719
▁websitesi	-10.7719
EP	-10.772
▁Proje	-10.7721
yel	-10.7723
▁tri	-10.7724
Ber	-10.7726
▁gözü	-10.7726
▁oyuncudur	-10.7727
▁Sınıf	-10.7728
▁arkadaş	-10.7729
▁Oscar	-10.773
kka	-10.773
▁sinyal	-10.773
▁düzenlenmiştir	-10.7731
▁metrosu	-10.7735
▁Hei	-10.7736
▁cinsiyet	-10.7738
▁Milan	-10.7738
▁yayıncı	-10.7739
zza	-10.774
▁2001'	-10.7741
liyor	-10.7741
ografi	-10.7744
nor	-10.7744
▁Kazanan	-10.7744
▁Jon	-10.7745
▁yuva	-10.7745
▁götür	-10.7746
▁öncü	-10.7746
▁Sinop	-10.7751
▁değişiklikler	-10.7751
▁aylarında	-10.7753
▁(9	-10.7753
kır	-10.7754
urs	-10.7754
▁(%)	-10.7755
▁vaka	-10.7755
▁makine	-10.7757
▁yükselen	-10.7757
cisi	-10.7764
enti	-10.7764
▁163	-10.7765
lıklar	-10.7766
▁Singles	-10.7766
▁öğren	-10.7766
ique	-10.7768
▁Las	-10.777
ndi	-10.7775
▁Çoğu	-10.7775
▁örnekleri	-10.778
Dr	-10.7781
rar	-10.7783
▁gösterilmiştir	-10.7786
▁olanak	-10.7788
▁müzisyenleri	-10.779
▁sıralama	-10.7792
▁167	-10.7793
SK	-10.7795
▁Berg	-10.7795
ator	-10.7802
▁Abd	-10.7802
▁Mit	-10.7803
▁Gökyüzünde	-10.7805
▁cumhurbaşkanı	-10.7805
▁Science	-10.7805
▁çözüm	-10.7805
▁numarası	-10.7805
▁kaydedilmiştir	-10.7806
▁Queen	-10.7807
.11	-10.781
osu	-10.7812
▁Kav	-10.7812
▁formasıyla	-10.7816
▁Tut	-10.7816
▁birinin	-10.7816
▁korumak	-10.7817
▁oyunudur	-10.7821
▁Bana	-10.7822
▁cumhuriyet	-10.7824
▁satan	-10.7825
▁belirtti	-10.7826
lüğünü	-10.7828
DP	-10.7829
▁fil	-10.7831
▁açıklandı	-10.7832
▁bilimci	-10.7833
Kur	-10.7833
Bur	-10.7837
dıkları	-10.7838
▁Şampiyonluğu	-10.7839
▁başkanlığını	-10.7842
▁karışık	-10.7843
▁düşün	-10.7844
▁Cuma	-10.7846
▁Dili	-10.7847
yazı	-10.7848
▁akım	-10.785
▁%3	-10.7851
▁Kongre	-10.7851
▁153	-10.7854
▁ırk	-10.7855
▁hu	-10.7855
▁aylık	-10.7857
▁çağdaş	-10.7858
▁dönme	-10.7859
▁tasarlanmış	-10.786
▁SEDS	-10.7862
▁Movie	-10.7863
İş	-10.7863
cılığı	-10.7863
▁164	-10.7867
ball	-10.787
▁Mali	-10.787
▁Valiliği	-10.7871
▁vilayeti	-10.7873
7)	-10.7875
ebilen	-10.7879
▁bildiri	-10.7881
▁tüfek	-10.7881
▁Letonya	-10.7882
ilebilir	-10.7882
▁iptal	-10.7883
MP	-10.7883
▁yangın	-10.7884
▁Ekonomik	-10.7889
▁bulunma	-10.789
▁herkes	-10.7893
▁ardı	-10.7893
▁Malta	-10.7895
lığına	-10.7897
▁Normal	-10.7899
▁intihar	-10.7901
▁işleme	-10.7901
▁kimse	-10.7904
▁GB	-10.7906
▁kavram	-10.791
▁silahlı	-10.791
▁Başbakanı	-10.791
▁ch	-10.7914
Cu	-10.7914
▁kütüphane	-10.7917
▁Arjantinli	-10.7917
▁Eren	-10.7919
fil	-10.7921
etti	-10.7921
▁İmam	-10.7924
vat	-10.7927
dov	-10.7929
▁zamanlı	-10.7929
▁olmadığını	-10.7929
ista	-10.7932
Futbol	-10.7934
▁zorunlu	-10.7934
▁paket	-10.7935
▁bırakma	-10.7937
▁Gerçek	-10.7937
▁masa	-10.7938
ен	-10.7939
▁Wilhelm	-10.7939
▁Etkinlik	-10.7939
▁savaşın	-10.794
▁Remix	-10.7944
ital	-10.7945
ojen	-10.7947
oto	-10.7948
▁karşıtı	-10.7949
▁Lor	-10.7949
▁mühendisliği	-10.7949
▁Gazetesi	-10.795
▁Hakkı	-10.795
600	-10.7951
▁sıklıkla	-10.7951
▁Salon	-10.7952
Müzik	-10.7954
▁karşılığında	-10.7955
▁hit	-10.7956
▁Erol	-10.7957
▁ötürü	-10.7959
:1993	-10.7959
şek	-10.7959
▁129	-10.7959
▁158	-10.7965
▁nüfusun	-10.797
▁fabrika	-10.7974
cca	-10.7975
bilim	-10.7978
stre	-10.7979
acağını	-10.7981
▁Gençler	-10.7984
▁yarısında	-10.7986
shire	-10.7987
▁ulaşan	-10.7987
Top	-10.7988
▁1904	-10.7988
ع	-10.7997
▁ahşap	-10.7997
▁'''13	-10.7998
▁Çalışmaları	-10.7999
▁görür	-10.8
grad	-10.8
Macar	-10.8001
▁fotoğrafçı	-10.8001
▁anılır	-10.8002
▁1896	-10.8003
▁tarihî	-10.8004
▁op	-10.8005
Tarih	-10.8006
▁deri	-10.8006
yama	-10.8007
▁'''(	-10.801
▁başlangıcı	-10.8014
1950	-10.8016
▁(1991)	-10.8018
▁oğludur	-10.8021
▁çekilmiştir	-10.8026
▁ağırlıklı	-10.8028
▁Ryan	-10.8028
▁Tay	-10.8029
▁Dave	-10.803
▁Askerî	-10.803
▁biçim	-10.8033
är	-10.8036
▁Gabriel	-10.8037
▁Rakip	-10.8037
▁gençlik	-10.804
▁sıklet	-10.8041
▁SS	-10.8041
▁Spi	-10.8043
▁Fel	-10.8044
cek	-10.8044
▁2003'	-10.8047
▁sürede	-10.8048
▁DC	-10.8049
▁Savaşları	-10.8056
▁Harris	-10.8056
▁ilçesinin	-10.8056
▁'''11	-10.8056
KB	-10.8057
▁Ash	-10.806
▁bırakıl	-10.8062
▁posta	-10.8062
ija	-10.8064
▁denge	-10.8069
Bel	-10.8069
▁taşın	-10.807
▁Onun	-10.807
Ce	-10.8073
▁yardımcılığı	-10.8074
▁Bütün	-10.8076
▁yürüttü	-10.8076
▁biyo	-10.8078
▁Bayrak	-10.8078
▁6:	-10.8078
▁amaç	-10.808
▁Fil	-10.8082
enko	-10.8083
▁162	-10.8086
ás	-10.8087
▁Dalı	-10.8087
▁bağış	-10.8089
yse	-10.809
▁*"	-10.809
▁altyapı	-10.8095
▁139	-10.8098
▁savaşları	-10.8099
▁That	-10.8099
▁toplumsal	-10.81
lemesi	-10.8101
▁Mun	-10.8102
Çek	-10.8103
kem	-10.8105
▁vermiş	-10.8106
TP	-10.8109
▁kökeni	-10.8111
▁krizi	-10.8113
▁Fun	-10.8113
▁ayaklanma	-10.8114
▁Prag	-10.8114
▁adası	-10.8115
▁Network	-10.8115
▁töreni	-10.8117
▁organizasyon	-10.8118
▁fo	-10.812
hre	-10.8123
▁Bahçe	-10.8124
:1982	-10.8127
▁2014-15	-10.8128
▁tarihinden	-10.8129
▁Marco	-10.8129
▁ayar	-10.813
▁Kai	-10.813
▁havayolu	-10.8136
▁isteği	-10.8136
▁derecede	-10.8136
▁yetiş	-10.8137
stor	-10.8138
baz	-10.8139
▁girdiği	-10.8139
ito	-10.814
▁ata	-10.8141
dım	-10.8141
▁arasındadır	-10.8143
▁özellik	-10.8149
ücü	-10.8149
▁cephe	-10.815
▁Bit	-10.8153
Hayatı	-10.8156
town	-10.8157
▁Lang	-10.8158
▁tarihinin	-10.816
eus	-10.8164
▁genelinde	-10.8166
Is	-10.8166
▁Thor	-10.8172
Kulüp	-10.8172
NC	-10.8173
▁Uygur	-10.8174
▁Pay	-10.8174
▁(1987)	-10.8175
▁tarif	-10.8175
▁yerinde	-10.8177
▁Est	-10.8177
▁yıldızı	-10.8177
▁alanlarında	-10.8178
▁polisiye	-10.8178
▁gelişmiş	-10.8178
▁Çay	-10.818
rist	-10.818
uba	-10.8181
ülü	-10.8193
▁adamları	-10.8194
▁tıbbi	-10.8194
▁İskoç	-10.8195
▁finali	-10.8197
▁hatır	-10.8197
▁görsel	-10.8198
2020	-10.82
Kö	-10.8201
dong	-10.8201
▁Vis	-10.8203
Pri	-10.8204
uff	-10.8206
2008	-10.8208
cağı	-10.8208
▁Zey	-10.8209
▁Müdürü	-10.8211
▁günde	-10.8212
ía	-10.8212
meyi	-10.8214
▁şarkıyı	-10.8215
▁Kraliçe	-10.8216
▁Ry	-10.8217
▁İstasyonu	-10.8217
▁sisteminin	-10.8219
rel	-10.8222
ören	-10.8222
▁şarkıcısı	-10.8223
▁Bayram	-10.8227
▁mangaları	-10.8227
▁fer	-10.8228
AB	-10.823
Hop	-10.823
▁İmparatoru	-10.823
▁Yasa	-10.8234
▁Gian	-10.8234
▁Eğer	-10.8234
▁Skor	-10.8236
▁kayıp	-10.8237
▁değerli	-10.8247
▁(1986)	-10.8254
▁dakikada	-10.8255
▁verilme	-10.8257
▁profesörü	-10.8259
▁girmesi	-10.826
ât	-10.826
▁dolu	-10.8264
yıp	-10.827
bes	-10.8272
▁personel	-10.8273
▁oluş	-10.8274
▁giymiştir	-10.8275
phe	-10.8276
▁Ras	-10.8277
pes	-10.8278
''';	-10.8278
▁evlilik	-10.8279
▁etkileri	-10.8281
öv	-10.8282
▁Rich	-10.8283
▁Kadir	-10.8283
tron	-10.8287
▁ressamları	-10.8287
▁Çayı	-10.8288
▁Corporation	-10.8294
▁pencere	-10.8294
▁anlatan	-10.8294
▁(1990)	-10.8295
▁sosyalist	-10.83
▁1993'	-10.8301
oviç	-10.8301
Ab	-10.8302
▁1906	-10.8306
▁büyüdü	-10.8308
▁motorlu	-10.8308
▁engelli	-10.8308
▁dizisinin	-10.8309
▁bilinmeyen	-10.8309
▁kiralık	-10.831
▁ulus	-10.8311
Sev	-10.8314
kos	-10.8314
▁icra	-10.8314
▁Bros	-10.8315
ée	-10.8315
mara	-10.8315
▁Lou	-10.8316
▁Hoca	-10.8317
▁Rod	-10.8317
▁hükümdarı	-10.8318
▁Lady	-10.8318
▁yapması	-10.8319
▁birim	-10.8322
müştür	-10.8322
▁mühendis	-10.8322
able	-10.8324
▁Kaptan	-10.8324
▁ilişkisi	-10.8325
yarak	-10.8325
Dan	-10.8326
İzmir	-10.8334
▁rekabet	-10.8334
▁füze	-10.8334
iana	-10.8335
▁Hard	-10.8335
▁Kasaba	-10.8335
▁kısmen	-10.8336
▁bağlantılı	-10.8336
▁baskın	-10.8336
Ara	-10.8337
▁yüzyıldan	-10.8341
Gal	-10.8341
▁Zeki	-10.8344
▁İspanyolca	-10.8345
▁üyesiydi	-10.8347
▁hatları	-10.8348
kins	-10.8348
▁Bek	-10.8349
▁Farsça	-10.835
ugh	-10.8353
▁Kahramanmaraş	-10.8354
▁2007-08	-10.8358
▁yağış	-10.8358
▁yaşar	-10.8359
▁dizide	-10.8359
▁patlama	-10.836
1959	-10.836
▁kaynaklarda	-10.8367
▁ez	-10.8369
▁dergiler	-10.837
▁kemik	-10.8372
chu	-10.8378
Batı	-10.8378
▁memur	-10.8379
head	-10.838
nica	-10.838
▁Odası	-10.8384
ddy	-10.8386
▁Wolf	-10.8386
lamış	-10.8388
▁Vilayeti	-10.8389
▁koru	-10.8389
▁SP	-10.8389
Il	-10.8389
sik	-10.8392
▁takıma	-10.8393
▁Ot	-10.8394
▁Çıkış	-10.8394
▁donanım	-10.8395
▁değiş	-10.8396
▁Site	-10.8397
▁festival	-10.8397
▁Law	-10.8397
▁Yurt	-10.8399
▁yatırım	-10.8399
yak	-10.8402
▁kalesi	-10.8403
▁Jar	-10.8404
▁oluşturmak	-10.8406
bru	-10.8406
▁Felsefe	-10.8408
▁Stüdyo	-10.8408
▁özgün	-10.8409
▁Over	-10.8411
▁telefonları	-10.8411
▁Kaynaklar	-10.8412
▁kubbe	-10.8415
fr	-10.8415
▁149	-10.8415
▁poli	-10.8417
▁Diego	-10.8419
▁Victor	-10.8427
▁1500	-10.8427
▁Jane	-10.843
▁kalmış	-10.8431
▁altyapısında	-10.8431
▁yakınlarındaki	-10.8433
▁Sarah	-10.8435
▁Bedelsiz	-10.8435
▁Giorgi	-10.8435
▁Boys	-10.8436
▁hukukçu	-10.8437
▁Alaska	-10.8437
hee	-10.8438
▁Qui	-10.8438
gui	-10.8438
Med	-10.8439
▁şairler	-10.8441
ök	-10.8444
▁Arı	-10.8445
▁Dy	-10.8451
Carl	-10.8453
dük	-10.8453
▁Doğa	-10.8453
moto	-10.8454
▁bulunmuş	-10.8455
▁komutasındaki	-10.8456
▁fayda	-10.8456
▁kuvvet	-10.8457
▁İmparatorluk	-10.8458
▁02	-10.8464
▁küre	-10.8466
▁kazanmış	-10.8466
▁Şampiyonu	-10.8467
1930	-10.8467
▁Eb	-10.847
:2009	-10.8471
▁Georgia	-10.8474
ward	-10.8474
▁К	-10.8475
mişti	-10.8476
eski	-10.8476
▁başarıları	-10.8476
▁(1989)	-10.8477
▁Key	-10.8478
п	-10.8479
get	-10.848
▁Aş	-10.8481
▁Great	-10.8482
▁kaçır	-10.8484
▁voleybolcuları	-10.8484
▁olabil	-10.8484
ood	-10.8487
▁Batman	-10.8492
▁Jimmy	-10.8492
▁tutuk	-10.8493
▁Herschel	-10.8497
▁Doğum	-10.8497
▁Cro	-10.8498
oba	-10.8499
▁%8	-10.8499
▁figür	-10.8502
▁Kamp	-10.8502
▁Moon	-10.8507
1952	-10.8507
▁(20	-10.8509
▁birleşti	-10.8512
▁Bü	-10.8513
▁evi	-10.8516
▁1996'	-10.8517
▁Ron	-10.8517
▁odası	-10.8517
▁Zagreb	-10.8517
▁'''15	-10.8517
Geçersiz	-10.8519
▁Gümüşhane	-10.8519
▁uyarlaması	-10.8521
▁2.8	-10.8524
▁Kaç	-10.8524
ка	-10.8525
▁'''17	-10.8525
▁Nikola	-10.8531
▁Neu	-10.8532
▁elektro	-10.8532
▁bakanı	-10.8532
RT	-10.8534
?"	-10.8535
▁Mala	-10.8535
Ter	-10.8537
▁mektup	-10.8538
:(-10,	-10.8538
▁merkezidir	-10.8538
▁ilişkili	-10.8538
▁172	-10.8539
rou	-10.8539
▁Ann	-10.854
▁blok	-10.8541
▁Usta	-10.8543
▁Medya	-10.8544
▁müdür	-10.8548
Es	-10.8549
▁taşır	-10.855
▁gelmesi	-10.8552
ovo	-10.8552
▁İtalyanca	-10.8554
▁Virginia	-10.8558
▁rakam	-10.8558
▁****	-10.8559
▁benze	-10.856
Suudi	-10.8561
▁durumlarda	-10.8562
▁Gala	-10.8562
▁atanmıştır	-10.8562
▁yola	-10.8562
▁zamanla	-10.8565
▁1905	-10.8565
▁bulunması	-10.8569
▁yerlerde	-10.8569
▁7:	-10.8571
▁bulma	-10.8574
▁Oyuncusu	-10.8575
▁Özgün	-10.8576
SO	-10.8579
▁Illinois	-10.8579
▁şüphe	-10.8579
▁Kudüs	-10.8579
▁torunu	-10.8579
▁bölümde	-10.8579
▁Hazırlık	-10.8581
▁Berk	-10.8587
Pla	-10.8587
▁okulun	-10.8587
▁ima	-10.8591
ffer	-10.8592
▁sok	-10.8593
▁Dir	-10.8595
▁Buz	-10.8595
▁devamı	-10.8599
▁nezdinde	-10.8599
▁sandalye	-10.8599
▁hali	-10.8603
aux	-10.8603
Ex	-10.8604
bach	-10.8606
▁bağımsızlığını	-10.8609
ppe	-10.8614
▁nehri	-10.8616
tav	-10.8617
▁ihti	-10.8618
▁Auto	-10.8619
▁Budapeşte	-10.862
▁eleştiriler	-10.862
▁kişiye	-10.8621
▁Bingöl	-10.8622
luğa	-10.8624
▁Chu	-10.8625
1942	-10.8625
Cam	-10.8626
ч	-10.8627
▁ismiyle	-10.8628
▁Esen	-10.8629
▁Mine	-10.8629
▁Jin	-10.8633
▁bırak	-10.8633
▁Series	-10.8636
▁Pav	-10.8637
▁Otto	-10.8638
▁Yas	-10.8639
dit	-10.8639
▁boyun	-10.8639
▁vize	-10.8641
▁Frankfurt	-10.8641
▁kazanarak	-10.8644
▁İpek	-10.8644
▁Başka	-10.8644
▁Jacques	-10.8645
▁bölgelerde	-10.8646
▁161	-10.8647
▁Edebiyatı	-10.8649
▁Kenan	-10.865
▁mah	-10.8651
2016	-10.8652
▁5-	-10.8656
▁versiyon	-10.8657
ET	-10.8659
▁Afyonkarahisar	-10.8662
zir	-10.8662
▁türbe	-10.8663
▁yükselt	-10.8663
uel	-10.8667
▁Sher	-10.8668
▁Tunceli	-10.8668
▁öldürme	-10.8669
▁Im	-10.867
▁oluşturma	-10.8671
ess	-10.8675
.75	-10.8678
▁otomatik	-10.8683
▁yakıt	-10.8683
▁maliyet	-10.8689
▁Vel	-10.869
▁Metal	-10.8691
Kanat	-10.8694
▁Fla	-10.8695
▁Lord	-10.8698
▁Manastırı	-10.87
▁mayın	-10.8702
▁yerleşme	-10.8702
▁kere	-10.8703
▁yedinci	-10.8704
▁ettiler	-10.8705
▁Prusya	-10.8707
és	-10.8711
▁Allen	-10.8711
▁Arts	-10.8712
▁öyküsü	-10.8713
:1987	-10.8718
▁gazetesinde	-10.8718
▁vo	-10.8719
▁köyüne	-10.8724
▁müdahale	-10.8724
▁Tiflis	-10.8724
▁Pınar	-10.8725
▁Vic	-10.8726
▁Tayvan	-10.8726
▁kurumu	-10.8729
▁Filip	-10.8729
▁Morris	-10.873
▁his	-10.8732
▁NATO	-10.8734
▁değişen	-10.8735
▁ac	-10.8736
▁yaprak	-10.8736
▁Ball	-10.8738
▁dışındaki	-10.8741
ME	-10.8741
▁kedi	-10.8744
რ	-10.8745
ك	-10.8745
:1995	-10.8745
▁belirgin	-10.8746
▁yönetiminde	-10.8748
▁bestecileri	-10.875
▁ilçeleri	-10.8754
-01	-10.8754
▁akarsu	-10.8765
▁adının	-10.8765
▁(7	-10.8766
▁Yalçın	-10.8766
▁Çelebi	-10.8766
▁yürüyüş	-10.8766
▁Ardahan	-10.8766
▁maruz	-10.8769
▁atış	-10.8771
py	-10.8772
lmaz	-10.8773
▁set	-10.8775
▁gazetecileri	-10.8777
1955	-10.8779
▁Galerisi	-10.8779
stin	-10.8783
oka	-10.8784
▁ücret	-10.8786
▁belirlemek	-10.8787
feld	-10.8788
▁1997'	-10.8788
▁paralel	-10.8788
▁değişken	-10.8791
▁familya	-10.8793
“	-10.8793
▁Karar	-10.8795
▁Fort	-10.8796
▁kullanılmaya	-10.8796
▁Under	-10.8798
poli	-10.8802
▁Cin	-10.8802
▁ayrılan	-10.8802
abad	-10.8806
▁News	-10.8807
▁Hikmet	-10.8808
▁Adnan	-10.8811
▁geçtiği	-10.8812
azi	-10.8813
▁Rapor	-10.8813
▁üste	-10.8813
doğan	-10.8814
stad	-10.8815
▁Hükûmet	-10.8815
▁istedi	-10.8815
▁mini	-10.8816
▁Yüz	-10.8817
▁mor	-10.8817
▁yaşındaki	-10.8818
Gül	-10.8818
▁Rah	-10.8821
▁harfi	-10.8821
UTC	-10.8821
viz	-10.8822
▁Shu	-10.8823
ob	-10.8827
▁Nintendo	-10.883
▁Venezuela	-10.883
▁Junior	-10.883
▁Köln	-10.883
▁videosu	-10.8831
▁edilerek	-10.8831
İn	-10.8831
▁Wall	-10.8837
hil	-10.8841
▁Dere	-10.8844
1949	-10.8844
ym	-10.8846
İran	-10.8846
▁Sezonu	-10.8847
itler	-10.8848
▁kişilerin	-10.8849
▁François	-10.8851
▁Philadelphia	-10.8851
▁kocası	-10.8852
▁hepsi	-10.8852
▁başlayarak	-10.8853
▁0-0	-10.8853
▁Fransızlar	-10.8859
▁oluşumu	-10.8859
▁alana	-10.886
gia	-10.886
▁zafer	-10.8863
ender	-10.8865
▁değiştirme	-10.8866
▁usta	-10.8868
▁Kub	-10.887
dorf	-10.887
▁Stuttgart	-10.8872
▁muhabir	-10.8873
▁Mühendislik	-10.8877
▁Mr	-10.888
▁Philip	-10.8883
FA	-10.8883
▁turnuvası	-10.8883
▁bisiklet	-10.8883
tto	-10.8886
▁ligde	-10.8886
▁173	-10.8886
▁başlaması	-10.8886
▁ip	-10.8887
ois	-10.8888
lock	-10.8888
▁kasabası	-10.8888
▁Portekizli	-10.8893
worth	-10.8893
▁gerekçesiyle	-10.8893
▁atmıştır	-10.8894
▁Danışma	-10.8894
▁Özbekistan	-10.8894
▁Gir	-10.8895
▁Galler	-10.8898
▁mit	-10.8898
▁fabrikası	-10.8898
▁Yi	-10.8899
Millî	-10.89
:1976	-10.8901
▁kuralları	-10.8901
▁Charlie	-10.8901
gno	-10.8904
▁artı	-10.8908
▁600	-10.891
▁sesi	-10.8911
hut	-10.8913
Cha	-10.8914
▁ittifak	-10.8915
▁imzalanan	-10.8917
▁Emin	-10.8918
▁atletler	-10.8918
▁değişikliği	-10.8919
wen	-10.8922
Ermeni	-10.8922
▁dizinin	-10.8922
▁Tiyatroları	-10.8923
▁vurgu	-10.8923
:1970	-10.8923
▁koleksiyonu	-10.8925
▁miktarı	-10.8925
▁tesis	-10.8927
▁Bart	-10.8928
▁korun	-10.8928
▁Marka	-10.8929
▁Cons	-10.8929
▁istasyon	-10.8929
lop	-10.8931
▁Silkme	-10.8936
▁millet	-10.8938
▁Prenses	-10.8939
▁eleştiri	-10.894
▁Olaylar	-10.894
▁girmiş	-10.894
▁mücadelesi	-10.8943
▁Water	-10.8943
▁Sayfası	-10.8944
Gra	-10.8944
▁Pur	-10.8945
▁bacak	-10.8951
▁Rai	-10.8954
este	-10.8957
ull	-10.8958
▁205	-10.8959
▁Başlangıçta	-10.8959
▁şefi	-10.8961
▁diplomatik	-10.8961
▁kariyer	-10.8963
▁Gon	-10.8964
▁Hart	-10.8965
ates	-10.8966
▁Met	-10.897
▁Yang	-10.8972
:1974	-10.8973
pal	-10.8973
▁görülme	-10.8974
▁Ziya	-10.8975
▁Elektrik	-10.8979
▁Uç	-10.8979
▁German	-10.898
▁dönen	-10.898
▁İstatistik	-10.8981
▁gül	-10.8983
Doğum	-10.8983
▁başlanmıştır	-10.8985
▁Şar	-10.8987
▁egemenliği	-10.8993
▁ödeme	-10.8993
1946	-10.8995
▁186	-10.8995
▁Gü	-10.8997
▁Nev	-10.9
▁peynir	-10.9
leg	-10.9
tıcı	-10.9002
▁epi	-10.9003
▁düşen	-10.9006
▁düşmesi	-10.9009
▁yazısı	-10.9011
▁Lil	-10.9013
▁kodu	-10.9014
▁temalı	-10.9014
▁oto	-10.9017
▁programlama	-10.9018
▁endüstrisi	-10.9018
▁195	-10.902
▁Programı	-10.902
▁Flor	-10.9021
▁eğilim	-10.9022
▁(1984)	-10.9022
▁eri	-10.9026
noktası	-10.9031
▁organı	-10.9032
▁Ruslar	-10.9033
tekin	-10.9033
▁Pekin	-10.9036
pra	-10.904
▁Avcı	-10.904
Hal	-10.9042
▁Enerji	-10.9044
▁fikri	-10.9044
▁Hollywood	-10.9044
git	-10.9045
▁filminin	-10.9045
ов	-10.9046
▁kıs	-10.9048
▁direktörlük	-10.9048
▁İngilizler	-10.905
▁Ph	-10.905
▁Güler	-10.9051
Filmografi	-10.9052
▁sütun	-10.9053
:1997	-10.9057
Av	-10.9058
800	-10.9061
▁Veli	-10.9061
▁Miller	-10.9062
▁İstatistikleri	-10.9063
▁Bos	-10.9065
▁gruba	-10.9065
▁organize	-10.9066
bak	-10.9067
▁görevleri	-10.9069
▁gitme	-10.9069
▁Sadece	-10.907
:1983	-10.907
▁dergileri	-10.9072
mey	-10.9072
bla	-10.9073
▁1903	-10.9073
▁ist	-10.9074
▁halkının	-10.9074
:1985	-10.9075
emedi	-10.9075
▁faaliyetleri	-10.9077
▁diplomat	-10.908
▁devletler	-10.908
▁Arif	-10.9082
▁ilham	-10.9082
▁Nan	-10.9083
▁Med	-10.9085
▁maden	-10.9085
▁hâl	-10.9087
▁'''20	-10.9087
III	-10.9088
▁171	-10.9089
Pol	-10.9092
pis	-10.9092
▁düzeyde	-10.9097
▁güneyde	-10.9097
▁1995'	-10.9099
▁voleybolcular	-10.91
▁Cle	-10.9106
▁yaptıkları	-10.9106
▁Por	-10.9107
▁Şan	-10.9107
ux	-10.9107
dre	-10.9108
▁çaba	-10.9108
▁Köprüsü	-10.9109
▁adlandırılmış	-10.9109
▁Şerif	-10.911
▁Tayland	-10.911
şer	-10.9112
▁Gönül	-10.9112
kom	-10.9112
▁mitolojisinde	-10.9116
▁Pala	-10.9119
▁Lind	-10.912
▁yaşta	-10.912
▁döner	-10.9121
▁aralık	-10.9123
cchi	-10.9128
Sin	-10.9128
oon	-10.9129
▁Bes	-10.9129
▁sponsor	-10.913
▁güneybatısında	-10.9132
Fo	-10.9132
▁bağlanmıştır	-10.9133
▁AG	-10.9134
Che	-10.9136
ová	-10.9138
▁takımıyla	-10.9139
▁Uçak	-10.9139
▁Clo	-10.914
▁Allah	-10.9144
bl	-10.9145
▁dağıtım	-10.9148
▁Heat	-10.9149
▁169	-10.9149
▁Stu	-10.9149
▁mevsim	-10.9152
▁Kızılderili	-10.9152
▁İr	-10.9158
▁Tuş	-10.9159
Hip	-10.9163
Ch	-10.9166
▁yanına	-10.9166
▁krallığı	-10.9167
gua	-10.9168
▁Cas	-10.917
▁Donanması	-10.9173
▁Indiana	-10.9173
▁güncel	-10.9173
▁Borsası	-10.9174
▁Jordan	-10.9174
ters	-10.9175
▁ayrılmaktadır	-10.9175
uli	-10.9176
▁Öğretmen	-10.9177
▁etap	-10.918
▁yönet	-10.9181
cul	-10.9181
▁Dergi	-10.9182
ibi	-10.9182
DS	-10.9185
▁Colo	-10.9186
▁Marcel	-10.9187
▁kendisinin	-10.9188
▁matematik	-10.9191
▁arı	-10.9193
▁Wen	-10.9197
LC	-10.9197
▁Devletler	-10.9197
alım	-10.9205
▁güreşçileri	-10.9206
▁beyin	-10.9207
leşti	-10.9208
David	-10.9208
▁Düz	-10.9211
rî	-10.9216
▁Year	-10.9217
▁Matthew	-10.9218
▁Mahmud	-10.9218
▁kuşatma	-10.9219
▁Futbolculuk	-10.922
▁denilen	-10.922
▁han	-10.9222
▁09	-10.9222
izasyon	-10.9223
▁Hell	-10.9223
▁Xbox	-10.9224
▁Jung	-10.9226
▁sorun	-10.9229
▁pandemisi	-10.9229
▁Hur	-10.9231
▁1890	-10.9232
▁sendromu	-10.9233
▁çeken	-10.9235
▁mesaj	-10.9239
▁muhalefet	-10.924
▁Koparma	-10.924
▁Yarımadası	-10.924
▁restoran	-10.924
▁anlatır	-10.9245
▁Jay	-10.9247
▁Sex	-10.9247
▁Elma	-10.925
▁Liverpool	-10.925
▁Hand	-10.9251
uro	-10.9252
.05	-10.9255
2001	-10.9255
▁beden	-10.9262
▁milliyetçi	-10.9262
1953	-10.9262
▁2005:	-10.9263
▁hanedanı	-10.9263
–18	-10.9264
▁Ünlü	-10.9264
▁Gene	-10.9266
▁okun	-10.9267
▁Moğol	-10.9268
▁editör	-10.927
▁Pel	-10.9271
▁yetkili	-10.9272
▁Akça	-10.9273
müzik	-10.9274
▁2.9	-10.9274
▁ilerleme	-10.9278
▁tesisleri	-10.9278
▁Profesör	-10.9278
▁Ferrari	-10.9281
▁Hip	-10.9282
▁Anthony	-10.9284
▁Soccer	-10.9284
▁disiplin	-10.9284
▁grubudur	-10.9285
▁Manuel	-10.9287
▁sin	-10.9288
▁geçmişi	-10.9289
:1968	-10.9291
▁Hayır	-10.9291
oksi	-10.9294
lyn	-10.9296
▁hip	-10.9297
▁tat	-10.9302
▁adıdır	-10.9304
▁ülkeleri	-10.9304
▁Sami	-10.9304
Yol	-10.9305
abilecek	-10.9306
ق	-10.9306
▁Spring	-10.9307
▁gazeteler	-10.9309
▁1987'	-10.931
1957	-10.931
Tra	-10.9312
▁Vir	-10.9315
▁uyum	-10.9318
▁Woman	-10.9319
iyesi	-10.932
İnsan	-10.932
▁kanseri	-10.932
alis	-10.9323
▁kurtar	-10.9324
run	-10.9326
▁GP	-10.9326
▁BM	-10.9326
illo	-10.9327
ebilecek	-10.9328
▁fantastik	-10.9329
▁piyano	-10.9329
▁tema	-10.9329
▁katlı	-10.9333
▁Gan	-10.9333
▁dergisinde	-10.9334
▁sunul	-10.9334
▁partinin	-10.9334
▁Paulo	-10.9337
▁İslami	-10.9337
▁%9	-10.9339
▁California	-10.9339
▁Hakları	-10.9339
▁ayrılma	-10.9342
sper	-10.9344
▁rahatsız	-10.9347
▁olmaması	-10.9347
uldu	-10.9347
yurt	-10.9349
▁Arslan	-10.9351
▁geliştirilmiş	-10.9351
▁240	-10.9355
▁arasına	-10.9356
▁kısımları	-10.9356
▁Çö	-10.9357
▁katılımcı	-10.9362
▁2019-20	-10.9362
2011	-10.9369
▁cihazlar	-10.9371
▁Ozan	-10.9373
▁geometri	-10.9373
▁getirilmiştir	-10.9376
▁Karşıyaka	-10.9377
rag	-10.938
▁seviyesi	-10.938
▁Halter	-10.9382
Ol	-10.939
▁(1):	-10.939
Play	-10.9391
▁yayımladı	-10.9391
▁Performansı	-10.9393
▁vermeye	-10.9393
▁Kâ	-10.9396
▁2006-07	-10.9396
▁Mobile	-10.9396
▁'''18	-10.9397
▁bebek	-10.9397
:16	-10.9399
▁Gelen	-10.9399
▁sektör	-10.9399
▁soy	-10.9401
▁rütbe	-10.9402
▁katılım	-10.9404
inç	-10.9409
Azeri	-10.9409
▁174	-10.9412
▁üreticisi	-10.9413
▁müzeler	-10.9413
▁Pozisyon	-10.9416
▁Association	-10.9418
▁gücünü	-10.9419
▁Belgrad	-10.9419
▁verimli	-10.9419
▁Call	-10.942
Fin	-10.9421
▁Ass	-10.9422
hip	-10.9423
▁4.0	-10.9425
▁kayıtları	-10.9426
▁Yap	-10.9426
TE	-10.9426
▁tabaka	-10.9427
1944	-10.9428
▁Saha	-10.9434
▁büyükelçileri	-10.9435
▁Başarı	-10.9436
tern	-10.9437
▁hukuku	-10.9439
▁tüket	-10.9439
▁Güneydoğu	-10.9442
▁Alfred	-10.9442
▁1994'	-10.9442
▁tez	-10.9442
▁yükseklikte	-10.9445
▁Ner	-10.9446
▁basınç	-10.9446
▁Tok	-10.9446
▁köle	-10.9447
▁Bran	-10.9448
▁DNA	-10.9449
park	-10.9454
▁WWE	-10.9455
▁Kahraman	-10.9458
▁çekim	-10.9458
▁acı	-10.9462
▁Pont	-10.9463
▁otobüs	-10.9463
▁hayran	-10.9463
▁başbakanı	-10.9467
▁keşif	-10.9467
▁sağlama	-10.947
▁Cru	-10.947
ezi	-10.9472
Mü	-10.9475
▁pen	-10.9476
Küçük	-10.9477
▁şansı	-10.948
▁eyaletinin	-10.9481
▁geliştir	-10.9481
▁Giriş	-10.9486
▁(2020)	-10.9486
▁toprakları	-10.9487
▁By	-10.9488
▁koç	-10.9489
▁His	-10.9489
▁Â	-10.9491
▁yaparken	-10.9492
▁üstü	-10.9495
▁Ağır	-10.9496
▁Oda	-10.9496
▁3.4	-10.9498
▁fikir	-10.95
▁00	-10.9503
▁Francis	-10.9505
▁böyle	-10.9506
▁Çünkü	-10.9508
▁%6	-10.9509
▁Samuel	-10.9509
▁üçgen	-10.9509
▁1,5	-10.9513
▁Now	-10.9514
▁Kil	-10.9515
▁М	-10.9516
▁nahiyesine	-10.9521
▁Çer	-10.9522
▁Que	-10.9523
kuyu	-10.9525
▁1876	-10.9527
dou	-10.9527
▁girer	-10.9532
▁tutuklandı	-10.9532
▁kuzeybatısında	-10.9533
odi	-10.9533
▁Başkent	-10.9533
▁edip	-10.9534
▁Müdür	-10.9537
▁anılan	-10.954
▁Fair	-10.9541
Tor	-10.9542
▁Slovenya	-10.9543
:1999	-10.9543
▁kuzeyde	-10.9544
▁getiren	-10.9544
▁yön	-10.9545
▁gösterdiği	-10.9545
▁3.3	-10.955
hon	-10.9551
▁Mücadele	-10.9554
▁Digital	-10.9554
▁Matematik	-10.9554
▁Şey	-10.9556
Ger	-10.9556
▁yet	-10.9556
pos	-10.9557
▁Gil	-10.956
▁olayı	-10.9563
▁Öl	-10.9564
-2007	-10.9565
▁gelecek	-10.9567
▁Öğrenci	-10.9567
lerdeki	-10.9567
▁Gümrük	-10.9576
▁genetik	-10.9577
▁Projesi	-10.9583
▁1940'	-10.9583
▁Göre	-10.9584
▁Reis	-10.9584
▁%7	-10.9586
▁Yayla	-10.9586
▁uzan	-10.9586
▁Kaz	-10.959
OL	-10.9593
İslam	-10.9594
▁Celal	-10.9598
▁Columbia	-10.9599
▁dönemlerde	-10.9599
1934	-10.9601
larındaki	-10.9602
.80	-10.9603
▁gösterilen	-10.9604
▁meta	-10.9609
▁tanıştı	-10.9611
▁.5	-10.9611
▁bol	-10.9612
▁yayla	-10.9616
▁Lisans	-10.9617
▁Ermenice	-10.962
▁suikast	-10.9622
▁etiketiyle	-10.9622
şah	-10.9623
▁bağı	-10.9623
▁konsol	-10.9623
▁oluşturdu	-10.9627
▁Düzce	-10.9628
▁Gökhan	-10.9628
▁vadi	-10.9629
▁Kolombiya	-10.9629
ander	-10.9632
üzü	-10.9635
pat	-10.9636
▁pu	-10.9637
sburg	-10.9637
▁Rome	-10.9638
▁Form	-10.9638
▁ederler	-10.9643
Almanca	-10.9644
_	-10.9645
×	-10.9645
▁grekoromen	-10.9645
▁Kura	-10.9648
▁Yara	-10.9648
▁moda	-10.9649
▁Four	-10.965
▁230	-10.9654
▁belirti	-10.9655
Rock	-10.9656
feat	-10.9657
▁Death	-10.9658
▁rapçi	-10.966
▁Zh	-10.9661
Japan	-10.9663
▁Turnuvası	-10.9663
▁hastalıklar	-10.9664
▁Lake	-10.9667
ж	-10.9668
▁Amsterdam	-10.9668
▁mono	-10.9669
▁öğrenciler	-10.967
▁Bed	-10.9671
wing	-10.9672
▁Kulüpler	-10.9674
IC	-10.9674
▁insanın	-10.9674
▁kapağı	-10.9675
▁hareketleri	-10.9678
▁yaptıktan	-10.9682
2007	-10.9683
▁dön	-10.9685
▁Ef	-10.9688
▁kapak	-10.9688
▁Rain	-10.969
▁depo	-10.969
▁şerit	-10.9691
şit	-10.9692
▁Hamburg	-10.9693
Sü	-10.9694
▁konuşan	-10.9694
dık	-10.9695
▁sahibidir	-10.9695
▁sıradan	-10.9697
▁Mimarlık	-10.9697
▁Baby	-10.9697
part	-10.9699
ciliği	-10.9705
bia	-10.9706
▁Önemli	-10.9707
▁felsefesi	-10.9707
ц	-10.9708
trik	-10.971
▁ters	-10.9712
ա	-10.9714
▁Yurdu	-10.9714
▁1989'	-10.9715
▁sundu	-10.9715
▁yağmur	-10.9715
▁1:1	-10.9716
▁Ei	-10.9719
▁kimliği	-10.9719
▁yapıları	-10.972
▁öğretmeni	-10.9721
IP	-10.9722
vid	-10.9725
▁teklisi	-10.9729
alp	-10.9733
მ	-10.9737
▁Athletic	-10.9737
▁çeyrek	-10.9737
▁ucu	-10.9738
▁Kıta	-10.9738
▁Konferansı	-10.9741
Bor	-10.9741
▁Kre	-10.9742
SM	-10.9742
▁boyutlu	-10.9745
▁1901	-10.9747
▁şiiri	-10.9747
▁emir	-10.9748
▁Od	-10.9749
▁Gökçe	-10.9752
▁Kanunu	-10.9753
ırlar	-10.9754
▁takımlarında	-10.9758
▁hop	-10.9758
9'''	-10.9759
▁girişim	-10.9759
▁je	-10.976
▁Halep	-10.9763
▁Albums	-10.9763
▁Tibet	-10.9764
▁Cihaz	-10.9765
▁ulaşmıştır	-10.9765
▁başlığı	-10.9767
▁işler	-10.9769
▁ayır	-10.9779
▁Adams	-10.9779
ер	-10.9781
▁bölgeyi	-10.9783
▁mahkûm	-10.9784
▁çikolata	-10.9784
▁sürdürmektedir	-10.9784
üğü	-10.9786
Yer	-10.9787
▁heykeli	-10.9789
gri	-10.979
▁koşu	-10.979
▁albümünün	-10.9791
oh	-10.9794
▁Bundan	-10.9797
âh	-10.98
▁devleti	-10.9805
pet	-10.9805
OC	-10.9805
yüz	-10.9808
▁alınarak	-10.9809
▁yönetme	-10.981
Bas	-10.9811
▁1,8	-10.9811
▁parmak	-10.9812
▁oyunculu	-10.9812
▁Yön	-10.9817
:1960	-10.9818
▁Kun	-10.9819
▁Carey	-10.9822
▁tutma	-10.9822
▁FI	-10.9822
▁Gay	-10.9822
sizlik	-10.9823
▁Jason	-10.9826
▁derleme	-10.9828
▁çoğunu	-10.9829
▁davul	-10.9829
1937	-10.9829
çek	-10.983
▁Sofya	-10.9831
▁Tekin	-10.9831
▁kampı	-10.9832
SD	-10.9832
hum	-10.9833
▁türünde	-10.9833
▁şarkısıyla	-10.9833
▁Brad	-10.9837
Nu	-10.9841
700	-10.9841
layıp	-10.9844
▁İlhan	-10.9844
▁beğeni	-10.9845
▁temiz	-10.9846
▁Kitapları	-10.9847
zzo	-10.9849
▁Serie	-10.985
mé	-10.9851
▁Book	-10.9852
▁teşkil	-10.9854
▁heykeltıraş	-10.9854
▁PC	-10.9854
▁Vatan	-10.9856
▁buluş	-10.9856
stone	-10.9861
▁elçi	-10.9867
▁dö	-10.9868
lemek	-10.9869
▁(8	-10.987
hun	-10.9871
▁ülkeye	-10.9872
▁gösterme	-10.9874
ılabilir	-10.9875
▁hoş	-10.9876
▁Lüksemburg	-10.9877
▁André	-10.9878
▁şekilleri	-10.9881
▁seyirci	-10.9883
▁yönetti	-10.9885
UR	-10.9886
At	-10.9889
Let	-10.9889
▁192	-10.989
▁takma	-10.9892
▁Girls	-10.9892
▁Like	-10.9896
▁düzeyi	-10.9896
▁attığı	-10.9896
NR	-10.9897
▁ağız	-10.99
ش	-10.9901
▁direniş	-10.9901
▁alışveriş	-10.9901
▁Douglas	-10.9901
▁(2022)	-10.9901
▁Nil	-10.9902
▁varlığını	-10.9902
AZ	-10.9902
▁mümkündür	-10.9903
▁Güç	-10.9904
dî	-10.9904
▁kayıtlarda	-10.9907
▁toz	-10.991
▁ok	-10.9911
NE	-10.9911
eline	-10.9914
polis	-10.9914
now	-10.9915
osa	-10.9916
▁modelleri	-10.9916
▁hep	-10.9918
png	-10.992
▁soyu	-10.992
▁potansiyel	-10.9924
▁Michigan	-10.9924
▁cisimleri	-10.9925
▁kongre	-10.9926
▁hapse	-10.9927
▁çalışmaktadır	-10.9928
▁kesiminde	-10.9928
▁planı	-10.9931
▁Morgan	-10.9932
▁İranlı	-10.9932
▁Cher	-10.9937
▁sözcük	-10.9938
▁Ari	-10.9939
▁kaba	-10.994
▁bölümden	-10.9945
▁gereği	-10.9947
▁karşılıklı	-10.9948
▁İktisadi	-10.9948
▁Organizasyon	-10.9948
▁Meryem	-10.9948
▁Piyade	-10.9949
▁'''-'''	-10.9949
▁bay	-10.9951
▁Back	-10.9952
▁Women	-10.9952
çuk	-10.9954
▁Demirspor	-10.9955
▁almakta	-10.9958
mesini	-10.9958
▁gerektiğini	-10.9958
▁Golden	-10.9959
▁çıkarma	-10.9959
▁oğulları	-10.9964
▁buraya	-10.9964
1861	-10.9968
▁alkol	-10.9969
▁buzul	-10.9969
Ci	-10.997
▁farkı	-10.9971
▁trafik	-10.9972
▁dağlar	-10.9974
▁Ltd	-10.9974
▁camiler	-10.9974
▁katılmış	-10.9974
▁adalar	-10.9979
Fu	-10.998
▁Afrikalı	-10.9981
Tar	-10.9983
▁şirketidir	-10.9984
▁198	-10.9985
▁350	-10.9985
1998	-10.9986
▁yazılımı	-10.9988
▁Turan	-10.9988
▁gazeteciler	-10.9992
zhou	-10.9995
▁kıyafet	-10.9996
▁Hamilton	-10.9996
▁Kin	-10.9996
▁kayded	-10.9997
▁Ankaragücü	-10.9997
▁Gla	-11.0001
gol	-11.0002
▁filozof	-11.0004
NK	-11.0006
▁teması	-11.0007
▁bölümünden	-11.0008
gö	-11.001
▁Beck	-11.001
ruz	-11.0013
tori	-11.0016
▁logosu	-11.0017
▁Atlanta	-11.002
▁boyunda	-11.002
Grup	-11.0021
▁Pie	-11.0022
▁Haydar	-11.0023
▁Sz	-11.0023
▁Beh	-11.0023
▁karşıya	-11.0024
pho	-11.0025
Far	-11.003
▁öğrenme	-11.003
1987	-11.0036
ни	-11.0036
▁br	-11.004
▁FM	-11.0041
▁keman	-11.0041
▁Fırat	-11.0043
Min	-11.0045
▁nükleer	-11.0046
▁Dede	-11.0046
▁Vah	-11.0048
borg	-11.0054
▁tabanı	-11.0054
▁Abi	-11.0054
▁kutsal	-11.0055
▁Oyu	-11.0056
▁değişiklik	-11.0057
Live	-11.0058
▁3-2	-11.0063
▁öde	-11.0064
▁cümle	-11.0067
ştır	-11.0069
▁olmayı	-11.007
chan	-11.0071
▁bulur	-11.0072
▁2023'	-11.0073
▁bilinmeyenler	-11.0073
▁senaristler	-11.0077
▁değildi	-11.0077
▁Küba	-11.0078
▁Gr	-11.0079
Vo	-11.0079
▁evden	-11.0079
fl	-11.0081
▁sorunlar	-11.0082
▁element	-11.0083
▁Parlamento	-11.0083
▁gel	-11.0085
▁sekreteri	-11.0085
▁Sep	-11.0085
▁geçmesi	-11.0087
▁Tas	-11.0088
▁Kate	-11.0091
▁gerçekleştirdi	-11.0092
▁Liberal	-11.0092
▁Ümit	-11.0092
▁puanla	-11.0093
▁dizisidir	-11.0094
▁anlaşması	-11.0094
▁Hayvan	-11.0096
tag	-11.0096
▁Pl	-11.0096
▁Türkçesi	-11.0097
750	-11.0097
▁papa	-11.0098
beyli	-11.0107
▁sunuldu	-11.0107
Tri	-11.0107
▁tabi	-11.0112
.08	-11.0113
▁Aba	-11.0114
▁türündeki	-11.0115
æ	-11.0115
▁Bağdat	-11.0115
▁Viktor	-11.0117
▁metro	-11.0119
▁Qu	-11.0119
▁die	-11.012
▁Hakem	-11.0122
▁baraj	-11.0124
▁çalı	-11.0124
▁araçlar	-11.0126
▁Mé	-11.0127
▁Emine	-11.0128
1997	-11.0128
▁geleneği	-11.0128
▁Johnny	-11.0128
▁kıta	-11.0131
İki	-11.0134
▁adaları	-11.0134
IR	-11.0137
atlı	-11.0139
▁Isparta	-11.0139
▁tal	-11.0146
▁Carr	-11.0147
NT	-11.0148
cel	-11.0149
▁Dönemi	-11.0151
▁pist	-11.0153
▁kısmını	-11.0154
Ağ	-11.0156
yü	-11.0157
rul	-11.0161
rell	-11.0162
▁Temsilciler	-11.0163
▁Harvard	-11.0163
▁Özgürlük	-11.0165
▁kimi	-11.0166
▁mes	-11.0169
istler	-11.0169
▁Secret	-11.0169
▁doğduğu	-11.017
▁mezarı	-11.0172
▁Geri	-11.0172
NBA	-11.0173
▁Yıllar	-11.0173
▁duvarı	-11.0174
▁kulak	-11.0183
▁sim	-11.0183
atif	-11.0183
CE	-11.0185
1935	-11.0185
▁Evren	-11.0185
▁Üretim	-11.0188
▁Jacob	-11.0188
▁Field	-11.0188
▁1988'	-11.019
▁Tara	-11.0193
▁silindir	-11.0193
ution	-11.0194
▁edil	-11.0195
▁doğuda	-11.0195
abilmek	-11.0196
1926	-11.0197
▁Kiev	-11.0197
:1973	-11.02
▁sav	-11.02
SU	-11.0201
▁ülkeden	-11.0202
▁Bahar	-11.0202
KP	-11.0205
çılar	-11.0206
▁Melek	-11.0207
й	-11.0207
▁Bunların	-11.0211
▁tenis	-11.0213
Den	-11.0213
ID	-11.0215
▁şah	-11.0215
göz	-11.022
tation	-11.022
▁Yemen	-11.0221
ches	-11.0222
▁imparatoru	-11.0222
▁değerleri	-11.0223
▁Sahne	-11.0224
▁formu	-11.0226
▁Get	-11.0228
▁kenar	-11.0228
Ed	-11.0229
Spor	-11.0231
uto	-11.0233
ة	-11.0236
▁Selanik	-11.0236
İskoç	-11.0237
bian	-11.0238
▁bulunmaktaydı	-11.0238
▁semti	-11.0238
▁hayata	-11.0239
blo	-11.0239
▁Katedrali	-11.0239
▁Finali	-11.024
▁Levent	-11.024
▁Dans	-11.0244
:2005	-11.0249
▁Jun	-11.0249
▁zamanı	-11.025
eceğini	-11.0251
▁pp	-11.0252
▁Oto	-11.0253
▁emri	-11.0255
▁Oranı	-11.0255
▁'''2.	-11.0257
ño	-11.026
▁Wikipedia	-11.0261
▁Houston	-11.0261
▁Tai	-11.0261
▁suçlu	-11.0262
▁şehirleri	-11.0265
İl	-11.0265
ming	-11.0265
▁indi	-11.0267
–1	-11.027
ümü	-11.027
▁Kongo	-11.0272
▁belediyeler	-11.0272
▁resmen	-11.0273
Para	-11.0274
hos	-11.0274
seri	-11.0274
▁Rou	-11.0279
▁yayını	-11.0282
ağın	-11.0283
▁Çal	-11.0283
▁silahlar	-11.0284
doğum	-11.0284
Yo	-11.0285
ý	-11.0285
▁(1985)	-11.0286
▁Kırşehir	-11.0286
▁yüzücü	-11.0287
▁göstermiştir	-11.0287
SL	-11.0288
▁isten	-11.0288
▁Çerkes	-11.0289
flor	-11.0289
▁kadrosuna	-11.0289
▁SB	-11.029
▁kaplı	-11.0292
Deniz	-11.0292
▁örneğin	-11.0293
▁Kelly	-11.0294
1939	-11.0297
▁boru	-11.0297
▁Almanlar	-11.0298
pot	-11.0299
▁üyeliğine	-11.0302
:16.	-11.0303
▁mı	-11.0303
Asya	-11.0305
▁açılış	-11.0305
▁şef	-11.0308
▁depolama	-11.0309
▁(1981)	-11.031
▁gerçekleşir	-11.031
▁Şeker	-11.0312
▁kurgu	-11.0312
▁yardımıyla	-11.0314
▁uygulamalar	-11.0314
▁187	-11.0314
▁08	-11.0316
▁dansçı	-11.0317
▁201	-11.0322
▁takvimi	-11.0322
▁finalinde	-11.0325
▁Billy	-11.033
▁bağlıyken	-11.0333
▁Niğde	-11.0334
phon	-11.0336
▁çıkışı	-11.0337
▁1944'	-11.034
▁yaklaş	-11.034
AV	-11.0341
▁sayıları	-11.0343
▁Ör	-11.0347
▁görevli	-11.0348
▁VII	-11.035
ship	-11.0352
Paul	-11.0356
ping	-11.0357
▁07	-11.0359
▁Vikipedi	-11.0359
▁Rag	-11.036
pop	-11.036
▁artış	-11.036
omo	-11.0361
ious	-11.0361
▁koşulları	-11.0365
▁topluluk	-11.0367
ñ	-11.0369
▁Eleştirmenleri	-11.0376
▁yüzyıla	-11.0376
▁Project	-11.0377
▁Özer	-11.0378
▁koy	-11.0383
ج	-11.0383
▁hacmi	-11.0384
muz	-11.0386
▁izle	-11.0387
▁topraklar	-11.0387
▁Boris	-11.0389
çal	-11.0391
-22	-11.0393
▁App	-11.0401
▁sorunu	-11.0402
▁net	-11.0402
:1979	-11.0402
▁Silver	-11.0403
▁başlık	-11.0404
▁parkı	-11.0404
Kim	-11.0407
▁subay	-11.0407
▁dayanır	-11.0408
zio	-11.0409
sho	-11.0411
tv	-11.0411
▁ja	-11.0412
kop	-11.0412
▁zorla	-11.0414
şarkı	-11.0414
Kal	-11.0414
▁kurulduğu	-11.0415
▁Xi	-11.0419
▁rütbesine	-11.0422
▁Wu	-11.0425
▁Temp	-11.0426
▁с	-11.0427
▁yaklaşım	-11.0427
SE	-11.0429
0,000	-11.043
▁Orkestrası	-11.0431
▁Shan	-11.0432
svg	-11.0434
▁%0,6	-11.0435
ışık	-11.0435
Sırp	-11.0435
İsveç	-11.0436
dus	-11.0436
▁Umut	-11.0445
▁FV	-11.0445
▁Oyunun	-11.0446
▁yıldır	-11.0447
▁Swa	-11.0448
▁Cole	-11.0448
▁Hatun	-11.0449
2018	-11.0449
▁Guy	-11.045
▁202	-11.045
▁fonksiyonu	-11.0454
2014	-11.0455
▁dışişleri	-11.0458
▁225	-11.0458
▁elektron	-11.046
Adalet	-11.0462
odo	-11.0464
Yılın	-11.0465
Hint	-11.0467
▁AM	-11.0467
▁Marcus	-11.0468
▁Bruce	-11.0469
▁Dog	-11.047
rica	-11.0471
Bra	-11.0473
▁Leo	-11.0473
▁Stadyum	-11.0474
▁belirtir	-11.0475
▁Özbek	-11.0475
ağaç	-11.0478
▁etkiler	-11.0482
▁Yargıtay	-11.0483
▁tatil	-11.0483
▁yaratma	-11.0484
▁tasarlanmıştır	-11.0486
▁danışmanı	-11.0486
zzi	-11.0489
▁birbiri	-11.0491
▁pasaport	-11.0492
▁:'''	-11.0494
▁siteleri	-11.0494
▁başlıklı	-11.0495
▁fakülte	-11.0499
▁Peri	-11.05
▁eyaleti	-11.0502
deniz	-11.0503
▁açtığı	-11.0504
▁Moldova	-11.0508
▁Toronto	-11.0508
ان	-11.0509
▁Arch	-11.0509
▁Online	-11.0511
lamaya	-11.0513
▁Cemil	-11.0513
kum	-11.0514
▁196	-11.0514
▁cezası	-11.0518
mura	-11.0518
▁kentin	-11.0521
▁yöne	-11.0522
▁bölgesinden	-11.0528
graph	-11.0533
▁nitelik	-11.0533
▁(1983)	-11.0534
▁akımı	-11.0534
▁Howard	-11.0536
▁%1,2	-11.0538
▁duygu	-11.0538
▁olacaktır	-11.0538
▁Kid	-11.054
▁Well	-11.054
aro	-11.054
▁batıda	-11.0544
▁Taka	-11.0545
▁kademe	-11.0545
▁seçimlerde	-11.0546
▁unsur	-11.0548
▁Sub	-11.0551
▁verilerine	-11.0553
▁reform	-11.0555
▁Leyla	-11.0556
▁güneydoğusunda	-11.0558
Seçilenler	-11.0558
▁Sınır	-11.0559
▁Channel	-11.0559
Kay	-11.056
▁(1980)	-11.056
▁Renk	-11.056
▁tarihçileri	-11.0563
▁Fernando	-11.0564
▁yeryüzü	-11.0566
kça	-11.0567
Mak	-11.0567
▁evrim	-11.0569
▁Haz	-11.0573
▁Devrim	-11.0573
üç	-11.0573
▁liderliği	-11.0575
-1999	-11.0575
▁eğitimci	-11.0576
▁Bah	-11.058
▁oku	-11.0581
çılık	-11.0582
▁ayrılmış	-11.0582
Com	-11.0583
▁zehir	-11.0583
▁.7	-11.0584
▁Güngör	-11.0584
▁yapılacak	-11.0585
▁Jer	-11.0585
▁düet	-11.0585
▁Düzen	-11.0586
▁Arg	-11.0587
▁alınır	-11.059
та	-11.059
▁muharebeleri	-11.0591
▁Vasil	-11.0591
▁Miami	-11.0592
▁Run	-11.0593
▁açma	-11.0593
▁meclisi	-11.0596
▁üreten	-11.0597
▁getirme	-11.0599
▁donanması	-11.06
▁Giovanni	-11.0603
▁Erik	-11.0603
▁vermesi	-11.0604
▁defter	-11.0605
▁Solo	-11.0606
▁tedavisi	-11.0606
▁India	-11.0607
1943	-11.0608
▁testi	-11.0608
і	-11.0608
▁kapsamlı	-11.0608
▁olumsuz	-11.0608
▁strateji	-11.0609
▁üstün	-11.0609
▁görülebilir	-11.0609
▁bağlantısı	-11.0609
▁Ekrem	-11.0611
pic	-11.0611
▁çarpı	-11.0611
▁Oct	-11.0612
́	-11.0614
▁Tuva	-11.0614
FIFA	-11.0614
▁şiirleri	-11.0614
-2014	-11.0616
▁Gas	-11.0616
pas	-11.0617
▁savaşta	-11.0619
▁Gur	-11.062
▁çevirisi	-11.0622
▁rektör	-11.0625
▁gruplardan	-11.0629
▁günümüzdeki	-11.0629
▁208	-11.0633
▁listelerinde	-11.0633
▁Gua	-11.0634
▁Antarktika	-11.0634
▁keşfedildi	-11.0634
card	-11.0635
▁Yay	-11.0636
▁Efe	-11.0638
▁girerek	-11.0638
graf	-11.0639
gah	-11.0639
▁başlattı	-11.0641
▁Familya	-11.0645
▁2004:	-11.0651
▁foto	-11.0653
▁güzellik	-11.0653
Miss	-11.0655
▁avukatları	-11.0657
▁Geleneksel	-11.0659
▁nehirler	-11.0659
zur	-11.0659
▁dis	-11.066
▁anısına	-11.0661
▁reaksiyon	-11.0662
▁bağlıydı	-11.0663
▁bölgedeki	-11.0664
▁А	-11.0664
▁Rab	-11.0666
▁başvuru	-11.0667
ania	-11.0668
▁yürüt	-11.0669
reti	-11.0672
▁gelişmesi	-11.0676
▁Beat	-11.0677
▁aktivist	-11.0677
CR	-11.0678
ando	-11.0681
▁üretildi	-11.0683
π	-11.0685
▁Theodor	-11.0685
▁tamamlandı	-11.0686
▁noktaları	-11.0686
1929	-11.0687
▁işe	-11.0689
▁Cou	-11.0689
pati	-11.069
gör	-11.0691
Afrika	-11.0691
▁şart	-11.0694
▁kulesi	-11.0694
▁Timur	-11.0696
▁Seferi	-11.0698
atör	-11.0699
▁Б	-11.0699
▁2015-16	-11.0699
▁İbn	-11.0704
▁metni	-11.0707
▁Ün	-11.0708
О	-11.071
▁Görüntü	-11.071
kuş	-11.0713
▁Sport	-11.0716
▁Nam	-11.0716
Farsça	-11.0717
▁1897	-11.0719
▁vokaller	-11.0722
▁aktarıl	-11.0724
Dev	-11.0724
ffe	-11.0724
▁izleme	-11.0724
▁saati	-11.0726
▁+4	-11.0727
0,0	-11.073
▁sekreter	-11.073
▁karşılaşmasın	-11.0731
▁artan	-11.0733
▁Yüzyıl	-11.0736
▁(1982)	-11.0736
▁Siyah	-11.0736
▁ikincisi	-11.0737
▁(1978)	-11.0737
▁Napoli	-11.0739
▁Merc	-11.074
▁Kişi	-11.0745
▁kulübün	-11.0748
▁burs	-11.0749
▁koleksiyon	-11.0749
yorum	-11.0751
▁üyelerinin	-11.0755
▁binalar	-11.0755
tipi	-11.0756
taşı	-11.0757
▁Space	-11.0757
▁şubesi	-11.0758
▁1895	-11.0758
▁aynalı	-11.0762
▁Kadıköy	-11.0762
▁Kahire	-11.0762
▁0.3	-11.0762
▁hanedan	-11.0765
▁Anderson	-11.0765
▁Tahran	-11.0766
enburg	-11.0766
▁1878	-11.0766
▁İnce	-11.0768
-23	-11.0769
▁Sports	-11.0772
rot	-11.0772
▁görüntüsü	-11.0773
▁oynamaya	-11.0773
▁Kah	-11.0774
▁(5)	-11.0774
ABD	-11.0775
▁okullar	-11.0776
adze	-11.0776
▁Benim	-11.0777
önü	-11.0778
▁atıcı	-11.0779
2006	-11.0786
▁Twitter	-11.0787
▁vakıf	-11.0787
▁doğrultusunda	-11.0787
▁Şeh	-11.0789
▁Rick	-11.0789
tuğ	-11.079
▁Pedro	-11.079
▁yarışmasında	-11.0791
▁Bora	-11.0795
Kanada	-11.0796
skaya	-11.0797
göl	-11.0798
▁Sır	-11.0801
wei	-11.0803
▁oyuncusudur	-11.0805
▁korunması	-11.0807
▁yarıştı	-11.0807
RE	-11.0808
▁kazanması	-11.0809
▁defnedildi	-11.0813
▁havalimanı	-11.0813
县	-11.0813
▁kahve	-11.0813
▁Earth	-11.0813
▁Off	-11.0813
▁Filipinler	-11.0813
▁delege	-11.0814
▁geçemedi	-11.0814
▁Toplum	-11.0814
▁kutlama	-11.0814
▁özgür	-11.0815
vizyona	-11.0816
Kariyeri	-11.0817
▁Bunlardan	-11.0817
▁Fle	-11.082
Tokyo	-11.0821
▁suyun	-11.0821
vaz	-11.0823
▁şampiyonluğunu	-11.0823
▁Büyükelçisi	-11.0823
▁zırhlı	-11.0825
▁Mind	-11.0828
▁nadir	-11.0828
Alt	-11.0828
Amerika	-11.083
Ölüm	-11.0831
▁üçlü	-11.0832
rest	-11.0833
▁prensi	-11.0833
▁Milliyet	-11.0838
▁renkte	-11.0838
▁cemaat	-11.0839
▁piyanist	-11.0839
▁katliam	-11.0839
▁Jüri	-11.0839
▁inanç	-11.0839
1923	-11.0839
▁Sound	-11.084
Big	-11.084
▁sürücü	-11.0842
▁havacılık	-11.0843
▁Soul	-11.0844
▁verilmesi	-11.0845
▁diya	-11.0845
▁1899	-11.0848
▁bakteri	-11.0848
Tarihçe	-11.085
▁1941'	-11.085
▁yarısı	-11.0851
▁ışın	-11.0851
cast	-11.0851
▁kul	-11.0854
Kat	-11.0857
▁Koyu	-11.0858
▁Kapı	-11.086
▁3.8	-11.0864
ح	-11.0865
▁Vincent	-11.0865
▁Adrian	-11.0867
▁alınmış	-11.0867
▁yayınlanmış	-11.0868
mour	-11.0869
▁Hit	-11.087
▁Want	-11.087
▁makinesi	-11.087
▁Bronz	-11.0871
▁diğerleri	-11.0872
▁Tav	-11.0874
rarak	-11.0874
ayet	-11.0875
dé	-11.0876
▁yazıt	-11.0876
mic	-11.0877
▁Asker	-11.0877
▁Rumen	-11.0878
▁programlar	-11.088
Red	-11.0881
▁Gürcüce	-11.0883
▁ondan	-11.0886
▁gittiği	-11.0886
▁düşer	-11.0887
1928	-11.0887
Mac	-11.0888
▁215	-11.0889
▁Marvel	-11.089
▁Eve	-11.089
▁(6)	-11.0891
▁English	-11.0892
▁Bau	-11.0893
Kon	-11.0893
▁Aviv	-11.0893
▁MB	-11.0893
▁Vu	-11.0896
1999	-11.0898
▁Günümüz	-11.0903
▁çekilmesi	-11.0904
tılmış	-11.0905
▁Silah	-11.0906
▁gerektiği	-11.0906
▁görevde	-11.0908
▁yumuşak	-11.0908
▁Hugo	-11.0909
▁Üstün	-11.0909
Oyun	-11.091
ütü	-11.0911
▁arz	-11.0914
▁Kosta	-11.0915
▁Sebastian	-11.0917
▁Sibirya	-11.0917
▁Ortak	-11.0918
▁imalat	-11.0918
Bit	-11.0919
▁sembolü	-11.092
▁uzmanı	-11.0922
▁Om	-11.0925
▁With	-11.0926
▁kök	-11.0926
lá	-11.0932
▁Cruz	-11.0932
She	-11.0933
▁inşası	-11.0936
▁Mec	-11.0937
▁Burg	-11.0941
▁Açıklama	-11.0942
▁federal	-11.0943
▁Heykel	-11.0943
▁istatistik	-11.0943
lev	-11.0944
▁kurmuştur	-11.0945
▁komutan	-11.0946
▁çıkarılan	-11.0947
Liber	-11.0948
▁simge	-11.0948
ekler	-11.095
won	-11.0951
imiz	-11.0951
-2009	-11.0953
▁Polat	-11.0954
▁yarışları	-11.0955
▁iyon	-11.0956
ress	-11.0958
▁konseyi	-11.0958
▁Biz	-11.0959
▁Gru	-11.096
▁matematikçi	-11.096
▁İşler	-11.096
▁İsti	-11.096
▁Jam	-11.0962
▁Mektebi	-11.0963
▁Tip	-11.0964
▁çalın	-11.0964
▁Alanı	-11.0964
▁Johann	-11.0966
hm	-11.0968
▁ayrılması	-11.097
▁tamamlayan	-11.097
▁roket	-11.097
▁Doğal	-11.097
▁şov	-11.0971
▁bireyler	-11.0971
amayan	-11.0972
▁düzeni	-11.0972
▁%0,3	-11.0974
▁dönemlerinde	-11.0976
▁Kafkas	-11.0977
▁Çan	-11.0983
▁Slo	-11.0983
wal	-11.0987
▁coğrafya	-11.099
etta	-11.0992
▁çerçeve	-11.0993
▁yöneticileri	-11.0995
▁Bilgisayar	-11.0995
▁olsun	-11.0995
▁Siirt	-11.0995
▁gönüllü	-11.0996
▁görmüştür	-11.0996
▁sessiz	-11.0997
▁bulunuyordu	-11.0998
ydü	-11.0998
▁188	-11.0999
âm	-11.1
▁sevgi	-11.1001
Ken	-11.1002
▁PS	-11.1003
▁astronomik	-11.1004
▁müzesi	-11.1006
:2003	-11.1006
▁Reich	-11.1006
Gen	-11.1008
▁Fur	-11.1013
▁This	-11.1018
▁1979'	-11.1019
:1977	-11.102
Р	-11.1021
▁Jennifer	-11.1021
▁atmosfer	-11.1021
▁cevap	-11.1021
▁sömürge	-11.1021
▁tarayıcı	-11.1021
▁Portakal	-11.1021
▁Politika	-11.1022
▁yedek	-11.1022
▁Website	-11.1022
▁gönderme	-11.1022
▁edebilir	-11.1023
Port	-11.1023
▁belirlenen	-11.1023
▁Anıt	-11.1025
IT	-11.1026
▁cisimler	-11.1028
Kap	-11.1031
▁Vin	-11.1031
ful	-11.1033
▁Bitki	-11.1036
▁programında	-11.1037
1983	-11.1041
▁Libya	-11.1042
▁2'	-11.1042
▁Rika	-11.1043
▁hükûmetin	-11.1043
▁gönderdi	-11.1046
′	-11.1048
▁Varşova	-11.1048
▁doçent	-11.1048
▁Wor	-11.1048
2017	-11.1049
▁Quin	-11.105
▁MTV	-11.1051
ülmüş	-11.1054
riz	-11.1056
▁Spe	-11.1056
▁Dördüncü	-11.1058
▁ordusunun	-11.1058
LGBT	-11.1059
American	-11.1059
▁Dokuz	-11.1059
got	-11.1059
▁Yor	-11.1061
▁Take	-11.1063
▁süreli	-11.1067
▁arşivi	-11.1067
▁tanımı	-11.107
▁British	-11.107
Yunanca	-11.1071
▁tro	-11.1071
▁Fal	-11.1072
hanesi	-11.1073
▁pay	-11.1073
▁kazanır	-11.1073
▁bütçe	-11.1074
▁Saldırı	-11.1075
▁(1979)	-11.1075
▁köye	-11.1079
▁perde	-11.1079
▁Kont	-11.1086
gul	-11.1087
▁çiftçi	-11.1087
▁Lü	-11.1088
▁(25	-11.1089
lerindeki	-11.1089
▁savaşçı	-11.1091
▁evre	-11.1093
▁Mega	-11.1093
book	-11.1095
▁206	-11.1098
▁aşkın	-11.1098
▁Belçikalı	-11.1099
bağ	-11.1099
▁görünür	-11.1101
▁Fikret	-11.1101
▁ihtiyacı	-11.1101
tino	-11.1103
pil	-11.1103
▁onlara	-11.1103
▁kalıcı	-11.1104
▁tayin	-11.1104
▁kaldırıldı	-11.1106
▁Kaza	-11.1106
▁Wayne	-11.1108
▁kaynaklı	-11.1109
▁oylama	-11.1109
▁Kazım	-11.111
Bölüm	-11.1113
▁Seni	-11.1114
▁uzaklığı	-11.1114
▁prens	-11.1115
Robert	-11.1115
▁Fran	-11.1118
▁albümünden	-11.1118
▁kont	-11.112
bury	-11.1124
▁П	-11.1126
ς	-11.1127
▁Bilecik	-11.1127
▁Etimoloji	-11.1127
▁giyim	-11.1128
İranlı	-11.1129
▁Ky	-11.1129
▁kraliyet	-11.113
▁3000	-11.1132
▁tahtı	-11.1136
ery	-11.1137
▁biz	-11.1138
abileceği	-11.1139
▁öneri	-11.1139
1927	-11.1141
▁Ligue	-11.1141
▁albümünü	-11.1143
▁Bala	-11.1146
▁tarzında	-11.1149
▁Köprü	-11.1151
▁Wind	-11.1154
▁Episode	-11.1154
▁pornografi	-11.1154
▁cadde	-11.1154
▁sayede	-11.1155
▁2005-06	-11.1156
▁Adını	-11.1157
▁Justin	-11.1158
▁Burak	-11.1158
▁sektörü	-11.1158
▁dersler	-11.116
▁göçmen	-11.1161
▁hidro	-11.1161
▁Takımlar	-11.1163
bür	-11.1163
▁iktidar	-11.1165
Çocuk	-11.1167
▁kabile	-11.1167
▁olası	-11.117
▁Andy	-11.1176
▁Dai	-11.1177
▁Veri	-11.1179
▁ölçüm	-11.118
ف	-11.1181
▁Comics	-11.1181
▁Yayımlanma	-11.1184
▁Bang	-11.1185
FF	-11.119
▁Family	-11.1191
▁Franz	-11.1192
▁mili	-11.1194
İç	-11.1195
▁satıl	-11.1204
▁kategori	-11.1206
▁has	-11.1207
▁vazgeç	-11.1208
▁Premyer	-11.1208
▁Mirasları	-11.1208
▁İklim	-11.1208
▁sekizinci	-11.1209
glia	-11.1209
vent	-11.1209
dağı	-11.121
▁tohum	-11.121
ovic	-11.1212
stal	-11.1213
▁Murad	-11.1214
▁bölgesindeki	-11.1214
▁eşya	-11.1215
ope	-11.1216
▁hayal	-11.1217
▁şeklindedir	-11.1217
▁Kayıt	-11.1221
▁(22	-11.1225
▁devrim	-11.1225
-1998	-11.1228
▁Force	-11.1228
▁buhar	-11.1229
▁Sean	-11.1229
tov	-11.1231
▁İsviçreli	-11.1232
mışlardır	-11.1233
▁eşcinsel	-11.1234
▁Century	-11.1234
▁%33,0	-11.1235
▁car	-11.1235
▁çelik	-11.1237
▁Gray	-11.1239
▁Satış	-11.124
▁gelişim	-11.1243
rasyon	-11.1246
Fer	-11.1248
Ek	-11.125
▁Cihan	-11.125
▁Sudan	-11.125
gat	-11.1251
▁yüzölçümü	-11.1252
▁hanede	-11.1258
▁bulunuyor	-11.1259
▁yemekleri	-11.126
lag	-11.126
laştırma	-11.126
GM	-11.1261
▁istihbarat	-11.1261
▁kuzeydoğusunda	-11.1261
▁sıkıntı	-11.1261
▁%64,0	-11.1261
▁Boeing	-11.1262
▁Belgesel	-11.1263
▁geçirmiştir	-11.1265
▁Aslı	-11.1265
▁mağaza	-11.127
▁Cross	-11.1271
tsch	-11.1272
▁Burhan	-11.1274
raj	-11.1275
fri	-11.1279
▁dergisinin	-11.128
What	-11.1283
▁Dio	-11.1284
▁belirsiz	-11.1284
▁Stein	-11.1285
▁arma	-11.1286
▁Country	-11.1288
▁hektar	-11.1288
▁oynandı	-11.1289
▁Aksaray	-11.129
▁Platin	-11.129
▁düğüm	-11.1292
▁Christopher	-11.1293
▁sığ	-11.1295
▁sistemine	-11.1295
▁Epi	-11.1295
▁Kill	-11.1295
kış	-11.1296
▁süreçte	-11.1297
▁Stalin	-11.1297
▁boyutu	-11.1301
▁aşamasında	-11.1301
▁Üsküdar	-11.1303
ichi	-11.1307
▁bes	-11.1308
▁191	-11.1308
leşir	-11.1309
▁Laura	-11.1312
ла	-11.1312
mesiyle	-11.1312
▁don	-11.1313
tım	-11.1313
▁canlandırdı	-11.1314
▁enstrüman	-11.1316
▁sisteminde	-11.1316
▁975	-11.1317
▁kendilerini	-11.1317
▁Faruk	-11.1321
vic	-11.1323
▁3.7	-11.1325
▁Nice	-11.1326
▁Cos	-11.1327
▁dönemine	-11.1327
▁mühendislik	-11.1328
Life	-11.1328
▁203	-11.1328
-2008	-11.1332
▁akademisyenler	-11.1339
▁kuzeybatı	-11.1341
▁kullanılmış	-11.1341
▁gitarist	-11.1342
ï	-11.1343
▁Phoenix	-11.1343
▁Siyaset	-11.1343
▁endişe	-11.1343
▁Adolf	-11.1343
▁Oğlu	-11.1343
▁Gordon	-11.1344
▁sabah	-11.1345
▁yükselmiştir	-11.1346
▁Two	-11.1346
▁yıldızlar	-11.1348
▁Eva	-11.1348
▁denklem	-11.1349
▁1893	-11.1351
▁Abdul	-11.1352
-1995	-11.1352
▁Bab	-11.1353
kız	-11.1355
▁Ulus	-11.1355
▁Japonca	-11.1356
▁temas	-11.1358
▁Fatma	-11.1358
▁Ez	-11.136
▁Köse	-11.1361
▁199	-11.1361
▁197	-11.1364
And	-11.1365
▁asistan	-11.1366
▁yapay	-11.1368
▁harekât	-11.137
▁Şırnak	-11.137
▁manzara	-11.137
▁atıft	-11.137
▁Ohio	-11.1371
▁zamana	-11.1371
laşan	-11.1371
▁uzakta	-11.1372
▁“''	-11.1374
Korece	-11.1375
▁yaban	-11.1376
▁Boğazı	-11.1376
▁sağlığı	-11.1377
▁Map	-11.1379
▁Lincoln	-11.1384
▁mimarlık	-11.1386
Sezon	-11.1388
▁kalem	-11.1388
▁noktada	-11.1389
▁İvan	-11.1391
▁haftalık	-11.1393
▁Kolordu	-11.1393
▁AP	-11.1394
bik	-11.1394
▁başlangıç	-11.1394
▁216	-11.1395
▁onur	-11.1396
▁Malezya	-11.1397
▁(1976)	-11.1398
▁bağımsızlık	-11.1399
owski	-11.1399
▁Č	-11.1399
Yaz	-11.1401
▁kilo	-11.1403
▁Koro	-11.1407
It	-11.1408
▁Ajansı	-11.1409
▁asteroit	-11.1409
▁kiliseler	-11.1412
▁evliliği	-11.1413
meden	-11.1413
kg	-11.1413
OK	-11.1416
▁Link	-11.1418
▁Chang	-11.1418
–4	-11.142
▁üretil	-11.1422
▁bulut	-11.1423
▁tasarlanan	-11.1425
Н	-11.1425
▁bellek	-11.1425
▁Valentin	-11.1425
▁Hasta	-11.1426
▁1889	-11.1426
▁söyleme	-11.1426
▁hangi	-11.1428
/2	-11.1429
▁anlama	-11.1438
mediği	-11.1439
▁Halkçı	-11.1439
▁etkinlikler	-11.144
▁toplumun	-11.144
▁MX	-11.144
mayan	-11.1444
Cor	-11.1445
▁anlaştı	-11.1448
▁'''13'''	-11.1448
▁güneybatı	-11.1451
▁edecek	-11.1451
▁Dayanışma	-11.1452
▁Minnesota	-11.1452
▁Müziği	-11.1452
▁koruyucu	-11.1452
▁tramvay	-11.1452
▁Arsenal	-11.1452
▁ertesi	-11.1453
!"	-11.1454
▁vali	-11.1454
dinamik	-11.1455
▁belgeler	-11.1455
▁oynama	-11.1455
▁0-1	-11.1455
▁Kart	-11.1456
▁açısı	-11.1457
▁1972'	-11.1458
▁Joan	-11.1462
▁hikâyesi	-11.1463
▁değişme	-11.1464
▁akıl	-11.1465
▁zinciri	-11.1465
lemiş	-11.1466
▁Cop	-11.1466
▁Journal	-11.1466
Sonuçlar	-11.1469
▁.8	-11.1469
▁sür	-11.147
Pre	-11.147
▁Bakan	-11.147
AA	-11.1475
▁Ian	-11.1475
▁vatandaş	-11.1477
dok	-11.1479
▁cenaze	-11.148
▁Central	-11.148
▁Sokak	-11.1481
▁Osaka	-11.1481
▁Abdül	-11.1481
▁oluşmuştur	-11.1481
▁Kulvar	-11.1482
▁filmlerinde	-11.1482
▁sorgu	-11.1483
▁Alfa	-11.1483
▁Kızı	-11.1483
▁3.6	-11.1486
▁194	-11.1487
▁id	-11.1488
▁olmasını	-11.1491
▁süs	-11.1493
▁yürütme	-11.1495
▁ofis	-11.1495
kapı	-11.1495
▁pandemisinde	-11.1496
Londra	-11.1497
yang	-11.1499
▁türün	-11.15
▁yüzeyi	-11.1502
NO	-11.1504
▁akışı	-11.1505
▁1877	-11.1506
▁tapınak	-11.1507
▁ifadesi	-11.1509
▁üzüm	-11.151
▁Blood	-11.1512
▁İb	-11.1513
▁Basın	-11.1514
▁edebi	-11.1515
sberg	-11.1516
▁bulan	-11.1516
odon	-11.1518
▁Ty	-11.1519
▁besin	-11.152
▁ilçeye	-11.1523
yıldız	-11.1525
▁yazan	-11.1525
ор	-11.1526
UN	-11.1529
▁'''15'''	-11.1529
▁topu	-11.153
▁Mau	-11.1533
▁Union	-11.1534
▁Lisa	-11.1534
▁uçaklar	-11.1534
▁Nova	-11.1535
ė	-11.1535
▁peri	-11.1535
▁Yaprak	-11.1536
▁Mercedes	-11.1537
▁Andreas	-11.1539
▁Resimler	-11.1541
▁Mass	-11.1541
▁şampiyonları	-11.1542
gir	-11.1545
▁sistemini	-11.1546
-2010	-11.1548
▁UCI	-11.1548
▁Summer	-11.1549
TC	-11.1549
▁Rosa	-11.1549
Başarıları	-11.1553
▁(21	-11.1554
▁Rekorlar	-11.1555
drama	-11.1558
Col	-11.156
▁olun	-11.156
▁araştır	-11.1563
▁Danıştay	-11.1563
▁meşhur	-11.1563
▁FIBA	-11.1563
▁Söyle	-11.1564
▁çubuk	-11.1567
▁eğri	-11.1568
▁tanıtımları	-11.1573
▁eskiden	-11.1576
tory	-11.1578
▁fizikçi	-11.1579
▁geçiren	-11.1579
▁zirve	-11.1582
▁193	-11.1587
isti	-11.159
̣	-11.1591
▁prodüksiyon	-11.1591
▁Kennedy	-11.1591
▁binlerce	-11.1591
▁Moğolistan	-11.1591
▁kaybı	-11.1591
▁varsa	-11.1593
▁Nord	-11.1594
▁Akın	-11.1596
Tom	-11.1598
▁uyumlu	-11.1599
▁analizi	-11.1601
▁Ferdi	-11.1602
▁kafa	-11.1606
Pu	-11.1609
▁kaçma	-11.161
▁değiştirdi	-11.161
-30	-11.161
▁eserin	-11.1614
▁Ece	-11.1615
▁turne	-11.1616
Just	-11.1617
▁Chelsea	-11.1619
▁People	-11.1619
▁inancı	-11.1619
▁İdman	-11.1619
▁konuşulan	-11.1619
▁Öztürk	-11.1622
2019	-11.1622
▁sağlamıştır	-11.1622
▁köken	-11.1623
▁sattı	-11.1623
-2004	-11.1624
▁Seven	-11.1627
▁devrimci	-11.1629
▁eti	-11.1629
birinden	-11.1629
▁güvenliği	-11.1631
▁golünü	-11.1632
▁yenilgi	-11.1632
:1962	-11.1637
▁kullanmak	-11.1637
▁sayımı	-11.1641
▁yapımında	-11.1641
▁Bakanlar	-11.1641
zim	-11.1644
▁Selahattin	-11.1647
▁dayanıklı	-11.1647
-24	-11.1647
▁Kırgızistan	-11.1647
▁görevden	-11.1647
▁Calcio	-11.1647
▁Kurallarına	-11.1648
▁'''16'''	-11.1649
▁Sau	-11.1649
ekli	-11.1649
▁Sivil	-11.165
▁pal	-11.1651
Men	-11.1652
rmıştır	-11.1654
lanıp	-11.1655
shima	-11.1657
▁seks	-11.1658
▁mühendisi	-11.1659
▁molekül	-11.166
▁Müslümanlar	-11.1661
▁Sahil	-11.1661
▁link	-11.1661
▁seçti	-11.1662
▁çıkarıldı	-11.1664
▁Sat	-11.1665
▁tüy	-11.1667
tah	-11.1667
▁devir	-11.1671
ştırma	-11.1672
▁Cook	-11.1672
▁vatandaşı	-11.1672
ز	-11.1675
▁fon	-11.1675
ılıp	-11.1677
▁Yayıncılık	-11.1677
▁Süt	-11.1678
som	-11.1679
▁Forest	-11.168
▁Renault	-11.1682
▁çocukların	-11.1685
▁katılmaya	-11.1687
▁mali	-11.1688
▁Komutanı	-11.1688
▁Konak	-11.169
▁resimleri	-11.1691
gie	-11.1696
▁kadınların	-11.1696
▁Alice	-11.1697
▁ikiye	-11.1698
Off	-11.1699
imli	-11.1702
▁maksimum	-11.1703
▁Racing	-11.1703
▁seslendirilen	-11.1703
▁önüne	-11.1703
▁1898	-11.1704
▁Dü	-11.1705
King	-11.1705
▁Bridge	-11.1706
▁doktorasını	-11.1707
▁yükselme	-11.1708
▁katil	-11.171
▁Nec	-11.1713
▁Andrea	-11.1714
2005	-11.1715
▁anahtar	-11.172
▁Hazar	-11.1725
▁Öte	-11.1725
▁0,1	-11.1726
laşmış	-11.173
▁sendika	-11.1731
▁ahlak	-11.1731
▁kuzeydoğu	-11.1732
▁büyüme	-11.1735
▁post	-11.1735
▁savaşa	-11.1736
▁Kürtçe	-11.1737
sem	-11.1739
▁Girit	-11.1741
-2000	-11.1742
issa	-11.1743
▁duyuru	-11.1746
Bulgar	-11.1748
▁Hus	-11.1749
FL	-11.1749
▁Mam	-11.1753
▁konular	-11.1753
▁Jonathan	-11.1754
▁amaçla	-11.1754
Angel	-11.1756
▁kişiliği	-11.1758
σ	-11.1759
▁Ertuğrul	-11.1759
▁pozitif	-11.1759
▁Universe	-11.1759
▁bağımlı	-11.176
▁Brook	-11.1766
▁SE	-11.1768
▁tanrısı	-11.1769
anti	-11.1771
▁Özcan	-11.1772
▁Maden	-11.1774
▁Sert	-11.1776
Art	-11.1779
▁Jeff	-11.1779
▁okur	-11.1781
▁Özellikler	-11.1781
▁Boyu	-11.1785
▁İktisat	-11.1788
▁Tıva	-11.1788
▁kapasiteli	-11.1788
▁buradan	-11.1791
thy	-11.1795
▁1978'	-11.1795
▁İnci	-11.1795
▁görüşü	-11.1796
▁Fame	-11.1796
▁Ave	-11.1797
▁Albay	-11.1798
▁soylu	-11.1799
▁Japan	-11.1799
▁kitabın	-11.18
▁alınma	-11.18
▁204	-11.1805
ль	-11.1806
▁Bölümler	-11.1809
TM	-11.1811
▁sürdürmüştür	-11.1817
Şarkı	-11.1817
▁Institute	-11.1817
fel	-11.1818
▁700	-11.1819
sif	-11.1819
Arap	-11.182
Tan	-11.1822
emez	-11.1823
▁getirir	-11.1824
▁açar	-11.1826
▁tahmini	-11.1828
▁miktar	-11.1829
▁Universal	-11.1835
Kürt	-11.1838
▁milyondan	-11.184
▁Sidney	-11.1843
▁yarışan	-11.1844
▁Swift	-11.1845
▁güneydoğu	-11.1845
▁santral	-11.1846
▁(1977)	-11.1846
▁Mans	-11.1846
▁Kuru	-11.1847
iyot	-11.1848
▁festivali	-11.1848
▁Senatosu	-11.1849
cell	-11.185
Mel	-11.1851
▁alıp	-11.1853
hov	-11.1855
-2011	-11.1857
▁Place	-11.1861
:1967	-11.1863
▁bugüne	-11.1863
iyye	-11.1864
▁kayak	-11.1865
▁Lim	-11.1867
▁March	-11.1867
▁Said	-11.1868
▁kurtarma	-11.187
▁Arma	-11.187
ault	-11.1871
▁Academy	-11.1874
▁rahip	-11.1874
▁Ertesi	-11.1874
▁gösterilir	-11.1874
▁Norveçli	-11.1875
▁Halen	-11.1875
▁izleyici	-11.1875
▁örtüsü	-11.1876
▁Köylü	-11.1878
▁bundan	-11.1879
dig	-11.1881
▁(30	-11.1882
▁yatak	-11.1883
▁211	-11.189
aire	-11.1893
Gün	-11.1894
ovich	-11.1895
▁Engel	-11.1898
EK	-11.1898
▁sağlam	-11.1898
▁yürü	-11.19
fak	-11.1901
▁tezi	-11.1902
▁çözünür	-11.1902
▁Netflix	-11.1902
▁Airlines	-11.1902
▁Trakya	-11.1903
▁ju	-11.1904
Bursa	-11.1904
▁İsmet	-11.1904
▁Blu	-11.1909
▁Come	-11.1909
▁rahat	-11.1909
▁1835	-11.1911
▁geçirme	-11.1916
▁sunulan	-11.1917
Yapı	-11.1918
slav	-11.1919
▁Kaba	-11.192
sche	-11.192
leşen	-11.1921
▁–	-11.1922
▁Kulesi	-11.1925
World	-11.1925
▁Ürün	-11.1927
Devlet	-11.1927
▁sürecinde	-11.1927
▁Lie	-11.1928
▁Nitekim	-11.1931
▁Janeiro	-11.1932
▁risk	-11.1933
▁Rayonu	-11.1934
ლ	-11.1936
▁Line	-11.1937
▁enerjisi	-11.1937
▁ligler	-11.1938
▁malzemeler	-11.1939
▁1918'	-11.1939
▁2-2	-11.194
▁çan	-11.1941
▁Tayyi	-11.1942
▁adalet	-11.1942
▁Cannes	-11.1942
▁giyme	-11.1945
▁Nijerya	-11.1946
▁kurtul	-11.195
-1997	-11.195
▁romancı	-11.1951
PL	-11.1952
▁tekne	-11.1953
▁207	-11.1955
▁Komedi	-11.1955
idze	-11.1958
▁Bayern	-11.1958
''”	-11.1959
▁Wanderers	-11.196
▁Şövalye	-11.196
▁Miguel	-11.196
▁sentez	-11.196
▁liberal	-11.196
▁(23	-11.196
▁sürmüştür	-11.1961
▁(1974)	-11.1961
▁ıs	-11.1962
▁Jerry	-11.1962
▁Nüfusu	-11.1963
Kaynak	-11.1963
▁olmaktadır	-11.1963
▁Zen	-11.1964
▁ressamlar	-11.1965
▁kuşu	-11.1966
▁yazarlığı	-11.1967
▁Tes	-11.1967
▁paylaştığı	-11.1967
▁mermi	-11.1967
▁Marino	-11.1969
▁Beach	-11.1969
arch	-11.1969
▁Buck	-11.197
▁Sezer	-11.1971
-2006	-11.1971
▁zaferi	-11.1974
▁kazasında	-11.1979
‘	-11.1984
▁ucunda	-11.1985
para	-11.1986
▁yalnız	-11.1988
▁Massachusetts	-11.1989
▁reddetti	-11.1989
▁Classic	-11.199
lüğe	-11.199
Cap	-11.1996
Val	-11.1997
▁cihazları	-11.2
▁sır	-11.2001
▁İrlandalı	-11.2002
oper	-11.2002
1920	-11.2007
2004	-11.2009
▁Madde	-11.2009
ре	-11.201
▁1957'	-11.2011
right	-11.2015
▁Thing	-11.2015
eux	-11.2017
▁Mill	-11.2017
▁Heinrich	-11.2018
▁Ple	-11.2019
-02	-11.202
▁denk	-11.2021
▁256	-11.2022
ucci	-11.2022
▁adlandır	-11.2024
▁Greg	-11.2026
▁sunucusu	-11.2026
-2019	-11.2029
▁Bekir	-11.203
IV	-11.203
çev	-11.2031
▁Futbola	-11.2031
fal	-11.2034
▁Fuat	-11.2038
▁Ermeniler	-11.2039
▁Mert	-11.204
▁şarkıyla	-11.2041
▁öldürülmesi	-11.2042
▁istek	-11.2044
▁Konstantin	-11.2044
▁Yolcu	-11.2045
▁hentbol	-11.2047
▁restore	-11.2047
▁Ceylan	-11.2048
▁Mul	-11.2048
▁Pap	-11.2049
▁Fethi	-11.2049
:1958	-11.205
Bizim	-11.2051
▁Short	-11.2051
▁Tarık	-11.2052
▁göller	-11.2052
▁döneminin	-11.2052
▁4.5	-11.2053
▁Pak	-11.2055
CF	-11.2055
▁Dost	-11.2056
▁Halkın	-11.2057
pazar	-11.2057
▁sözcükler	-11.2059
▁halkları	-11.2061
▁Kaf	-11.2063
▁Koza	-11.2064
▁evlenme	-11.2065
▁ilindeki	-11.2066
EM	-11.2066
▁Giro	-11.2066
▁Bai	-11.2066
▁göster	-11.2067
▁kazasının	-11.2069
▁Magic	-11.207
dışı	-11.207
▁öldürdü	-11.2071
▁Endüstri	-11.2076
▁İnönü	-11.2077
▁(1971)	-11.2078
▁oynamış	-11.208
▁çekimi	-11.2086
band	-11.209
▁Başarılı	-11.2092
Üç	-11.21
▁#1	-11.21
boğa	-11.21
▁Bryan	-11.2102
face	-11.2103
▁Tsu	-11.2104
mamış	-11.2104
gres	-11.2104
gger	-11.2105
llah	-11.2105
▁yeraltı	-11.2105
▁çektiği	-11.2106
▁Ludwig	-11.2106
▁Ziraat	-11.2106
▁müttefik	-11.2106
▁tavsiye	-11.2106
TO	-11.2106
▁Was	-11.2106
▁Russell	-11.2106
▁plastik	-11.2106
▁(1975)	-11.2107
▁mineral	-11.2108
▁Know	-11.2112
▁Page	-11.2113
▁4-0	-11.2114
RP	-11.2119
▁çatı	-11.212
▁sil	-11.2122
▁modelidir	-11.2124
▁tanrıları	-11.2125
▁Otel	-11.2126
▁yöntemleri	-11.2128
▁kadının	-11.2128
▁komün	-11.2129
zam	-11.2131
▁Yönetmeni	-11.2135
▁Duru	-11.2135
▁Dipnotlar	-11.2135
َ	-11.2135
▁veritabanı	-11.2135
▁Arkeoloji	-11.2136
▁(1973)	-11.2136
▁koro	-11.2136
Roman	-11.214
▁Hun	-11.2142
4.2	-11.2143
▁taç	-11.2143
▁yendi	-11.2144
▁pil	-11.2145
▁Math	-11.2145
▁konularda	-11.2146
▁illeri	-11.2147
Sam	-11.2148
iaceae	-11.215
+1	-11.215
▁açıklığı	-11.2152
▁ayrım	-11.2152
▁Hawk	-11.2153
▁eserinde	-11.2154
▁Rü	-11.2156
▁Kuruluş	-11.2157
2022	-11.2158
opol	-11.2159
core	-11.2159
▁Prince	-11.216
▁kimlik	-11.216
-2013	-11.2161
▁sistemler	-11.2161
▁etmeyi	-11.2163
▁akşam	-11.2165
▁Komiser	-11.2165
▁Silva	-11.2166
▁Etki	-11.2167
▁tele	-11.2167
Italia	-11.2168
▁problem	-11.2169
▁teklifi	-11.2175
tical	-11.2178
▁260	-11.2178
▁Türkçede	-11.2179
ès	-11.2181
▁1-3	-11.2186
ides	-11.2186
mart	-11.2187
▁Vita	-11.2189
▁grupta	-11.2189
▁gazeteleri	-11.2189
▁Demet	-11.219
▁yetmezliği	-11.2194
▁Birkaç	-11.2195
▁Susan	-11.2195
▁Kazandı	-11.2196
▁Zor	-11.2197
▁asist	-11.2201
-2005	-11.2202
▁okulda	-11.2202
▁1880	-11.2202
▁balığı	-11.2205
▁skor	-11.2206
▁çeşitleri	-11.2207
▁çap	-11.2209
▁Türkü	-11.2212
▁213	-11.2212
yaş	-11.2213
danışman	-11.2216
▁açan	-11.2217
▁bulmak	-11.2217
▁Haçlı	-11.2218
▁mevki	-11.222
Van	-11.2221
én	-11.2222
▁Amazon	-11.2222
▁Julia	-11.2223
ъ	-11.2224
▁Library	-11.2224
▁Mexico	-11.2224
▁Singapur	-11.2224
▁Charlotte	-11.2224
▁demektir	-11.2224
▁yetersiz	-11.2224
▁beceri	-11.2224
▁hakimiyeti	-11.2225
▁organları	-11.2225
▁Beyoğlu	-11.2226
▁217	-11.2226
When	-11.2226
▁Atilla	-11.2228
▁parçacık	-11.2228
▁inşaatı	-11.2229
zik	-11.2229
▁bitir	-11.2229
▁Görü	-11.2232
▁UWW	-11.2232
Adana	-11.2235
▁haklarını	-11.2238
▁tab	-11.2238
Mart	-11.2241
▁vererek	-11.2241
Dar	-11.2247
work	-11.2248
▁Konum	-11.2249
▁Şarkıcı	-11.2251
▁sahası	-11.2253
▁dökül	-11.2253
▁Senato	-11.2253
κ	-11.2253
▁Stewart	-11.2254
▁Tekirdağ	-11.2254
▁helikopter	-11.2254
▁Ürdün	-11.2254
▁Geçerli	-11.2254
▁Knight	-11.2254
▁1956'	-11.2254
▁Yahudiler	-11.2254
▁(24	-11.2255
▁çekilme	-11.2255
▁(2021)	-11.2256
▁belirlenmiştir	-11.2257
▁MA	-11.2258
▁organik	-11.2259
▁bura	-11.226
▁Çince	-11.2266
▁ülkesinde	-11.2266
HK	-11.2267
▁Cins	-11.2271
▁214	-11.2275
sley	-11.2276
▁Bowl	-11.2276
▁4.4	-11.2276
▁sezonudur	-11.228
metrik	-11.2282
▁Bülbül	-11.2284
▁Nacional	-11.2284
▁ibadet	-11.2284
▁Öğretim	-11.2284
▁Stadium	-11.2284
▁karanlık	-11.2284
▁Anayasası	-11.2284
▁Aires	-11.2298
▁Ukraynalı	-11.2299
▁yöneten	-11.2301
▁kıyasla	-11.2302
hay	-11.2302
▁sü	-11.2303
▁biyoloji	-11.2303
zum	-11.2309
Ant	-11.231
Mısır	-11.2312
▁çekirdeği	-11.2314
ί	-11.2314
▁Boğaziçi	-11.2314
▁Lefkoşa	-11.2314
▁Karolina	-11.2314
▁Nelson	-11.2314
▁ilerleyen	-11.2314
Kısa	-11.2314
▁Demiryolu	-11.2314
▁Barbara	-11.2314
▁Lakers	-11.2314
▁Gran	-11.2315
▁kapsar	-11.2316
▁bitirmiştir	-11.2316
ин	-11.232
▁Aero	-11.2321
▁kurban	-11.2323
▁Row	-11.233
▁sıcaklığı	-11.233
ography	-11.2331
▁müsabaka	-11.2332
Gel	-11.2335
kha	-11.2336
▁Lima	-11.2337
▁Kang	-11.2339
▁limanı	-11.2341
▁4-1	-11.2342
▁İk	-11.2342
▁Tevfik	-11.2344
▁kalabalık	-11.2344
▁Sigorta	-11.2344
▁Taksim	-11.2345
▁Yağmur	-11.2345
▁yaşamıştır	-11.235
▁Hâ	-11.235
▁miras	-11.2351
▁çekimleri	-11.2352
▁farklıdır	-11.2353
▁ettiğini	-11.2354
▁zamanların	-11.2355
▁çekil	-11.2356
▁işareti	-11.2356
▁ortamı	-11.2358
▁işlev	-11.2363
▁merkezinin	-11.2364
0%	-11.2366
▁1,2	-11.2367
▁Sig	-11.2367
▁320	-11.2368
250	-11.2369
▁Cab	-11.2371
▁duvarları	-11.2371
▁Diş	-11.2372
Var	-11.2373
γ	-11.2374
▁Çekoslovakya	-11.2374
▁RC	-11.2374
▁Şeref	-11.2374
▁robot	-11.2375
▁Had	-11.2375
▁çekici	-11.2377
▁Geniş	-11.2378
▁gez	-11.2379
▁döneminden	-11.2379
▁uğraş	-11.2381
▁Samsunspor	-11.2381
▁IP	-11.2384
▁alıcı	-11.2384
▁Romalı	-11.2386
▁Serkan	-11.2386
▁denizci	-11.2387
▁Studio	-11.239
▁anlayışı	-11.2396
▁rap	-11.2397
▁psikolojik	-11.2397
▁McG	-11.2399
▁Kad	-11.2402
η	-11.2404
▁lakabı	-11.2404
▁Yazılım	-11.2404
▁pembe	-11.2405
▁telefonu	-11.2405
▁10.000	-11.2405
jör	-11.2406
ots	-11.2407
▁Mihail	-11.2408
▁Sezen	-11.2414
▁Gill	-11.2416
nell	-11.2416
▁Sevda	-11.2416
▁Cast	-11.2418
MKE	-11.2419
gus	-11.242
▁.6	-11.2421
▁sürdürü	-11.2422
Mus	-11.2424
ograf	-11.2425
▁Gösteri	-11.2425
▁kuyruk	-11.2428
bili	-11.2429
▁.2	-11.2431
Korku	-11.2431
▁Çavuş	-11.2434
▁hokeyi	-11.2434
▁taşıyıcı	-11.2434
Brezilya	-11.2434
▁Saadet	-11.2435
▁gelerek	-11.2436
▁yetiştiri	-11.2436
▁Koz	-11.2436
kap	-11.2437
▁konuları	-11.2438
▁binaları	-11.2438
▁Keş	-11.2441
▁Jet	-11.2443
kâr	-11.2443
▁bahçesi	-11.2445
klor	-11.2445
chy	-11.2446
▁oyunda	-11.2447
▁Kullanım	-11.2448
AKP	-11.2448
▁olmasından	-11.2449
▁م	-11.245
▁mülk	-11.2451
▁iniş	-11.2452
▁Binası	-11.2456
333	-11.2456
vaş	-11.2456
▁listeler	-11.2456
▁pazarı	-11.2457
▁Fat	-11.2459
▁yazmaya	-11.2461
▁yönetil	-11.2463
▁Hacettepe	-11.2465
▁görünen	-11.2465
▁Sorumlu	-11.2465
BAFTA	-11.2465
▁Cass	-11.2469
▁1891	-11.247
▁RB	-11.2471
ilmez	-11.2472
▁ülkelerinde	-11.2472
▁kilisenin	-11.2474
▁Prime	-11.2475
▁1892	-11.2476
▁für	-11.2477
▁Days	-11.2477
▁gelenek	-11.2482
▁İdaresi	-11.2484
▁satıldı	-11.2485
▁Ein	-11.2494
fur	-11.2495
▁Linnaeus	-11.2495
▁Seattle	-11.2495
▁şövalye	-11.2495
▁Stockholm	-11.2495
▁aygıt	-11.2495
▁Erivan	-11.2495
▁Office	-11.2497
▁işlevi	-11.2497
▁Internet	-11.2497
▁Review	-11.2498
▁PKK	-11.2498
▁Bağlantılar	-11.25
▁Kha	-11.2501
▁alanına	-11.2502
▁Wang	-11.2502
1977	-11.2503
vri	-11.2504
▁düzenlediği	-11.2505
▁Kadrosu	-11.2508
▁unut	-11.251
ნ	-11.2512
▁Julie	-11.2512
▁karşılığı	-11.2513
än	-11.2513
▁eğitimine	-11.2515
▁üyeler	-11.2517
▁düzenledi	-11.252
▁üretilmiş	-11.2521
wick	-11.2522
▁birleşmesi	-11.2523
▁sanatları	-11.2523
yim	-11.2524
▁rezerv	-11.2526
▁piyade	-11.2526
▁işlemleri	-11.2527
Diğer	-11.2527
▁çerçevesinde	-11.2528
▁Emma	-11.2529
▁hel	-11.2529
▁telefonlar	-11.2529
▁Liv	-11.253
▁sahneye	-11.253
▁direktördür	-11.2532
▁söylenir	-11.2533
▁VIII	-11.2536
▁sırt	-11.2536
▁Stars	-11.2537
▁Lost	-11.2538
▁değin	-11.2539
▁olasılık	-11.2539
▁eksik	-11.2542
▁dünyasında	-11.2543
▁Ayı	-11.2544
GB	-11.2546
▁sakla	-11.2546
▁Set	-11.2546
▁solist	-11.2548
▁yönde	-11.2549
▁konut	-11.2553
▁ayırt	-11.2553
▁olmasıdır	-11.2554
wald	-11.2554
▁kaçtı	-11.2555
▁saldırıları	-11.2556
▁tercüme	-11.2556
▁verilmiş	-11.2557
Irak	-11.2557
▁Türkmenistan	-11.2558
$	-11.2558
Fransızca	-11.2561
▁salon	-11.2561
Genç	-11.2563
▁Lip	-11.2564
▁Walt	-11.2567
1918	-11.2567
–17	-11.2568
▁madalyanın	-11.2569
▁maçlarını	-11.257
Büyü	-11.2572
▁Pier	-11.2573
▁kuşağı	-11.2574
▁Pic	-11.2576
▁Hür	-11.2578
▁Tac	-11.2578
▁sunar	-11.258
▁Şimdi	-11.2581
▁1943'	-11.2583
▁klasman	-11.2585
ვ	-11.2587
Ğ	-11.2587
▁Oliver	-11.2587
hua	-11.2588
▁Amy	-11.2588
▁1870	-11.2589
▁kardeşleri	-11.2591
▁kaz	-11.2592
▁yanıt	-11.2592
▁bö	-11.2593
▁Şarkısı	-11.2597
▁karışımı	-11.2597
▁280	-11.2598
▁egemen	-11.2598
▁Uzak	-11.2599
▁yapının	-11.2603
▁öğrencileri	-11.2603
▁Bazen	-11.2604
▁otorite	-11.2605
yıl	-11.261
ische	-11.2611
▁Ing	-11.2612
onik	-11.2614
1981	-11.2617
▁pla	-11.2617
▁Senarist	-11.2618
▁mutlak	-11.2618
▁Hekim	-11.2619
▁kurmuş	-11.2619
▁sit	-11.2619
▁cezasına	-11.2619
▁Cooper	-11.262
▁başkanlığına	-11.262
▁adındaki	-11.2622
▁mantar	-11.2622
▁mekanik	-11.2624
Gürcüce	-11.2625
▁Pilot	-11.2627
▁gelişi	-11.2627
▁çalışırken	-11.2627
-1996	-11.2629
RO	-11.2629
▁Guide	-11.2629
Pan	-11.2636
▁Klip	-11.2637
Count	-11.2638
▁Sabah	-11.2639
▁çevresindeki	-11.2643
▁Bağımsızlık	-11.2646
▁Hep	-11.2646
craft	-11.2649
▁Yahya	-11.2649
▁önderliğinde	-11.2649
▁birini	-11.2651
Hırvat	-11.2651
ción	-11.2651
▁oyuna	-11.2651
char	-11.2652
▁tanıma	-11.2652
▁eyaletleri	-11.2653
▁özgürlüğü	-11.2654
▁Harita	-11.2655
İlçe	-11.2655
+2	-11.2656
▁uyarı	-11.2657
▁içer	-11.2657
:3.	-11.2658
▁kullanılmak	-11.2659
Kral	-11.266
▁209	-11.2662
▁yazarıdır	-11.2662
1982	-11.2664
▁kesme	-11.2665
▁Hizmetler	-11.2666
▁kentleri	-11.2666
▁1894	-11.2667
▁öğrendi	-11.2667
▁karıştı	-11.267
memiş	-11.2673
▁Acar	-11.2673
▁Daire	-11.2674
ologlar	-11.2676
isse	-11.2678
▁Catherine	-11.268
▁Fırkası	-11.268
▁Margaret	-11.268
▁sürülmüştür	-11.268
▁görmüş	-11.268
▁Horasan	-11.268
▁tünel	-11.268
▁aydın	-11.2681
▁tanımlanır	-11.2682
▁Emmy	-11.2682
▁Edition	-11.2682
▁görevlerini	-11.2682
ûrî	-11.2682
▁kullanmıştır	-11.2684
▁Ulaştırma	-11.2684
▁Tower	-11.2686
▁hadis	-11.2687
-26	-11.2688
▁255	-11.2694
▁Roberto	-11.2695
▁ilave	-11.2695
âb	-11.2695
hab	-11.2698
▁içeri	-11.2698
▁görül	-11.2702
▁3.9	-11.2703
ć	-11.2709
▁Beg	-11.2709
▁koyun	-11.271
▁hükümdarları	-11.271
▁Barselona	-11.2711
▁neticesinde	-11.2711
▁rivayet	-11.2711
▁Genelkurmay	-11.2711
▁maddi	-11.2711
▁hediye	-11.2711
▁verilmektedir	-11.2712
board	-11.2712
▁(1970)	-11.2712
▁Lyon	-11.2712
▁Eddie	-11.2712
▁Örnek	-11.2713
▁kalıp	-11.2715
▁Yayınevi	-11.2715
▁yazılar	-11.2721
▁mahallenin	-11.2721
-1992	-11.2722
vier	-11.2722
▁Bursaspor	-11.2724
▁Hadi	-11.2724
▁Valisi	-11.2724
▁topraklarında	-11.2727
▁Harekâtı	-11.2728
▁From	-11.2728
kav	-11.2728
▁aletleri	-11.273
▁Kro	-11.273
▁geliştirdi	-11.2732
▁Emil	-11.2733
▁Vakıf	-11.2733
1901	-11.2737
▁doğmuş	-11.2741
▁fotoğrafları	-11.2741
▁Leh	-11.2743
▁bozulma	-11.2744
▁benzeyen	-11.2744
▁ufak	-11.2744
▁denizaltı	-11.2745
lararası	-11.2746
Ferrari	-11.2746
▁çağır	-11.275
▁yemeği	-11.2753
▁yayınladığı	-11.2754
▁Oh	-11.2754
▁Audi	-11.2756
▁kafe	-11.2757
▁Deresi	-11.2758
▁Mühendis	-11.276
TÜ	-11.2761
▁yüksekliğinde	-11.2762
onic	-11.2763
▁kazasına	-11.2766
▁getiril	-11.2767
▁Sparta	-11.277
▁Oyunu	-11.2771
▁Anıtı	-11.2772
Zi	-11.2772
▁kaptan	-11.2773
▁Neo	-11.2773
▁min	-11.2773
▁jüri	-11.2774
▁laboratuvar	-11.2774
▁levha	-11.2774
▁2004-05	-11.2774
▁Ticari	-11.2774
▁koltuk	-11.2774
▁Gökada	-11.2775
▁projeleri	-11.2776
▁nesneler	-11.2776
▁eğer	-11.2777
▁Lap	-11.2778
▁Donald	-11.278
Savaş	-11.278
▁birleşme	-11.2781
▁Bayanlar	-11.2785
▁Emek	-11.2788
▁212	-11.2788
West	-11.2788
▁rota	-11.279
Mobil	-11.2795
▁Paraguay	-11.2797
laşması	-11.2799
▁Madonna	-11.2802
▁Bartın	-11.2803
Nor	-11.2805
▁Brüksel	-11.2805
▁Tennessee	-11.2805
roy	-11.2805
École	-11.2806
▁ortaokul	-11.2806
Série	-11.2806
▁Evet	-11.2808
seki	-11.2808
▁Roy	-11.2809
С	-11.281
▁Gang	-11.2811
▁kolları	-11.2813
▁Slovakya	-11.2818
▁1860	-11.2821
▁Norman	-11.2826
▁konulu	-11.2829
▁Rev	-11.2832
enza	-11.2836
ì	-11.2837
▁yeğeni	-11.2837
▁NASA	-11.2837
▁Theatre	-11.2837
het	-11.2838
▁Court	-11.2838
▁korsan	-11.284
▁Osmanlıca	-11.284
▁teori	-11.2841
ière	-11.2842
▁BK	-11.2843
го	-11.2844
▁ayağı	-11.2845
roll	-11.2845
▁salgı	-11.2846
▁kampanya	-11.2847
evski	-11.2847
Blue	-11.2849
▁221	-11.2852
dizi	-11.2852
▁araştırmaları	-11.2855
▁şiddetli	-11.2855
▁atv	-11.2856
▁Çağdaş	-11.2856
Peter	-11.2858
▁kompleksi	-11.2858
▁ettikleri	-11.2859
ML	-11.2865
törler	-11.2865
▁basketbolcu	-11.2867
▁Gary	-11.2868
▁kralları	-11.2868
თ	-11.2868
ě	-11.2868
▁Lawrence	-11.2868
▁Leipzig	-11.2868
▁ağabeyi	-11.2868
▁Popüler	-11.2868
▁Ronald	-11.2869
pert	-11.287
▁çıkarak	-11.2872
▁Alayı	-11.2878
▁218	-11.2879
▁241	-11.2879
▁damar	-11.288
▁Kh	-11.2882
▁2016-17	-11.2886
ulus	-11.2887
▁Ted	-11.2888
yuk	-11.2889
▁Halit	-11.289
HC	-11.2891
▁Bunu	-11.2893
▁adaylığı	-11.2893
▁Bog	-11.2894
▁konak	-11.2894
▁189	-11.2895
▁bisikletçi	-11.2895
▁anlatım	-11.2896
▁kullanıcılar	-11.2897
▁(26	-11.2897
▁olacağı	-11.2899
▁Blanc	-11.29
aslan	-11.29
▁Helsinki	-11.29
▁Muhafız	-11.29
▁Detroit	-11.29
▁yavru	-11.29
▁bedeli	-11.2901
▁Baha	-11.2901
▁bayram	-11.2901
▁Balık	-11.2901
▁personeli	-11.2902
▁Ayrı	-11.2903
şik	-11.2903
▁sürülen	-11.2907
▁yaşıyordu	-11.2907
▁Books	-11.2907
▁bitiren	-11.291
bî	-11.291
cola	-11.291
▁Doktora	-11.2912
▁yayına	-11.2912
▁Bilimsel	-11.2912
tari	-11.2912
▁rastlan	-11.2913
▁CP	-11.2914
▁Başkanlık	-11.2917
▁zincir	-11.2918
▁−1	-11.2919
▁Burdur	-11.292
▁aşık	-11.2923
▁yazılımlar	-11.2924
▁bastır	-11.2926
gle	-11.2928
▁Ami	-11.293
nispeten	-11.2932
э	-11.2932
▁sağlamaktadır	-11.2933
▁tanıtıldı	-11.2933
▁Terim	-11.2933
▁tanımlanmıştır	-11.2935
▁Cent	-11.2935
▁%100	-11.2942
▁sözleşmesi	-11.2943
▁Orada	-11.2946
▁sıraya	-11.2948
▁SF	-11.2948
▁1/	-11.2948
▁sakinleri	-11.2952
▁olgu	-11.2954
▁Albümleri	-11.2955
▁270	-11.2957
▁Kırgız	-11.2957
▁Pep	-11.2961
▁Mülkiye	-11.2964
▁dinozor	-11.2964
▁avantaj	-11.2964
▁ideoloji	-11.2965
▁minare	-11.2965
▁Ofisi	-11.2967
▁gemiler	-11.2968
▁üreme	-11.297
▁psikoloji	-11.2971
▁Eugen	-11.2971
Ham	-11.2971
▁Kök	-11.2972
▁antlaşmaları	-11.2972
▁tanımlamak	-11.2972
▁enfeksiyon	-11.2973
▁arşiv	-11.2973
-1994	-11.2974
▁bağlama	-11.2976
yolu	-11.2978
▁Vil	-11.2979
▁çalışmış	-11.2982
▁Ağaç	-11.2982
▁çocuğun	-11.2983
▁Başarılar	-11.2984
▁sanal	-11.2986
▁222	-11.2987
▁tuş	-11.2988
▁vokalist	-11.2988
▁yasama	-11.299
▁Yeniden	-11.2991
▁tarihçiler	-11.2991
▁yürürlü	-11.2992
▁dışına	-11.2994
▁aktivite	-11.2996
▁oksijen	-11.2996
▁ikamet	-11.2996
▁profile	-11.2996
▁yaratıcı	-11.2998
▁görüşme	-11.2998
▁Ayak	-11.2999
1974	-11.2999
-03	-11.3002
▁DS	-11.3003
Arjantin	-11.3003
▁atanan	-11.3004
▁Patri	-11.3005
▁rakip	-11.3005
▁yetişti	-11.3007
▁kurmak	-11.3008
▁Aliyev	-11.3008
▁Yahudileri	-11.3008
▁yazıldı	-11.301
ña	-11.3015
ის	-11.3016
lenmeye	-11.3018
▁223	-11.3022
▁Suat	-11.3023
gori	-11.3024
უ	-11.3028
▁satranç	-11.3028
▁Çoban	-11.3028
▁kurucuları	-11.3028
▁Başar	-11.303
ów	-11.3031
▁Test	-11.3031
▁Hotel	-11.3032
▁yolculuk	-11.3034
▁Party	-11.3036
▁+5	-11.3036
▁1885	-11.3036
oyun	-11.3039
▁Derin	-11.3039
▁4.3	-11.304
▁güncelleme	-11.3041
▁Phone	-11.3042
▁228	-11.3043
▁topladı	-11.3044
yerek	-11.3044
▁Yasası	-11.3046
▁JK	-11.3046
▁Teşkilatı	-11.3047
▁Kali	-11.3048
▁Point	-11.3049
▁Salvador	-11.306
▁materyal	-11.306
▁yelken	-11.306
▁(1972)	-11.3062
oro	-11.3063
▁Barajı	-11.3064
LE	-11.3067
▁hayatının	-11.3068
▁tasarımcı	-11.3068
▁yönetmenliği	-11.3068
▁çalışmalarında	-11.3068
▁bölümünün	-11.3073
▁geçim	-11.3074
▁kop	-11.3076
▁Rak	-11.3076
▁Hamza	-11.3078
▁futbolculuk	-11.3078
▁güvenli	-11.3078
ulan	-11.3079
dow	-11.3081
▁serisinde	-11.3081
▁bakanlık	-11.3082
▁Hristiyanlık	-11.3082
▁(7)	-11.3085
▁'''17'''	-11.3085
▁kutu	-11.3086
ttığı	-11.3086
ević	-11.3086
▁ayakta	-11.3089
▁yayınları	-11.309
▁Demo	-11.309
Apollo	-11.3091
▁genişleme	-11.3092
▁Wiki	-11.3092
▁soruşturma	-11.3093
▁restorasyon	-11.3093
▁sıfat	-11.3093
-2002	-11.3093
▁Warriors	-11.3093
▁gruptan	-11.3094
▁Dublin	-11.3094
▁2018-19	-11.3094
▁şube	-11.3095
▁edici	-11.3095
▁ste	-11.3098
▁Primera	-11.3098
▁219	-11.3099
▁uzanır	-11.3099
▁değişir	-11.3099
laşım	-11.3103
hof	-11.3103
▁getirilen	-11.3103
▁Tang	-11.3104
▁Hey	-11.3104
▁çeşme	-11.3105
▁232	-11.3105
▁Lucas	-11.3106
▁Duvar	-11.3107
▁gaga	-11.3108
▁Dick	-11.311
▁zırh	-11.311
rıldı	-11.3111
▁özeti	-11.3111
hed	-11.3114
▁kuran	-11.3115
▁4.8	-11.3121
▁çoklu	-11.3122
▁karma	-11.3125
▁yiyecek	-11.3125
Å	-11.3125
▁dikkate	-11.3126
▁Raymond	-11.3126
▁ediliyor	-11.3127
▁Göztepe	-11.3127
DI	-11.3127
▁tanımlar	-11.3129
▁yıkıl	-11.313
▁Warner	-11.313
▁Gibi	-11.3132
▁Artist	-11.3132
▁Erkan	-11.3137
▁Robin	-11.3138
Time	-11.314
▁bant	-11.3141
▁1938'	-11.3143
Sol	-11.3146
▁komut	-11.3146
▁Burun	-11.3146
▁Russia	-11.3147
éri	-11.3149
▁Özkan	-11.315
▁kemeri	-11.3156
▁Nation	-11.3157
▁birimler	-11.3157
▁peygamber	-11.3158
▁kamyon	-11.3158
▁yürütmüştür	-11.3158
▁boğaz	-11.3159
▁Sancağı	-11.3161
▁imparatorluk	-11.3162
▁SD	-11.3163
▁fra	-11.3163
▁gelişen	-11.3163
▁sertifika	-11.3164
▁Bib	-11.3166
▁onunla	-11.3166
▁47,5	-11.3168
▁Planet	-11.3169
▁Başkanları	-11.3172
1919	-11.3173
▁olmaları	-11.3173
▁224	-11.3173
▁Lenin	-11.3174
▁şampiyona	-11.3177
▁Esp	-11.3178
rup	-11.3178
▁yardımcıları	-11.3178
▁uygulanan	-11.3179
ković	-11.3179
▁kategoride	-11.3181
▁Lider	-11.3181
▁TL	-11.3182
▁icat	-11.3183
bora	-11.3187
▁tava	-11.3188
▁Benjamin	-11.319
▁aşiret	-11.3191
▁kapıları	-11.3191
▁birbirlerine	-11.3193
▁Vegas	-11.3193
▁bağlayan	-11.3194
Kızıl	-11.3195
▁Nehir	-11.3198
▁gelecekte	-11.3199
▁geldiğinde	-11.32
▁450	-11.32
▁oluşturuldu	-11.3202
▁Yazarlar	-11.3204
▁eklendi	-11.3204
▁gençler	-11.3206
▁çalışmak	-11.3206
▁atıldı	-11.3208
▁örnekler	-11.3213
Ul	-11.3213
hâ	-11.3214
▁Oyunlar	-11.3215
▁büyükelçi	-11.3218
▁önlemek	-11.3219
▁akraba	-11.3219
▁Hristiyanlar	-11.3221
▁'''27	-11.3223
▁Mitchell	-11.3223
▁Yüksekokulu	-11.3223
▁belirtilmiştir	-11.3223
▁düşünülen	-11.3223
▁mürettebat	-11.3223
▁Çarşamba	-11.3223
▁Zirve	-11.3223
▁Çalış	-11.3224
▁Gul	-11.3225
▁Taner	-11.3225
▁isimdir	-11.3228
-1993	-11.3234
hib	-11.3236
ruh	-11.3238
▁yazında	-11.3238
play	-11.3239
▁büyüklüğü	-11.3243
▁Delta	-11.3243
▁Poz	-11.3243
▁Hir	-11.3244
Beyaz	-11.3246
▁genişliği	-11.3246
▁sanatçının	-11.3247
–16	-11.3247
▁Biyo	-11.3249
▁temsilci	-11.325
▁Bayar	-11.3252
▁önemi	-11.3252
▁başlama	-11.3252
▁kayıtlı	-11.3253
▁Görevleri	-11.3254
▁Carter	-11.3255
▁Ayhan	-11.3255
▁CEO	-11.3256
▁229	-11.3256
▁çarpışma	-11.3256
▁KBS	-11.3257
▁tanınmaktadır	-11.3257
▁aralığı	-11.3257
▁vuruş	-11.3258
▁destekleyen	-11.326
▁Rovers	-11.326
▁234	-11.3262
▁denize	-11.3264
Özgür	-11.3267
▁Dağlık	-11.3267
Royal	-11.3269
Görev	-11.3269
▁enzim	-11.327
▁ekonomist	-11.3271
▁Tümen	-11.3271
fobi	-11.3273
▁Akademik	-11.3277
▁fırlat	-11.3279
▁Sait	-11.328
cula	-11.328
▁IC	-11.3281
▁Aşık	-11.3281
▁sö	-11.3284
▁Net	-11.3287
▁Til	-11.3287
road	-11.3288
hop	-11.3288
▁olimpiyat	-11.3289
▁amcası	-11.329
▁sunmaktadır	-11.329
▁azınlık	-11.329
▁gündem	-11.329
2003	-11.3291
▁davran	-11.3294
▁1888	-11.3295
zyon	-11.3295
▁veriler	-11.3296
▁frekans	-11.3296
▁Georgi	-11.33
▁gölü	-11.3302
-1991	-11.3304
vra	-11.3304
▁hücreler	-11.3307
▁öğretmenlik	-11.3307
▁Bilge	-11.3309
▁olabileceği	-11.331
▁por	-11.331
▁page	-11.3311
▁Direktör	-11.3311
▁oranda	-11.3314
▁valileri	-11.3315
▁koku	-11.3316
▁Maya	-11.3318
▁Ünal	-11.3319
▁uyuşturucu	-11.3322
동	-11.3322
ę	-11.3322
خ	-11.3322
▁Etiyopya	-11.3322
▁İşbirliği	-11.3322
▁(8)	-11.3323
▁(1968)	-11.3323
▁kaldırılmıştır	-11.3324
Oyuncu	-11.3324
▁sunma	-11.3325
▁yaralandı	-11.3325
▁koşullar	-11.3325
▁pozisyonu	-11.3326
▁istediği	-11.3326
▁Divan	-11.3327
▁kalması	-11.3328
▁Lib	-11.3328
Sil	-11.3335
sted	-11.3336
▁derecesini	-11.3337
те	-11.3337
▁Doğumlar	-11.3339
égion	-11.3339
fizik	-11.3339
▁kablo	-11.334
PR	-11.3345
▁Agu	-11.3345
▁tartışmalar	-11.3348
▁yoksa	-11.3351
▁China	-11.3351
nick	-11.3352
▁Ramazan	-11.3356
▁Shield	-11.3356
▁sultan	-11.3356
▁bırakmıştır	-11.3358
▁Çakır	-11.3359
▁geçit	-11.336
siklet	-11.336
fit	-11.336
▁endüstri	-11.3361
▁Sci	-11.3361
▁Baskı	-11.3366
Yunanistan	-11.3369
ва	-11.3369
▁düşünür	-11.337
▁Note	-11.3374
▁Garden	-11.3374
:1948	-11.3375
▁kararıyla	-11.3377
▁Messi	-11.338
▁Lanka	-11.338
▁değişimi	-11.3382
▁Liu	-11.3385
▁Finaller	-11.3385
▁Shar	-11.3385
ри	-11.3385
▁İsmi	-11.3385
vul	-11.3387
▁Albümü	-11.3387
prefektörlük	-11.3389
▁Yiğit	-11.3389
:1921	-11.3389
Kİ	-11.3389
küre	-11.3389
▁yapıya	-11.339
▁2,5	-11.339
▁mantık	-11.339
▁Dizinin	-11.3391
▁politikaları	-11.3391
▁Tesis	-11.3391
view	-11.3391
▁grubuna	-11.3391
▁Lit	-11.3391
▁How	-11.3395
▁Santos	-11.3395
▁Mirza	-11.3398
▁karşılaşmaları	-11.3399
▁hapishane	-11.3399
▁Pil	-11.34
Çıkış	-11.3401
▁Let	-11.3401
▁kütlesi	-11.3402
Coupe	-11.3402
▁MHP	-11.3402
▁Ölümler	-11.3403
▁kararname	-11.3404
▁Tol	-11.3406
-2001	-11.3407
▁%0	-11.3409
▁Grace	-11.341
▁1'''	-11.3412
▁asla	-11.3413
▁turları	-11.3415
▁manyetik	-11.3415
▁doldur	-11.3416
▁Lav	-11.3417
▁biyolojik	-11.3417
▁Yücel	-11.3418
▁Rö	-11.3418
▁Campbell	-11.3422
▁IMDb	-11.3422
▁birleşerek	-11.3422
▁Telekom	-11.3423
▁bulunabilir	-11.3424
▁1939'	-11.3425
▁Grande	-11.3426
▁sayılar	-11.3426
▁Cilt	-11.3427
▁padişah	-11.3427
▁hesaplama	-11.343
▁planlanan	-11.343
▁5.0	-11.3432
Şeytan	-11.3433
▁kelimesinden	-11.3435
eiro	-11.3435
Uluslararası	-11.3435
▁Elif	-11.3436
8,5	-11.3437
▁Ice	-11.3438
▁sınırında	-11.3439
▁tekerlek	-11.3439
▁kolayca	-11.344
▁takımıdır	-11.3442
▁uyu	-11.3443
▁Head	-11.3444
▁alacak	-11.3444
▁eğit	-11.3448
▁makaleler	-11.345
▁hastanede	-11.3451
▁Gaga	-11.3454
ș	-11.3456
▁Geliştirme	-11.3456
▁yerleşik	-11.3456
▁Menderes	-11.3456
▁gömüldü	-11.3456
▁Hükümeti	-11.3457
ianus	-11.3457
▁başlayıp	-11.3458
▁235	-11.3459
▁üretilmiştir	-11.3461
▁RAM	-11.3462
▁Ep	-11.3462
▁Adem	-11.3466
▁yollar	-11.3466
▁manken	-11.3468
▁Yalı	-11.3469
▁Raw	-11.3471
▁Prensi	-11.3472
Bey	-11.3472
▁Tanım	-11.3473
▁238	-11.3473
▁Kür	-11.3473
▁п	-11.3474
1992	-11.3474
ampa	-11.3475
tizm	-11.3478
▁baz	-11.3479
Max	-11.3482
▁2017-18	-11.3483
▁Köken	-11.3483
▁Kazananlar	-11.3484
▁Barry	-11.3484
▁Imp	-11.3487
BĞMSZ	-11.3489
▁algoritma	-11.3489
▁belirtmiştir	-11.3489
▁Orleans	-11.349
▁Standart	-11.349
▁Efsane	-11.349
▁Christmas	-11.349
▁Africa	-11.349
▁sunulmuştur	-11.349
▁Seslendirme	-11.3491
▁ilçenin	-11.3492
▁liderliğindeki	-11.3492
▁niteliğinde	-11.3492
▁Pul	-11.3494
▁yamaç	-11.3494
▁Oran	-11.3498
▁Cry	-11.3498
▁nöro	-11.3499
▁Gram	-11.35
kari	-11.3501
1976	-11.3503
Askerî	-11.3503
▁Başbakanlık	-11.3505
▁Kob	-11.3507
▁Taşı	-11.3508
▁kiralandı	-11.351
▁TC	-11.3511
▁237	-11.3513
▁Ercan	-11.3515
▁Special	-11.3515
▁Maçı	-11.3516
abilmesi	-11.3518
▁Dean	-11.3518
▁6.0	-11.352
vé	-11.3523
Taksonomi	-11.3523
▁Karabük	-11.3523
▁bozukluğu	-11.3523
▁İlkokulu	-11.3524
▁fırın	-11.3524
▁çözül	-11.3524
▁mekân	-11.3524
▁Nancy	-11.3524
▁Oktay	-11.3525
▁açılması	-11.3526
▁Scene	-11.3526
▁etiket	-11.3526
▁Whit	-11.3527
court	-11.353
▁istasyonudur	-11.3532
▁süredir	-11.3532
▁Bruno	-11.3533
aria	-11.3533
▁yazması	-11.3533
▁Şube	-11.3534
▁ticareti	-11.3534
aktif	-11.3536
▁dinî	-11.3537
örneğin	-11.3537
▁gram	-11.3538
▁uygulanması	-11.3539
▁tenisçi	-11.3539
▁seviyesinden	-11.354
▁Sv	-11.3543
Takım	-11.3543
▁çeşidi	-11.3544
▁kategorisi	-11.3545
▁sayım	-11.3546
▁LP	-11.3546
▁filmdir	-11.3548
▁Stat	-11.355
press	-11.3553
sızlık	-11.3556
▁Romalılar	-11.3557
▁Santiago	-11.3557
▁hesabı	-11.3557
▁tahrip	-11.3558
▁Yargı	-11.3558
▁Tommy	-11.3561
▁Şair	-11.3564
▁düzlem	-11.3565
▁davası	-11.3566
▁çözme	-11.3566
▁beslenme	-11.3566
down	-11.3567
▁dilde	-11.357
▁226	-11.3573
0.4	-11.3576
▁Serge	-11.3577
3,5	-11.3578
-2016	-11.3578
▁Earl	-11.3584
▁üyelerinden	-11.3585
▁Araştırmaları	-11.3585
▁Kaş	-11.3586
Jean	-11.3587
box	-11.3588
▁Dağlar	-11.359
▁Riko	-11.359
▁Mevcut	-11.3591
▁sıfır	-11.3591
▁yuvarlak	-11.3591
▁Sicilya	-11.3591
▁Çınar	-11.3591
▁krallık	-11.3593
▁toplulukları	-11.3593
▁konuda	-11.3596
vision	-11.3596
▁keskin	-11.3597
▁Carlo	-11.3598
▁Tech	-11.3599
Lost	-11.3601
1973	-11.3603
▁Volkan	-11.3605
AY	-11.3605
sser	-11.3606
Michael	-11.3607
kısa	-11.3608
▁planlama	-11.3608
▁aracın	-11.3609
▁Roll	-11.3609
▁Sym	-11.361
▁Hamdi	-11.361
▁Futbolcu	-11.3611
▁ortamda	-11.3612
▁Nikolay	-11.3613
▁Kül	-11.3615
▁Enver	-11.3615
▁öğrencilerin	-11.3617
▁olmasının	-11.3617
▁Filo	-11.3617
▁Bert	-11.3619
▁Oyunculuk	-11.362
▁adlandırıldı	-11.362
NS	-11.3621
▁dönüşüm	-11.3623
Ses	-11.3625
▁yayımlanmış	-11.3625
▁Celtics	-11.3625
▁Isabel	-11.3626
▁borç	-11.3626
▁mutlu	-11.3626
▁Sekiz	-11.3626
▁halterci	-11.3626
▁kabuk	-11.3626
▁Austin	-11.3626
▁kasabasında	-11.3626
▁(18,7	-11.3627
▁Kanat	-11.3627
▁Wright	-11.3628
War	-11.3628
▁ikna	-11.3633
▁xx	-11.3635
▁Denis	-11.3635
▁IF	-11.3637
▁Petro	-11.3638
▁Alberto	-11.3638
nomi	-11.364
Litvan	-11.364
▁başbakanlık	-11.364
Diskografi	-11.3641
▁Flo	-11.3645
▁Ober	-11.3647
batı	-11.3651
▁amaçlar	-11.3651
evî	-11.3651
▁yatay	-11.3653
▁öğreti	-11.3655
▁Bireysel	-11.3656
▁Torre	-11.3658
▁Gürel	-11.3658
▁Order	-11.3658
▁Bangladeş	-11.366
▁okuyucu	-11.366
▁Üzerine	-11.366
▁Sri	-11.366
▁İzmit	-11.3661
▁Nat	-11.3662
▁Senatör	-11.3662
▁Mağara	-11.3662
Erkek	-11.3663
▁Kru	-11.3667
▁eleştirmenler	-11.3668
▁1882	-11.3668
mah	-11.3668
▁müzeleri	-11.3668
▁ISO	-11.3669
etto	-11.3672
▁sunucuları	-11.3673
▁Muharebe	-11.3674
▁satılan	-11.3674
▁Makedon	-11.3674
▁Hiç	-11.3677
▁ödülüne	-11.3679
▁Makine	-11.3679
▁tuttu	-11.368
▁duruma	-11.368
gues	-11.3682
Gre	-11.3683
▁Tenis	-11.3686
▁Rom	-11.3688
▁Barb	-11.3689
▁sitler	-11.369
Liste	-11.369
suzluk	-11.3693
▁açıklaması	-11.3693
▁Cenevre	-11.3694
▁Napolyon	-11.3694
▁Wrestling	-11.3694
▁oluşturulmuş	-11.3694
▁Kamerun	-11.3694
▁mesleği	-11.3694
ος	-11.3694
▁hidrojen	-11.3694
▁dokuzuncu	-11.3694
▁Front	-11.3698
icus	-11.3699
▁Efes	-11.3701
▁'''28	-11.3703
▁%0,0	-11.3704
▁konumunda	-11.3705
▁SBS	-11.3706
да	-11.3708
▁Osmaniye	-11.3709
▁nedenlerden	-11.3709
▁dağıtımı	-11.3711
lash	-11.3711
▁format	-11.3713
▁Dragon	-11.3714
▁seyre	-11.3714
▁Carol	-11.3715
▁şifre	-11.3719
koç	-11.372
▁Acı	-11.372
▁serisidir	-11.372
▁oyu	-11.3722
lmaktadır	-11.3722
▁esin	-11.3723
▁uyarlanmış	-11.3728
▁Nadir	-11.3728
▁DNF	-11.3728
▁Uzman	-11.3729
▁popülasyon	-11.3729
▁annesinin	-11.373
8.5	-11.373
▁3''	-11.373
▁Bobby	-11.3731
▁Keskin	-11.3731
▁Çor	-11.3732
▁katılır	-11.3733
▁2008-2009	-11.3737
Gar	-11.3737
▁Amir	-11.3737
oğulları	-11.3739
▁Mez	-11.374
▁Harbiye	-11.374
ík	-11.3742
▁5.5	-11.3747
▁payı	-11.3747
▁kıyısı	-11.3747
James	-11.3747
▁tutan	-11.3748
▁Valley	-11.3748
но	-11.3749
▁Have	-11.375
▁Posta	-11.375
▁sektöründe	-11.3752
▁kişiyi	-11.3754
rá	-11.3756
ти	-11.3758
Baba	-11.3758
▁Ref	-11.376
▁290	-11.3761
▁Global	-11.3763
▁Otomobil	-11.3763
▁Hotspur	-11.3763
seksüel	-11.3763
▁Değer	-11.3763
▁Başlıca	-11.3763
▁Kırıkkale	-11.3763
▁Gustav	-11.3763
▁Mimari	-11.3764
▁Mara	-11.3764
▁şehre	-11.3764
▁gerekmektedir	-11.3765
▁pazarlama	-11.3766
▁tanınmıştır	-11.3768
▁Rizespor	-11.3768
▁kızıl	-11.3769
▁Spartak	-11.3771
▁Mori	-11.3771
▁Act	-11.3773
▁vatandaşlığın	-11.3773
KK	-11.3774
▁kahramanı	-11.3775
long	-11.3775
-27	-11.3777
▁pir	-11.3777
▁BB	-11.3779
köprü	-11.378
Albüm	-11.3781
▁Horn	-11.3781
Christ	-11.3782
▁aroma	-11.3785
Tru	-11.3786
▁hücreleri	-11.3788
▁üniversitede	-11.3789
▁Poly	-11.3789
shu	-11.3791
▁Steel	-11.3791
▁komedyen	-11.3792
oslav	-11.3794
▁kaydedilmiş	-11.3796
▁Scar	-11.3796
ά	-11.3798
▁rehber	-11.3798
▁dayanarak	-11.3798
▁çapraz	-11.3798
▁Somali	-11.3798
▁Kurum	-11.3798
▁sevgilisi	-11.3798
▁Nevşehir	-11.3798
▁Kontrol	-11.3799
▁uyarınca	-11.3799
▁About	-11.3799
▁Robinson	-11.3801
▁Sümer	-11.3801
▁uyarlanmıştır	-11.3802
zor	-11.3802
▁faaliyetlerini	-11.3802
▁hükümdar	-11.3803
▁konserler	-11.3803
▁eklenmiştir	-11.3803
▁gezegenler	-11.3805
▁Dong	-11.3807
▁yerleşimin	-11.3808
▁liderler	-11.381
▁kuşları	-11.3813
ər	-11.3813
Mag	-11.3814
MI	-11.3817
▁dokun	-11.3818
▁oran	-11.3819
▁üstüne	-11.3822
▁Seçil	-11.3822
▁There	-11.3822
Grand	-11.3823
▁1871	-11.3823
▁Organ	-11.3824
1970	-11.3824
▁malzemeleri	-11.3827
▁aşağıda	-11.3827
Copa	-11.3832
▁giysi	-11.3833
▁geliştirici	-11.3834
▁Dub	-11.3836
stru	-11.3836
▁çöl	-11.3836
▁Sonrasında	-11.3836
▁kimyager	-11.3836
▁Sylv	-11.3837
şimdi	-11.3837
▁şarkıdır	-11.3837
▁özelliklerini	-11.3839
▁Bonn	-11.384
▁Okyanus	-11.384
▁kentinin	-11.3843
▁gelin	-11.3844
▁bat	-11.3844
Gürcü	-11.3846
toloji	-11.3847
▁Dükü	-11.3847
▁getirmek	-11.3847
▁ekmek	-11.3849
▁inter	-11.3849
▁Tuğ	-11.3849
ndre	-11.3851
put	-11.3852
Sinema	-11.3852
▁etkisiyle	-11.3853
▁Intel	-11.3856
▁dağlık	-11.3857
▁kim	-11.3859
labilir	-11.3861
▁liga	-11.3861
▁Sekreter	-11.3862
Murder	-11.3865
ē	-11.3868
▁koalisyon	-11.3868
▁Jamaika	-11.3868
▁Antakya	-11.3868
▁enstitü	-11.3868
▁kalkış	-11.3868
Halk	-11.3869
ал	-11.3869
▁hâlâ	-11.387
▁bakanlığı	-11.387
▁5000	-11.387
▁'''16.	-11.387
▁Child	-11.3871
▁Ahit	-11.3871
▁Havacılık	-11.3871
▁1919'	-11.3873
▁Meksikalı	-11.3874
▁renkleri	-11.3877
▁düşüş	-11.3877
▁Çu	-11.3877
▁iklimi	-11.3877
▁Mutlu	-11.3881
▁metrelik	-11.3881
scher	-11.3881
▁yöntemler	-11.3882
▁Mick	-11.3885
▁Puanlar	-11.3886
▁satır	-11.3887
Kir	-11.3889
▁farklılık	-11.389
▁Kör	-11.3892
▁alay	-11.3893
▁kenarında	-11.3895
▁Europe	-11.3896
▁Hum	-11.3899
▁parklar	-11.3899
▁feminist	-11.3903
▁Bavyera	-11.3903
▁FOX	-11.3903
▁Çeçen	-11.3903
▁Nicole	-11.3903
Almanya	-11.3905
▁çekmiştir	-11.3906
Konu	-11.3907
▁0,2	-11.3911
ddin	-11.3914
▁bölü	-11.3915
▁Sloven	-11.3915
▁Johannes	-11.3916
▁metredir	-11.3918
▁Walker	-11.3919
▁Coll	-11.3921
▁2019),	-11.3921
lang	-11.3921
▁Zel	-11.3923
kadın	-11.3928
▁uçuşu	-11.3929
▁görevlileri	-11.3929
▁Chen	-11.3929
▁kaleler	-11.393
▁Kalkan	-11.3931
▁Ec	-11.3932
▁Uruguay	-11.3933
▁memuru	-11.3934
▁yılan	-11.3935
▁olayın	-11.3935
▁seslendirdi	-11.3937
Hay	-11.3938
▁Kürdistan	-11.3938
▁Müttefik	-11.3938
▁Shakespeare	-11.3938
▁kristal	-11.3938
▁sebze	-11.3938
▁şahıs	-11.3938
▁talebi	-11.3938
▁Kansas	-11.3938
▁(1967)	-11.3939
▁kolej	-11.3939
8.0	-11.3941
▁SSC	-11.3942
▁krem	-11.3945
▁mahallesinde	-11.3946
Luc	-11.3949
▁evlenmiştir	-11.3949
▁dere	-11.3951
▁Avrupalı	-11.3959
▁1875	-11.3961
▁Mısırlı	-11.3962
▁(27	-11.3963
pak	-11.3964
▁ulaşma	-11.3965
▁Meydan	-11.3967
▁tepesi	-11.3967
ω	-11.3973
ό	-11.3973
▁deplasman	-11.3973
▁soğan	-11.3975
▁içeriyordu	-11.3975
6.4	-11.3976
tima	-11.3978
▁tahtta	-11.3978
▁rakım	-11.3978
▁Kimi	-11.3979
▁balina	-11.398
Cennet	-11.398
▁kartı	-11.398
▁Danny	-11.398
▁alırken	-11.3981
hou	-11.3981
▁Luke	-11.3981
▁Stre	-11.3982
▁Şubesi	-11.3984
ografik	-11.3985
▁akış	-11.3986
▁(2007	-11.3988
▁Durumu	-11.3991
▁Kenya	-11.3995
▁Again	-11.3996
▁sor	-11.3997
▁kalitesi	-11.3997
▁uğradı	-11.3998
▁Güncel	-11.4
anga	-11.4
▁245	-11.4003
Çok	-11.4004
▁Kamil	-11.4005
orta	-11.4007
▁236	-11.4007
▁Hakkâri	-11.4009
▁okyanus	-11.4009
▁Public	-11.4009
▁tapınağı	-11.4009
▁Havaalanı	-11.4009
▁İlgili	-11.4009
▁kömür	-11.4009
▁Standard	-11.4009
▁Brothers	-11.4009
▁Saka	-11.4009
▁Sözlüğü	-11.4013
▁ilkokul	-11.4013
▁getirmiştir	-11.4013
▁yaygındır	-11.4013
▁Yöre	-11.4013
▁şehrine	-11.4022
▁Kerim	-11.4022
▁Baz	-11.4023
4.9	-11.4024
▁anki	-11.4025
ians	-11.4027
script	-11.403
Sosyal	-11.403
▁Pres	-11.403
cuk	-11.403
▁kazası	-11.4035
izmin	-11.4039
▁Vor	-11.4039
▁BC	-11.404
▁231	-11.4041
rerek	-11.4042
▁В	-11.4042
▁Nilüfer	-11.4044
▁Jessica	-11.4045
▁Marshall	-11.4045
▁değiştirilmiş	-11.4046
▁zamanın	-11.4047
-2015	-11.4047
▁Graham	-11.4048
▁yayınlamıştır	-11.4048
▁bitti	-11.4048
▁Qa	-11.4048
▁soyundan	-11.4052
▁yükleme	-11.4052
▁grubunu	-11.4053
▁çiftler	-11.4053
▁şeyi	-11.4053
▁geliştirmek	-11.4054
George	-11.4059
▁242	-11.4061
▁Sanatçısı	-11.4063
▁Kemer	-11.4063
▁duyuruldu	-11.4064
▁'''18'''	-11.4066
▁Şer	-11.4067
PDF	-11.4068
▁dansı	-11.4071
▁Battle	-11.4071
▁Ny	-11.4072
▁olurken	-11.4074
▁Noel	-11.4075
▁müdürlüğü	-11.4076
▁Toro	-11.4078
ő	-11.408
▁Vampire	-11.408
Çizgi	-11.408
Tıbbi	-11.4081
print	-11.4081
▁(1965)	-11.4082
Ur	-11.4085
Şu	-11.4085
▁0-3	-11.4086
▁yüzme	-11.4088
Boy	-11.4088
▁şartları	-11.4089
ს	-11.409
▁düş	-11.4092
▁izledi	-11.4093
▁geriye	-11.4095
Kom	-11.4095
Phys	-11.4097
▁yorumcu	-11.4103
▁Danimarkalı	-11.4105
▁Ž	-11.4107
andra	-11.4109
▁kızları	-11.4111
▁yarışmaları	-11.4112
▁Asa	-11.4114
9.0	-11.4115
ос	-11.4116
▁Kırklareli	-11.4116
▁Magazine	-11.4116
▁sipariş	-11.4116
▁Atlantik	-11.4116
▁Liyakat	-11.4116
▁Farklı	-11.4116
▁GT	-11.4116
▁Bakırköy	-11.4116
▁dönmüştür	-11.4117
ated	-11.4118
▁Baltık	-11.4119
▁yarımada	-11.4119
▁rekor	-11.412
▁grubunda	-11.412
▁sürdüren	-11.4121
▁nahiyesi	-11.4122
▁Bush	-11.4123
▁şişe	-11.4125
▁Ring	-11.4125
▁Devre	-11.4127
arım	-11.4127
Mad	-11.413
▁Başlangıç	-11.4134
phy	-11.4134
▁gösterimi	-11.4135
▁Corn	-11.4137
▁geçirildi	-11.4141
laşır	-11.4142
fort	-11.4142
▁Adalı	-11.4147
▁Sık	-11.4147
▁şirketinin	-11.415
▁Sergi	-11.4151
FI	-11.4151
▁kâşif	-11.4152
▁referans	-11.4152
▁Ülkü	-11.4152
▁1,3	-11.4152
▁branş	-11.4152
▁Express	-11.4152
grafi	-11.4153
▁Yüzme	-11.4154
▁söylemiştir	-11.4154
▁Bitiş	-11.4157
▁Moore	-11.4157
▁tabanca	-11.4158
▁alçak	-11.4158
▁Kahramanı	-11.416
▁kuvveti	-11.4162
▁senatör	-11.4163
▁Oslo	-11.4165
▁Zeng	-11.4166
yapı	-11.4167
▁Daimi	-11.4168
▁modül	-11.417
▁eksikliği	-11.4172
▁20.00	-11.4174
▁Sevgili	-11.4174
▁bulunmakta	-11.4174
▁köprüler	-11.4176
▁fotoğrafı	-11.4177
ال	-11.4177
▁Hunter	-11.4178
▁Philippe	-11.4179
Kor	-11.418
▁Buffy	-11.4187
▁Abdülhamid	-11.4188
▁Broadway	-11.4188
▁Bükreş	-11.4188
▁Manhattan	-11.4188
honneur	-11.4188
▁keşfi	-11.4188
▁olağanüstü	-11.4188
▁puanlar	-11.4189
▁Gıda	-11.419
▁kilit	-11.4191
▁Machine	-11.4192
How	-11.4193
▁Shaw	-11.4193
ality	-11.4195
1968	-11.4195
gücü	-11.4196
▁247	-11.4197
▁vücudun	-11.4197
▁Aşkın	-11.42
▁boşalt	-11.4201
▁Gau	-11.4204
▁başrollerinde	-11.4205
veren	-11.4209
▁öğret	-11.4209
▁maçın	-11.421
▁olayların	-11.4213
leşmesi	-11.4215
–6	-11.4216
▁tehlikeli	-11.4217
▁Beau	-11.4218
▁lif	-11.4219
▁Dava	-11.4221
▁Java	-11.4222
▁pilotu	-11.4223
▁Research	-11.4224
▁örümcek	-11.4224
▁Protestan	-11.4224
▁İslâm	-11.4224
▁Emniyet	-11.4224
▁federasyon	-11.4224
▁hassas	-11.4224
:1938	-11.4224
:1940	-11.4224
▁penaltı	-11.4225
▁(28	-11.4225
▁sivri	-11.4226
▁stili	-11.4227
7.8	-11.4227
▁ailesine	-11.4229
▁göstermek	-11.4233
▁Üye	-11.4233
▁koydu	-11.4235
▁Hatlar	-11.4235
jet	-11.4235
Vol	-11.4236
CH	-11.4236
▁İkili	-11.4238
▁önemlidir	-11.4243
▁Yen	-11.4243
▁Total	-11.4244
▁(2011	-11.4244
▁Age	-11.4244
▁çeker	-11.4247
▁yarışmaya	-11.4247
Yıldız	-11.4248
▁252	-11.4249
ssy	-11.4253
▁Okan	-11.4256
Köy	-11.4259
▁Bolivya	-11.426
▁çekişli	-11.426
▁demokrasi	-11.426
▁'''100,0	-11.4261
▁Emirlikleri	-11.4262
▁Sedat	-11.4263
▁seviyesinde	-11.4263
▁kullanıma	-11.4265
▁Break	-11.4269
▁Düzenleme	-11.4269
▁Şampiyonluk	-11.4269
ия	-11.4272
▁Galipleri	-11.4274
▁otuz	-11.4275
▁yolla	-11.4275
▁denen	-11.4275
▁kitapta	-11.4278
▁bilinme	-11.4278
▁Bour	-11.4284
É	-11.4285
▁Haç	-11.4286
▁kurumlar	-11.4287
▁dost	-11.4292
▁PB	-11.4293
▁are	-11.4294
▁Drag	-11.4294
▁sarayın	-11.4294
▁Forum	-11.4294
▁370	-11.4296
▁Seçimleri	-11.4296
▁barındıran	-11.4297
▁monarşi	-11.4297
▁1879	-11.4297
▁Lumia	-11.4297
▁galip	-11.4299
▁kültürde	-11.4299
▁227	-11.4299
▁bilmektedir	-11.4301
▁İnsanlar	-11.4302
▁nesli	-11.4305
▁tutum	-11.4305
▁Cava	-11.4307
▁topraklarına	-11.4308
▁Wars	-11.4308
▁kül	-11.4308
▁ağaçları	-11.4311
▁Türkistan	-11.4311
üncü	-11.4311
▁Wy	-11.4312
kân	-11.4314
▁yaşına	-11.4315
ān	-11.4316
▁Karayipler	-11.4318
Lig	-11.4318
▁ilgisi	-11.4321
Siyasi	-11.4323
Das	-11.4323
▁ailesiyle	-11.4323
▁275	-11.4325
▁vadisi	-11.4325
▁́	-11.4326
▁öncelikle	-11.433
▁Ülkesi	-11.4331
▁Muzaffer	-11.4334
▁buğday	-11.4334
▁Coğrafi	-11.4334
▁Petersburg	-11.4335
▁değerlendirme	-11.4335
▁olacağını	-11.4336
▁burun	-11.4336
Prva	-11.4337
▁atletizm	-11.4337
▁Tong	-11.4338
efendi	-11.4338
▁Pink	-11.4338
▁Oku	-11.434
▁başkanlığında	-11.4341
▁Rumeli	-11.4341
▁Larry	-11.4341
▁Kurgu	-11.4343
▁Güncelleme	-11.4345
uku	-11.4346
▁hayvanların	-11.4346
▁Maha	-11.4348
▁Taraf	-11.4354
▁Christ	-11.4356
▁Bahçesi	-11.4356
▁yetki	-11.4356
roman	-11.4358
-28	-11.4359
Coğrafya	-11.436
Güneş	-11.436
▁turnuvaya	-11.436
▁binanın	-11.436
▁Step	-11.4361
▁CH	-11.4364
▁Olay	-11.4364
▁subayı	-11.4369
▁1872	-11.437
höyük	-11.437
▁Thompson	-11.437
▁Zürih	-11.437
▁rüzgar	-11.437
▁eskrim	-11.437
▁muhalif	-11.437
▁üssü	-11.4371
▁Elektronik	-11.4371
Uzunluk	-11.4371
▁hareketli	-11.4371
Toyota	-11.4372
▁Rat	-11.4372
▁olama	-11.4372
▁2003-04	-11.4373
▁Çiftler	-11.4374
kası	-11.4375
▁erişil	-11.4375
▁kayalık	-11.4377
▁Devri	-11.4377
▁madalyası	-11.4377
▁Box	-11.4378
▁seferi	-11.4381
▁tartışmalı	-11.4382
▁prodüktör	-11.4382
▁müşteri	-11.4386
1912	-11.4388
▁kalkan	-11.4389
Manga	-11.4389
▁destekler	-11.4393
▁310	-11.4393
tomi	-11.4396
▁boks	-11.4398
▁Other	-11.4401
▁Lille	-11.4401
▁dönüm	-11.4401
ли	-11.4402
▁zirvesi	-11.4402
XVI	-11.4402
▁Görsel	-11.4403
Shi	-11.4404
▁Challenge	-11.4407
▁mutfak	-11.4407
▁birçoğu	-11.4407
▁Kağan	-11.4408
▁Harbi	-11.4408
▁Uçuş	-11.4409
keş	-11.4409
▁kullanılma	-11.441
lerarası	-11.4411
▁Budist	-11.4411
vant	-11.4411
pit	-11.4412
Jack	-11.4412
▁Castel	-11.4412
▁alış	-11.4413
▁Mika	-11.4414
▁şeyler	-11.4415
▁halefi	-11.4416
▁251	-11.4416
▁yaşıyor	-11.4423
ardo	-11.4423
▁birincilik	-11.443
▁biçimleri	-11.4431
▁oyununda	-11.4432
▁HP	-11.4433
▁Şef	-11.4435
▁katılması	-11.4435
▁Vur	-11.4436
lendirdi	-11.4437
XIII	-11.4438
▁ağrı	-11.4438
▁faktörler	-11.4443
▁Valencia	-11.4444
▁tüzel	-11.4444
▁endüstriyel	-11.4445
▁teşkilatı	-11.4445
Universit	-11.4445
▁adanmış	-11.4445
▁başarmıştır	-11.4445
▁eğim	-11.4447
▁NFL	-11.4448
▁sayısının	-11.4448
▁şehrindeki	-11.4451
▁sulama	-11.4451
▁öncülü	-11.4453
▁gard	-11.4453
▁sıkça	-11.4453
▁kanunla	-11.4455
▁Sabri	-11.4455
▁Yahudisi	-11.4457
▁Eşi	-11.4458
▁açılışı	-11.4459
-04	-11.446
▁karın	-11.4463
▁şimdiki	-11.4464
▁karşılaştı	-11.4466
reis	-11.4468
Çaykur	-11.4469
150	-11.4471
assi	-11.4472
▁--	-11.4472
Ülke	-11.4473
▁programını	-11.4474
▁Yuri	-11.4475
▁gra	-11.4477
▁Kiralık	-11.4479
▁248	-11.4479
▁muhafaza	-11.4481
▁Güzergâh	-11.4481
▁ziyade	-11.4481
▁Rangers	-11.4481
▁Süryani	-11.4482
▁Brooklyn	-11.4482
▁projeler	-11.4482
▁okçu	-11.4483
▁onuruna	-11.4483
▁ağzı	-11.4483
▁Transfer	-11.4484
yüzü	-11.4484
▁Seul	-11.4484
▁düzensiz	-11.4484
▁oluşum	-11.4485
▁kâr	-11.4486
drom	-11.4487
▁Name	-11.4487
▁Julian	-11.4489
▁ürettiği	-11.4489
▁DP	-11.4489
▁0-2	-11.4491
▁başrollerini	-11.4491
-72	-11.4492
▁246	-11.4492
▁Wien	-11.4493
Sim	-11.4493
▁numaradan	-11.4493
▁hamur	-11.4494
▁Lock	-11.4494
▁düşüncesi	-11.4495
▁rejimi	-11.4499
1881	-11.4501
-29	-11.4502
▁takımdan	-11.4502
▁::1	-11.4504
ebileceği	-11.4505
▁Kings	-11.4508
▁Konsey	-11.4509
▁0.1	-11.451
▁oranında	-11.4511
▁1865	-11.4511
▁İleri	-11.4512
▁üzeri	-11.4516
▁eserlerini	-11.4516
▁Olimp	-11.4517
▁dükkân	-11.4519
▁Floransa	-11.4519
▁München	-11.4519
▁Dj	-11.4519
▁Collins	-11.452
▁destekledi	-11.4521
Gold	-11.4522
▁olmuştu	-11.4522
▁239	-11.4522
vur	-11.4522
▁244	-11.4523
▁sürdürme	-11.4523
▁nitelendir	-11.4523
▁çete	-11.4524
erkek	-11.4526
Hava	-11.4528
-2017	-11.4529
▁Elemeler	-11.4532
▁mitoloji	-11.4532
glo	-11.4533
▁askerlik	-11.4534
▁yapmakta	-11.4535
uklu	-11.4536
▁formül	-11.4538
Detaylar	-11.4538
▁ediyordu	-11.4539
▁249	-11.4541
law	-11.4542
▁1884	-11.4542
▁barın	-11.4548
▁Mezun	-11.4548
▁1864	-11.455
▁Yağ	-11.4552
Rumen	-11.4554
▁Sergey	-11.4555
▁kendisinden	-11.4556
▁Him	-11.4556
▁Lizbon	-11.4556
▁ömrü	-11.4556
▁Baker	-11.4557
▁Kuz	-11.4557
▁sınıflandırma	-11.4558
▁dağılması	-11.456
▁Kanalı	-11.4562
▁Potter	-11.4563
▁Ulaşım	-11.4564
▁Bett	-11.4566
▁kullanmaya	-11.4568
▁LB	-11.457
▁biyografik	-11.4571
çilik	-11.4572
▁görülecek	-11.4573
▁Karma	-11.4576
1986	-11.4576
▁1867	-11.4579
▁Meta	-11.458
▁ulaşır	-11.4585
▁Petrol	-11.4585
İsrail	-11.4586
▁sergiler	-11.4587
▁listesidir	-11.459
▁Tatlı	-11.4591
Öz	-11.4592
▁konsept	-11.4594
▁tahliye	-11.4594
wang	-11.4594
▁Ovası	-11.4595
▁tüketici	-11.4595
▁sezonunu	-11.4601
▁Jose	-11.4604
▁Reform	-11.4604
▁olgun	-11.4606
▁desteğiyle	-11.4606
Mah	-11.4607
▁atılan	-11.4607
▁265	-11.4613
Leeds	-11.4614
▁adresi	-11.4614
rug	-11.4617
▁mod	-11.4619
▁Canlı	-11.4619
▁Alexandr	-11.4621
▁Ful	-11.4622
▁Too	-11.4622
tül	-11.4622
▁'''30	-11.4622
-1990	-11.4625
▁Rossi	-11.4625
▁senaryosu	-11.4625
ř	-11.4626
▁(2004	-11.4627
üşü	-11.4628
▁Fars	-11.4631
▁adaylıklar	-11.4631
▁Cüneyt	-11.4632
▁sinagog	-11.4632
▁İskandinav	-11.4632
▁Jandarma	-11.4632
▁deneysel	-11.4632
▁kurşun	-11.4632
▁geleceği	-11.4632
▁kaydedilen	-11.4632
▁kaldırılan	-11.4633
▁Mono	-11.4633
–5	-11.4633
eçildiği	-11.4634
agh	-11.4635
▁ünite	-11.4637
▁1,9	-11.4638
▁katkıları	-11.4639
oğraf	-11.464
▁Büyükelçiliği	-11.464
İK	-11.4641
▁Hız	-11.4641
▁Kerem	-11.4642
▁Bölümünde	-11.4645
▁Kredi	-11.4646
▁İncil	-11.4647
üst	-11.4648
▁Schi	-11.4649
▁duyma	-11.465
▁dağları	-11.4651
▁Ür	-11.4656
▁puanı	-11.4661
jon	-11.4662
▁düğün	-11.4662
▁1,6	-11.4664
▁Bayan	-11.4667
ბ	-11.4669
▁Missouri	-11.4669
▁heavy	-11.4669
▁Ajax	-11.467
▁Deprem	-11.467
Sullivan	-11.467
▁Australia	-11.467
[...]
